/**
  ******************************************************************************
  * @file    network_data_params.c
  * @author  AST Embedded Analytics Research Platform
  * @date    Sat Nov 12 15:32:27 2022
  * @brief   AI Tool Automatic Code Generator for Embedded NN computing
  ******************************************************************************
  * Copyright (c) 2022 STMicroelectronics.
  * All rights reserved.
  *
  * This software is licensed under terms that can be found in the LICENSE file
  * in the root directory of this software component.
  * If no LICENSE file comes with this software, it is provided AS-IS.
  ******************************************************************************
  */

#include "network_data_params.h"


/**  Activations Section  ****************************************************/
ai_handle g_network_activations_table[1 + 2] = {
  AI_HANDLE_PTR(AI_MAGIC_MARKER),
  AI_HANDLE_PTR(NULL),
  AI_HANDLE_PTR(AI_MAGIC_MARKER),
};




/**  Weights Section  ********************************************************/
AI_ALIGNED(32)
const ai_u64 s_network_weights_array_u64[101711] = {
  0xe7c2f82b0000007fU, 0xdf00a7cf23d200bbU, 0x107fc4efd8ea25f9U, 0xe00bff15fe0128U,
  0xeadfad8101110cbdU, 0x2a38086a10b508c5U, 0x2e0b2af02013e8U, 0xcdf9e92719695290U,
  0x57fcfef1e938c763U, 0x33fa6ac101d80f81U, 0x1e12f3ffdb19f838U, 0x11349267d5172e4bU,
  0x23bac8a7f2c3147U, 0x85d9d2152dd8bafeU, 0x27f7a3f30481dff3U, 0x1a082438e522f51cU,
  0xe0011233d0ee300U, 0xefa7678196ff46dbU, 0xf0fc13dce90f260bU, 0x73db5751192f0e4eU,
  0xb8942600a00c0823U, 0xf60d39d210cb0fe5U, 0x402ff60343e46105U, 0x525de181c11cde52U,
  0x47350609e518058eU, 0xadfd12220b00d936U, 0xeb7ffae0adcdaa62U, 0x9941b699U,
  0x0U, 0x0U, 0x0U, 0x8a0e0fa00000000U,
  0xcc5781b804c8fa48U, 0xa2cf8d2e18ba3d81U, 0x17185c817408812fU, 0xed4e3ae7f48e1b4U,
  0x8152f8ffdb94604dU, 0x2718f4a1ac7fc91eU, 0xcd57e1512e7f5bfcU, 0x2781cfa81a1ec6f6U,
  0x11b53c5eU, 0x0U, 0x0U, 0x0U,
  0x7f7db4ce00000000U, 0x1afa81dfb6e70165U, 0xf215a209c5f71a0bU, 0xecd001817fda063cU,
  0xdb662372df73de40U, 0x3706fc518cc81e6U, 0xc7fbe3813fddb57fU, 0xe48fc81e44cbeabU,
  0x430b6a5bbee2c9bbU, 0x19f1c97f4dcfe27fU, 0xf7f42c08e69c21dU, 0x605b7f7cf19cde1bU,
  0x25fc2ce8f99315c0U, 0x7f5f61be411b7f32U, 0xeee64e21c2e15a8cU, 0xfb437efd0bfdf681U,
  0x19153f81U, 0x0U, 0x0U, 0x0U,
  0x0U, 0x0U, 0x0U, 0x0U,
  0x157fe0dd00000000U, 0x47ec71a5fa7f8914U, 0xa8e63e0b7fc57ffcU, 0x3682aef9680b1822U,
  0x1f4a7f0ce2ef2387U, 0xc162b381cdebe405U, 0xfae6fc3f1d7ff519U, 0xef47e0a0e7047fc7U,
  0x302f08d71125017fU, 0x3c7f20f8caaf8b55U, 0x81c0d47f21b0f7a4U, 0xccfa16f00646d1feU,
  0x732e13b73a19881dU, 0x332dacab2de6ea49U, 0x5b0726493fc741d9U, 0x7f0b7f0d7fbdfc34U,
  0xfaed8b693fcd109U, 0xcdf205ee22d33081U, 0xe0bb2f1U, 0x0U,
  0x0U, 0x0U, 0x0U, 0x0U,
  0x0U, 0x0U, 0x6ff7fda00000000U, 0x2702019a360fe336U,
  0xe3cd0e93faea8311U, 0x1914af177d81741aU, 0xd520d626552d3c02U, 0x16df7f21e05f29f7U,
  0xf61fb233d7c1e7ccU, 0x5160281d25203fcU, 0x6e2116a608ac12deU, 0xf0c829cc2b9a6754U,
  0xf90334156581b833U, 0x39f7e00a4a7f130dU, 0x423a561b0e0722f8U, 0x5b4a1d7fbfb6d700U,
  0x224df9cc4fd3f8eeU, 0x7f32d836cf4e4a2fU, 0x2095cb3975c43013U, 0x52e5f4cb191c7fdbU,
  0xf40af624bfea422cU, 0x1c7feba13c21cd12U, 0x81f7ff27cc282ef2U, 0xff2cf40b38d2ef0cU,
  0x650a167f5d44cf06U, 0xec8c32ef4b2607baU, 0xaecd039f879d4e68U, 0xed7db349f9af0381U,
  0xb76886410592130bU, 0x67e12c7f3908f91eU, 0x1ed6be819e3618ecU, 0x1c0330c1ee36a5ecU,
  0xd6671ed1d104df34U, 0x7fea1296d9d6b08dU, 0x2020dd037e1bf8b5U, 0x1117118106221a03U,
  0x71c46830d9a51f06U, 0x576fb381297d06b1U, 0xfef8e32aae77effeU, 0xf41f1cea2f392d1fU,
  0x1c06d9c809fb7f08U, 0x112998fc7f457113U, 0x7207f5ce33a0c703U, 0xb1c17f5b43604c25U,
  0x4c13c818d744ff22U, 0x6463e1930e4036cU, 0xc958b9317fbb425aU, 0xb86cdd2f5b66ec7fU,
  0xcfe311fa78cbafa8U, 0x2200c307d5c933ddU, 0xacf519f77f3cdfeaU, 0x27810050bb17b8ebU,
  0x36cf1df6f3f5630cU, 0xbd9d916fc7f1f35U, 0xb2f2ef7ff0f2a554U, 0xd55ffe5f8cb64daeU,
  0xdf2356a4cbf70012U, 0x55107fc8b6ff34d7U, 0xef3f33c1d332c949U, 0x81033697f61e3e23U,
  0x157e0f2beffa28aaU, 0xd92511de483581f5U, 0x4d6dd26f41e07f5U, 0xe31125fe81ea1dddU,
  0x517ffff03b14e30bU, 0xd640b90f086340e6U, 0x2017fb550bb3a03cU, 0xe4cfe9716f3ca7fU,
  0x20aecef8112004c7U, 0x9c0d082401f675ebU, 0xc17081eedf7f3319U, 0x4e7e75de0842515U,
  0x2efaf25cdd1d30fbU, 0xce12e10736f5d231U, 0x2183080c7fc4b4cdU, 0x81e7062f3a10da42U,
  0x2fbba8b8f5e2a6ddU, 0x5d47abbb16298117U, 0xd663b8f735c22de1U, 0xc13ce577ea5eb006U,
  0xe08de6d01be8157U, 0xe421fecd8109c9c8U, 0xf93581dfb813e8c3U, 0x3ce830f43b23bf4cU,
  0x333201d60321d9c1U, 0xd9b6dbe42d792ef0U, 0x813df51cad13b47fU, 0xa2f8c4cee3cb081bU,
  0xed503e511cc15fbU, 0xd41f010b27481e24U, 0xea28e1d4f71b7fe0U, 0xc5c9e61fd01709caU,
  0x65cfa228c7f1437fU, 0x312c057cd6dafed1U, 0x6d4de93481182be2U, 0xddc9c857fc81a32bU,
  0xdce05efab14e4ccfU, 0x3f440d6e63e7fa1U, 0xc26f4c6U, 0x0U,
  0x0U, 0x0U, 0x0U, 0x0U,
  0x0U, 0x0U, 0x0U, 0x0U,
  0x0U, 0x0U, 0x0U, 0x0U,
  0x0U, 0x0U, 0x0U, 0x0U,
  0x0U, 0x0U, 0x0U, 0x0U,
  0x0U, 0x0U, 0xc37fb40400000000U, 0xb1297f81d3d4c92dU,
  0x15f807073481f6aeU, 0xa6515e2f1cb02b99U, 0x1febee763b810bccU, 0x4034d10681fb133aU,
  0xf39b7fd7623143e3U, 0x19330c3cae124bf2U, 0x3b1eef33c600bad5U, 0x137fa23f2a29f47fU,
  0x284a73817fa9727fU, 0xef413324fd2414ccU, 0x1d86b9ef1a490757U, 0xb881d93663e625f7U,
  0x2e587f2b7feabe81U, 0x1929659adaac24d2U, 0xad81a8b34b7b9a26U, 0x9ece5c853eedd09U,
  0xd99825810d06d92bU, 0xd00f7e0f66c8817fU, 0x810a8a31c9f887f5U, 0x962135bd7fc8ed40U,
  0x81e08104035c2a14U, 0xe218b04b4f5259e0U, 0x50315815118195d1U, 0x5bc5f2987f636709U,
  0x21e2eb108cd1e3aeU, 0x4cf5eac62b7ff63eU, 0xa0e41ae009bf94f8U, 0x817ee328517f7f10U,
  0x1e3ce5ac5ccb9f81U, 0x918f4a9e8cbbfa0U, 0xc76f9a230318f91cU, 0x8127acafc4db1cc3U,
  0x23e163c943068100U, 0x1f307fe7f7c10726U, 0x4527ce3645ce8132U, 0xd0af45090903ba30U,
  0x2fbb61810ba25feaU, 0xd5bd34d2f707f5e7U, 0x22defd553a2e6805U, 0xf38123d902a8c806U,
  0x7fabf51c81aa5171U, 0x812909ba53f6fa25U, 0x9d81e79dab5b15fcU, 0x7b27467f24297fffU,
  0x396fa36705f4a717U, 0xac0a1b7fd2ea2fc9U, 0x6e8a02ae0e3ed4U, 0xf0c001edf981fc32U,
  0xecd327033b5f8186U, 0xe53e7f3ffa30ee87U, 0x2ce67fff1ec022dU, 0xe1df4913d7303081U,
  0x1cdaaeb7U, 0x0U, 0x0U, 0x0U,
  0x0U, 0x0U, 0x0U, 0x0U,
  0x0U, 0x0U, 0x0U, 0x0U,
  0x0U, 0x0U, 0x0U, 0x0U,
  0x0U, 0x0U, 0x0U, 0x0U,
  0x0U, 0x0U, 0x0U, 0x0U,
  0x541d100000000U, 0x6b8164e4d9c9b5c5U, 0x34f4fc3207f63572U, 0xffc01315c3ec1900U,
  0xfddab30b482dc9b6U, 0x915f3daa9164f34U, 0xfe0d350d2cee2834U, 0xf6cfe1442dc4ee29U,
  0xc3b7812751c1250aU, 0xd7d5174468f1d4deU, 0xe5306e8d1eb4a31U, 0xe90a21c8fae8ddebU,
  0xf5df3ae521d338caU, 0x132bdd141d280309U, 0x7ff306f6ecfa05d7U, 0x8d70f06cdf1d1eeU,
  0xeff92127e8ecbec8U, 0xe6ff26ba0d3143c9U, 0xf930f7f1132635feU, 0x1818edf0d404e5b2U,
  0xd3e7d04524203111U, 0xf85d08f904420623U, 0xfee332361b39fc07U, 0xda81fa2357160bcdU,
  0x12cb69cc362bebedU, 0x2e22acf422fe1014U, 0x8177fd537b2aecc6U, 0x5439a557dc58b4f8U,
  0x6eacc6b21545db76U, 0x77c1a38cff67e946U, 0xfde1fa040227f531U, 0x1e027f2ef3d8d615U,
  0xcd5cebcf31ef7868U, 0x1ff6b5e50b1217ebU, 0x212fffdbd2e8f115U, 0xfc13004ab8feeaeaU,
  0x4bdad014cf0c1d1bU, 0x1b0208b6482f08d7U, 0x9fa2119d5d70802U, 0xe01205de1ce8edc1U,
  0xe6d41c371becc528U, 0x9e81dfbdf2204f1U, 0x30392348f181011eU, 0x213d1e819e24008bU,
  0xb1f0c5557f9f9a9U, 0xfc2454bcee2cc89bU, 0x38a084df305f3efU, 0x24f7b527dfdd7d20U,
  0xd5ee9b74be2a0efU, 0x680022a6d0e313ffU, 0xb9a64a3710cea1ecU, 0x2638b432e8bc05c9U,
  0xd11e811b154f4a22U, 0xe69ef7bb0e09b57cU, 0xe1512a1e0323910cU, 0x13ece54eecf1ad4bU,
  0x1ab451e1160581e0U, 0xec0048aca22b5253U, 0x1a5566d2209ea7feU, 0x32350b749f2e0025U,
  0xfe813d2d841cf76cU, 0xd1daf2fb2950e6eeU, 0xcae7e021192cfc0fU, 0xe7f4d5f4d6c44a34U,
  0x5cf5e7cafe563ddaU, 0xdad4e2dfe7d221dcU, 0xe3e40200000007e9U, 0x27452a0afe0b1d3dU,
  0xc523d90c04813dcbU, 0xfebdc5dcecf10129U, 0xfddb5c27e7cbe302U, 0xcc1be737d9fb5a15U,
  0xc01f5efd2ef9cf0dU, 0x2261919ab0b18e4U, 0x60ec61e91739cde0U, 0x22f70e0eec82d9e4U,
  0x3e1b3c42454c3497U, 0xcfc2694f4b542907U, 0x1119fb0cfd814aa3U, 0xddcce427563d201dU,
  0xe12702f7d023e3e1U, 0xb3f1dbde7ceadfcbU, 0x5f06dc9e07fb812fU, 0xcf3176fcc8f9c901U,
  0xbd939e7ecebb1e0U, 0xe02b2d4e7f6a32d1U, 0x2de08b8d6feecc5U, 0x27d5fbdff7f4c910U,
  0x3709a7f9694f2127U, 0xe20dfedc13231b0dU, 0xfbeffaa4181147cfU, 0xd632d61481f3e71bU,
  0xeb1d6100eef7df11U, 0x1ebefaeaf90c08d7U, 0xa39fe2df52569c6U, 0xfb21290cfd04cf16U,
  0x697df5111f15f02bU, 0xf57ff42438dad3f2U, 0x23dc1e062bccfe29U, 0xc20c0399ec25d611U,
  0x9ee1c0ad1e213c0U, 0xce2cbeccb32ec09U, 0x3e36b7111f3b591cU, 0xd34322de97ef2aU,
  0x28191481f957aec8U, 0xa1bf3796e51722deU, 0xc304eccffac96b37U, 0x18aaeec708d9be5dU,
  0x3bd2fd00a024e429U, 0x4fde39a6b031c9c2U, 0x40c0f3e02fceae7U, 0x1081e12e22170bfcU,
  0xaa0f211af5122ab5U, 0xcbef1c24fc46ed13U, 0x2ceb1af7f1be30d0U, 0xf23fc906eaf30713U,
  0xc368d09aa085f0eU, 0x120c2100cc3607e7U, 0xf9d6527fd5cb4a4aU, 0xd1120fbb3de5f614U,
  0xf9ffe704b9092537U, 0x2d2c0bc347d30079U, 0x7f15e12e69e5f40fU, 0x4ea3b10e38ca16f4U,
  0xeff8faf2eb09e397U, 0x40d09a71f238f5e9U, 0x29f6219f12decdc6U, 0xbd0b0cda5ad01721U,
  0x3b0f0ed6813357fbU, 0xee404617f82e00d0U, 0xb33138e4fc55af17U, 0xad00fdd1a7fbab19U,
  0xba07111b2540d5e9U, 0x190f09f129eb0ed9U, 0xebe42b0ab532f708U, 0xfcb1673c0d13ee17U,
  0x8127bcf1293f059bU, 0xf623cf403ca841fdU, 0x122ce6e0d4051017U, 0xdfe4044036aa06ebU,
  0xf4ffda18f518e67fU, 0x2214f0f9fae64dc8U, 0x19ddc90a8461c203U, 0x3216c2d0fdf9fb15U,
  0xcf0134c7dddf2cceU, 0xee1f550cb8cf2e0cU, 0x913fdc37f5b0e0c5U, 0xd6d7b0fe34f212baU,
  0x1fdce3cf0bd7f168U, 0xce9d1daee9068130U, 0x35caccda41007e42U, 0xf7b7e2c70aadbe0dU,
  0xa73345db9257250bU, 0xfee7d2e24ec0f4b7U, 0xdf360781676e58eaU, 0xcdf17031eb74f5c7U,
  0xdf2448fa88054c3eU, 0x1eca107fd5ef00c6U, 0x4f3e3ae836f2df65U, 0x270c0bfbd619360dU,
  0x4ac5fe24a212c3cbU, 0xcb223201faeaf2e4U, 0xec2882330b1bfaecU, 0xe722f0c1df300ad7U,
  0xdae060c0c2c4119U, 0x4506e4d8e055dfc7U, 0x25573cbd30331513U, 0xd072aa941d4307fU,
  0x45153f7d0fb4200U, 0x321ba50607b4dd38U, 0xf57fdc24ff18dbe7U, 0x76b04523932b86fU,
  0xdea8cfe2f821d5d3U, 0x5429fa099f17dc65U, 0xeb07fbc0e38395ccU, 0xeabcdafd43dd3cebU,
  0xdebc5aded836e3d4U, 0x12dee7b71ee9d708U, 0xd7b60a24f6f50d0eU, 0xbd6811bf7f3ebf4U,
  0xbc11f5d737cdf985U, 0xfd7f50f12851cedcU, 0x224cff90d320003U, 0xd03070e2d069ad4U,
  0xda28e1cc5ffa12c8U, 0x2cc8c7f455bc0adbU, 0xf7524b27427c18cbU, 0x2d09910ed0a4e6c9U,
  0x4d2bfd21dd2531edU, 0xaef17f88cbe16e21U, 0x1f6321ca00250c54U, 0x419308e4db2dd008U,
  0x121bff4c460c00f8U, 0x20a7dd08c794bc03U, 0xcc81062408840b99U, 0x5bd0fec2894522dU,
  0x26af22dcbaef13a2U, 0xeef905cff9deb94aU, 0x9aff1dfd512c5fceU, 0xeae9ce7f2af0ba98U,
  0x1cbc2f281d2334e1U, 0x464444f5050ee506U, 0x1222b8cbc0ce26efU, 0x4898faac50e3d85cU,
  0x27db7ff2edf6a048U, 0xe321f2bdb921cf3cU, 0xfcaff4fbde8ceefdU, 0x4cb4cd33d70c0144U,
  0xe9d9ef0255052cd2U, 0xb41c30b1de9bfaeU, 0x7be19aeb67fb9d69U, 0xec3df2aade501636U,
  0x9d76a634120e264U, 0x74742c1308ce0af9U, 0x14e7ffbac5e36d5U, 0x11e348c817482627U,
  0xf692533008cff46eU, 0xd66fd92b1623d240U, 0xcf00b21c369f07f5U, 0xe305e62c0b3ac07fU,
  0xb6ad0df7d9de73e8U, 0xfe181381e5e0d58fU, 0xe45d25e409aa062fU, 0x484a11f306f8eca8U,
  0x4805e2ef5b548529U, 0xffb4e4efdd505f21U, 0xdb22e481241c310eU, 0x3a0db08f1487415U,
  0x725e5b3faef1607U, 0x1255f4bddf7f00f9U, 0xcf1b17ee04eb01d1U, 0x1ff4ddf83708fb2aU,
  0xf23ffb0ff4c92ce5U, 0xef361cff2e380d00U, 0x43501618f4e606d7U, 0x12ddfe3d2be70e39U,
  0x3b4becedf0db60f4U, 0x62f2061bb5412e1fU, 0xf6d0360fefb0e0e2U, 0x91d21c6afd74281U,
  0xfefa28f711150dc7U, 0xe80619aef4b2d6d3U, 0x2fe5cb180b1cd1cfU, 0xe62fb17f0f5df810U,
  0x1c0fbaf7db353418U, 0xf9301723f51309e9U, 0x81ee30004611123eU, 0x26f22bcd03fbdc11U,
  0xfe17fc47b141fed6U, 0x1b10f9f7d9e5b12dU, 0x20f3f0cfabbcf5aU, 0x16cdea09152dfaU,
  0x25f577a714f4220fU, 0xd8fcff0ef523f729U, 0x4ac9d8fc0d06f60bU, 0xe7e32affdb9519b2U,
  0xf60881c3101d16bbU, 0xd1fc51ce941c9efU, 0xea08ff49d30ddf3dU, 0x2d3e54ed0ab001f4U,
  0xb9f302d700dd3ee6U, 0xc50a0f023164f81bU, 0x10eb00050c294f45U, 0xe2dffdd01b2b5cc6U,
  0x3ace81c1d47f15f5U, 0x4e3de1d0cfdce22U, 0x44e8e804c6cfd803U, 0x27d1be2f00f7d8d5U,
  0xf101b24917cbcd43U, 0xa2e7710af8c55a11U, 0xfab1c1d1491d0a26U, 0xcc8e2fe04f2d4805U,
  0x1d639e0c24ad4474U, 0x2b711bad20177f1cU, 0xc8ff6e8fe1cb3f34U, 0xc919a0626c61e8b4U,
  0xbe53119df32002cU, 0xc9fc10bafa1415b8U, 0xe3ec63d4cc4c36feU, 0xb9f7e28123d4df02U,
  0x214acf12c7dcfe16U, 0xf0b51ee1f4fffbddU, 0x49b30301ede8cc47U, 0xfb2d15d33a3cf4e0U,
  0xe3f250f6e82bc8e5U, 0x14f003c41f05811bU, 0xf231fdc928deca08U, 0x1cd4fc3cfa23260dU,
  0x4d5a8dcU, 0x0U, 0x0U, 0x0U,
  0x0U, 0x0U, 0x0U, 0x0U,
  0x0U, 0x0U, 0x0U, 0x0U,
  0x0U, 0x0U, 0x0U, 0x0U,
  0x0U, 0x0U, 0x0U, 0x0U,
  0x0U, 0x0U, 0x0U, 0x0U,
  0x4ef4e8900000000U, 0x1de763a68179fbe2U, 0x2de2e0053e09a60bU, 0x42180dd7020df07fU,
  0x141d5ff4da3f5822U, 0xee47eeea12751929U, 0x2757fc2c11dcef0aU, 0x5f09fd057dd42b6bU,
  0x2204d214c9160008U, 0xc823c2f1812dbc1eU, 0xdc8a5ee734ff802U, 0xb7fcafb1d8ee0b07U,
  0x47562548a5cf2243U, 0xf005f60a9da6e03fU, 0x5a1dfe11dceda54cU, 0xf422d88135f753d1U,
  0x60b1c113dae40ccfU, 0x692b1a040fc83294U, 0xe9ceda3dc7fb30d3U, 0xdfe20ef9403eb207U,
  0x3cef00f1911e07fU, 0x48347fa3fc2f2f2fU, 0xd535cd2904d7e8ecU, 0x43beb380c0c0f25U,
  0xcaa2d5cec94ff309U, 0xff0007ca936dc8dbU, 0x7f14f3fb18e63291U, 0xe1eecc35d40d601cU,
  0xd0a9c54545aa0c7fU, 0xe857bbed07810c0eU, 0xd5d142e6be5523d6U, 0x142c27de44a60ae2U,
  0x8da60d4dfc3aafdU, 0x38c10333075984d7U, 0xcd3314c234d624ffU, 0x389d2b372e1b51c5U,
  0xeece77f244fb0e0dU, 0x422c3b4920dc7de5U, 0xf22adde9fa2deefcU, 0x3c327d636b90bdcU,
  0x10f67f0b8d0d7f3fU, 0xd98cb802207c22d4U, 0xf00ed027cbc6401eU, 0xf9228112373bed40U,
  0x3ff8ae7a06d67f10U, 0xd5e0f760b01dbf16U, 0x1107b2b6c2099fdfU, 0xd638a0f1219a737fU,
  0xbf2f150e024012fcU, 0xa09e0836572a3ecdU, 0xd0815319ee81d82aU, 0xd03ad80e230146faU,
  0xf8ad03c66c60bb1bU, 0x33044dcbc8071da1U, 0x441eea05c4e0950aU, 0xeb26bd3802c30fcaU,
  0xe0df4dfc06ec51cfU, 0xbb2e09cc26168136U, 0x16f4ec3bf0d88c35U, 0xc30d1919cfafb949U,
  0x8117243f77041817U, 0x54febb1a9d2c1ab4U, 0xc9255b2234f6d021U, 0x2dc814f885f5291dU,
  0xd554da36d61512b9U, 0x3e40660ef3190ad9U, 0xa60cae298150161aU, 0xbcbc041b21481a2bU,
  0xcd6306100f12fe13U, 0x36134cc8de021a13U, 0xdf2fdae1f0810048U, 0xbee27ffeff35021eU,
  0xa620292030f9a6fcU, 0x7f0af01b3b7f3747U, 0x8dcdff1ca19eb0cU, 0x5f81f578a33604fcU,
  0xc86092ee27b1f1deU, 0x11af0ca071f003aU, 0xf8ee7f022fc478b6U, 0x137e8dceffaabd5U,
  0xd9b1db8146ffe6eeU, 0x1202d24cdfbda509U, 0x17f80ea6c3ca7f7bU, 0x5d3bde503bb7d2f3U,
  0x3381cdf51c07410cU, 0x3f4b3260cde13f8U, 0x2b381d53421653fbU, 0xd831394223eed715U,
  0xf865092773cf1cU, 0x1e262dd03e461e25U, 0x9235297f60fee80aU, 0x5ebb413640200f1U,
  0x182bfacdf208c15bU, 0xf80cfc080514f3aaU, 0x49812411e3d5e445U, 0xd2fd25d04b581755U,
  0xc90ca04bcf7f1c42U, 0x2520f337e91f21a6U, 0xf02c183d3b2bfb03U, 0x7026e460f2f25ff1U,
  0x2ffc325ae2f22ae5U, 0xfca524e1d5f7fd22U, 0xbbd0d9f342e26322U, 0xe403e819c2ec0ac5U,
  0x186225589721ff06U, 0xd9ecf244f5ef23d4U, 0x20da1c7fe938c2c2U, 0x4ccc131d05c10706U,
  0xc723ffd91a282581U, 0x8efc0cf1bd9fc07U, 0xe0f77fe97f42a826U, 0x81b80dfbbcdb1d0dU,
  0xffdeda902db96cceU, 0xb62904c8ad21eeb7U, 0xd220db9403e09200U, 0xe481d0f7214ce77fU,
  0xdc32b8a2e001d5f8U, 0xdadeffd99dbe2f1cU, 0x50bbdd77f22f752U, 0xf026ab22dff3f302U,
  0x4115bf2fa322ee4U, 0xbf2a0916fb2381d9U, 0x112949da0806450cU, 0x2ad8e620f0cf2c20U,
  0x19f3ece4a41faf04U, 0x8112d12df6d03ebfU, 0xe97808dc2d4fea24U, 0x2751c101b723ffd2U,
  0x30fde2932d08ecdeU, 0x173e1d3c0210e9fbU, 0x8130fa0f3af920c3U, 0x2b811981fadae217U,
  0x8e306bd3c0be73dU, 0x1695adf341fcfaccU, 0xdb2ced11f00020f0U, 0xc701e4cf3b17f4d0U,
  0x10833e5f3fcdce4U, 0xb2dec0242c3e5534U, 0x7721ade64dc6122cU, 0x316524e0720c22e8U,
  0xdd5bc2db39fc07a3U, 0x37f7dfd7ecca501bU, 0x28f0075448f9a931U, 0xce84e8111eb67f08U,
  0xdacb91c3faf27ffbU, 0xf8d2c87f0205d205U, 0xe0536efbfe1c3052U, 0xc8103532c18151f5U,
  0xf9c23929f30cbd51U, 0xebf3fdd67f1ece41U, 0x1ae329e3U, 0x0U,
  0x0U, 0x0U, 0x0U, 0x0U,
  0x0U, 0x0U, 0x0U, 0x0U,
  0x0U, 0x0U, 0x0U, 0x0U,
  0x0U, 0x0U, 0x0U, 0x0U,
  0x0U, 0x0U, 0x0U, 0x0U,
  0x0U, 0x0U, 0x7fffee1e00000000U, 0xf7eb6a1310eafec9U,
  0xa001d9231c61fff2U, 0xc6662409fe8ae645U, 0xe4d4134228b0eb53U, 0x17fb05d63add0d00U,
  0xd5ea8d4ec37e467U, 0xb61b21eb012e48feU, 0xba7f502e1d1e03f4U, 0xda0e421a1df9f3a7U,
  0xfb3834e21dc23ed5U, 0x70c6e0dd3d17b61dU, 0xe3fa1915bf11dde4U, 0xf900054df81f4005U,
  0x15cf070cb2c0bce9U, 0x1d11ca0ef93a12eaU, 0x93b3e24d8eecedfU, 0x130d7ff8edc98ce3U,
  0x12a081fb08ea1db4U, 0x57e30c04e048e2b2U, 0xd347e9ebd8fb92f2U, 0xd43df30433352e2fU,
  0x32112ef7fc5514a9U, 0x4572a91603bce3d8U, 0xe607013757fae1faU, 0xca26d9e9facbf023U,
  0xedefd1a4de2f2641U, 0x82834237fceba11U, 0x99f5d931d925cca8U, 0x28dcd3ea0b4be9f0U,
  0x2804f4d92c581edaU, 0xf12f0050172381bdU, 0xca0106bf0bdaf6e9U, 0xbb2504a1670cef1bU,
  0xf54727e5d358f61bU, 0x13f931bffe21f7e9U, 0xecb9faba2de7b905U, 0xf35200a51bb5921U,
  0xe0eb32b01bbb3b81U, 0x3204b20675d9d26eU, 0xb5af04f24eaf0359U, 0xa8e6e21ed6dae41aU,
  0xeb67bdfceacca3bbU, 0x2044d3da265a0cb6U, 0x93a2f2514e1dbe2U, 0x2d7c42a7f5bf6c3U,
  0xec2c281410b8fc2aU, 0x2235cee403f2cc1dU, 0xfff6d039fc10402fU, 0x3bb12c290be628f7U,
  0x3ef814ad1aecc538U, 0x73641fe56b34a81U, 0xdfcb1caf5633a02U, 0xe2e0c23dec30b01aU,
  0x3aae2005eb350e86U, 0xe7201deeddfffb3dU, 0xb2cf200a1e2a290dU, 0xd5ab06cf0260ad60U,
  0xf100ae4b1b1e1333U, 0xd719b3f4217fd435U, 0xfa04052d1c25d17eU, 0xef19a227f2526323U,
  0xc788a84dee01cbc3U, 0x3f2a6c0fd156e611U, 0x810dc6b0131adfe3U, 0x1618d2f001b7c7e8U,
  0xb64facf74f3089b7U, 0x611019191c8dc843U, 0xa5e07f2f19cfcf7bU, 0x44f7fa7828508f48U,
  0x139c24351ae60207U, 0xd1140cdea32b7a43U, 0xa81e1dde6d57b79U, 0x1fe17f131bc961eU,
  0xcc2800e22e02f1f4U, 0xe9431db900e9c420U, 0x1ca84a38e67fd51aU, 0x90b05ebc2f9a9f5U,
  0x31d9b41a1bd5df01U, 0xfbfc1c193c682443U, 0xa6ae2b73c402e558U, 0xbbde813ea826e0ecU,
  0x372092bced041f62U, 0x43f31918cdb407f5U, 0xcdd144e0fbf90143U, 0x9512edf1c8307fc7U,
  0xfa8fc36447d2ead1U, 0x4055fae9d16ac7a5U, 0xdf076ee8e31b9ce5U, 0xd6c5e01be2c76cabU,
  0xb6cbf8f6e4dda10bU, 0x114313e7fe8128cbU, 0x92153cd838f22920U, 0x7f98bd80cea3608U,
  0xac1139dfdf450603U, 0xadc01180e71bc0eU, 0xdab32820U, 0x0U,
  0x0U, 0x0U, 0x0U, 0x0U,
  0x0U, 0x0U, 0x7ff2444000000000U, 0xdee8cce8d650c7e0U,
  0xe80373cafdb035f4U, 0xb92004ea5deaa6e8U, 0xd4c6ccc8fc813024U, 0xb13f1f21a95810f2U,
  0x1a43ea42ad81f3acU, 0xbbf6bbd5db0f6603U, 0xb46dd981f940b97fU, 0xdf6e0346f4406b1U,
  0x6be478ebc92aeb3bU, 0x955902c6f0367f4dU, 0xccc2963fa6df0661U, 0x1f30fce21db9281U,
  0xcb04d707ad065ffeU, 0x4f0e1f57fce099bU, 0x36cbe49b16df0a50U, 0xef0213698cee58ebU,
  0xb98184c01af10c7fU, 0xe2cdc67e5445c17U, 0x1ff41bfc56be48cdU, 0xe132bcc23cc3954bU,
  0x81c9d39c81c504feU, 0xc14ded3cd8056d11U, 0x3ee4372343ffea9cU, 0x2af5ac1322418110U,
  0x380ff0f8d6c7c539U, 0x819133fd4820f3c5U, 0xcfb1401fbe0f551U, 0xecf77f68cc172754U,
  0x16cd9624757c5d71U, 0xd7767fc3b3c3de7dU, 0x5d33bf05becf69fbU, 0xaf2e0b1bb374edecU,
  0xf0c9124881d4b93cU, 0x8110e2fcf8cb0f13U, 0x355be5d793210014U, 0xb27f0cd7f7f60a04U,
  0x8122e10213cfe305U, 0xa7fa481e36101019U, 0x7f03b3fb023e3b04U, 0xb5e43ee2b4fad918U,
  0xe5f80c36762529U, 0xf5a2a9e22354f55cU, 0xfc59c1d3b95d2f7fU, 0x1512d1d8ca33ae7fU,
  0xd3ed3ff9d1e372efU, 0x7f2c21f34be21197U, 0x39816983c3d8f20bU, 0xfbb8adc816f7d00eU,
  0x60bd61adadd4afbU, 0xffe7d4f3e5142fe1U, 0x1211eb103acced7fU, 0x3a3819a6c20c0bcdU,
  0x9d08cf01d6fab77fU, 0xa1bb5ced18a34213U, 0x31f70f07df4e7fe6U, 0x25ede30a01e832e6U,
  0x9f190204f331ad7fU, 0x7fcb22f4a9e10518U, 0xf410675b30045303U, 0x933330d2f46a0381U,
  0xdc2c4369edfbb00fU, 0x108144f516fc2f31U, 0x333f56373b29c1b0U, 0x447333ecd638b0bU,
  0x4cf1fcf820af8e7fU, 0xd6f57f3a51f315e2U, 0xdf2d20d1bbc64d42U, 0x81b6e81ddc984c07U,
  0x16f5af21d8d0b1e2U, 0xe3c7e82faf81143cU, 0x12a0e7fa19014103U, 0x1de4d6151b45a4d8U,
  0xef200b032681d81bU, 0x32681fe37dd261dU, 0x9ad7081ae3d51bf0U, 0xe93af17f1ee30430U,
  0xbee7e1cf101229f4U, 0xc22805f07f483cd7U, 0xa6131703d1054601U, 0xbeeb81d1a8d90bffU,
  0x56ef688239a51bffU, 0xf31ad9cf5cdd5b7fU, 0xbca83a14133a1ffaU, 0x3a0d2eaa1281e938U,
  0x612cc30bfd97d6d8U, 0xf75faab2ca7fb0ceU, 0xe9bb1e43a6d02730U, 0x10df00df4581da91U,
  0xf13328b99e34e329U, 0xe625cc1b0d3c7f3eU, 0x23f2f9db70a49d00U, 0xf418ba0ef67fe0fbU,
  0xe94309371811f307U, 0xfdd81f9dff5e5f6U, 0x16a64d00201203e5U, 0x1267036015c12580U,
  0x16192d0013d78ec0U, 0x141278a015dd7f20U, 0xf28ec40137b4240U, 0x15bf6d2012fd7480U,
  0xf4ecfc0177b1620U, 0x19e088200d4771d0U, 0x1b35d14011e6ee00U, 0xf96b2000dc6d1e0U,
  0x156ef140145e4180U, 0x14a72c80114fe600U, 0x127de30011716820U, 0xff6c0900b40aeb0U,
  0xed726900ebdcf70U, 0x186901800cce1720U, 0x174aefe0108594a0U, 0xfc0333014b26860U,
  0xf8948000ed1daf0U, 0x12c9044009c456a0U, 0x1057c0c00daeb030U, 0x11738080129712c0U,
  0xffb57a016330680U, 0xab9fa101e479340U, 0x504c4210b939e50U, 0x93bc8105d52d13e6U,
  0xf2ee508e3a31f308U, 0x180821f6100ecb05U, 0xecd8c41034ebd5f1U, 0xc513282be7172bd2U,
  0xe1e5da0a31001fe3U, 0xd2ecc539f73581efU, 0xcecc1f3728f3a52dU, 0xe028dcdbee39f4f1U,
  0xf219e82ebccbe9afU, 0xcbfd200803e6da18U, 0xfa1c490fe33aa8e5U, 0xbc0a23d40214c9d3U,
  0xe528fe1c1a1a0bbaU, 0xc90ad27f161fd121U, 0xe701d9d910ce2504U, 0x40331400d55beb20U,
  0xb010fab7d61a1bf6U, 0x9e6fdde071646f4U, 0xa82dfaadf761f611U, 0xeade2e11e2afb2eU,
  0x17c9df0b42dc389aU, 0x7b6c8e91606d91aU, 0x5f6a9b0d77ff730U, 0x4cb892034e2931b8U,
  0x42b4ec5423b01207U, 0x2eeafef7e9111247U, 0xcbdaa3bbc5bdadfcU, 0x573f38b2b77feee1U,
  0xd42c260cc4e252cdU, 0xd0d8e314133f2300U, 0x5fa6413d87f1a1fU, 0x2911f7eeccf0d9ffU,
  0x54f7eaff1e1f2b13U, 0x9907ca10daf214d7U, 0x5d2c408d0370ffaU, 0xd69fd99b1efa16bbU,
  0x49f5eee2fa15d856U, 0x7f082cfd0332d451U, 0x5135e529f8c45234U, 0x32199f3a972eb18U,
  0xcb10c2e60c134cf7U, 0x3034b9eee2b78ef9U, 0xdb0ee913dc026403U, 0x8705af60ccf92607U,
  0xcc8b373035df53f4U, 0x81efd4bb310a97bcU, 0xf7fd21fa26b6e909U, 0xf4e7c332de67214bU,
  0xec32fb28c1dde479U, 0x311b17fc1504fefbU, 0x21560c50ad6caf2U, 0x891e081219feea0dU,
  0x809fe15b6c68101U, 0xbbc607f409d8e34eU, 0x34e1c0d80a207f0aU, 0xd6ba2db07edfb0fU,
  0xe0eae5454bead3fbU, 0xf320fb3e16aafdf9U, 0xf2fd02100035fdc1U, 0xbef4183f01ba104aU,
  0x3b1ffd3108d942c8U, 0xe1291e2226f3a800U, 0x98ba13eb30c74614U, 0x5eeb4f8aa1ff9efU,
  0x26dae04f0afef37fU, 0xdcf833efdada4d08U, 0x411da62846bb977fU, 0xaf9d7c4ee0244e9U,
  0x3f1fe4f8fe0d3819U, 0xed9cc3410cdf901cU, 0xea08e114ee3157ceU, 0xafcfef529f81a1cU,
  0x2d167fc00de92ac3U, 0xc006e610bfc81926U, 0xaa8d212f52437eaU, 0x62b24ecfa2113U,
  0xef81d795f8f5ff23U, 0x13354dd6106deaf0U, 0xb130605e037eeb4U, 0x972affb83525f843U,
  0xfbfb04b8f0d64dd2U, 0x351aed16aa2cede8U, 0xd9d01b0ae6d03317U, 0xc07b18b60e520a3eU,
  0xeacd7fe649d5b6f9U, 0xd71605aed7fbc4bbU, 0x7ac0dbdb1dc62ffcU, 0x12f526f536090d41U,
  0x1f18c84cf923151bU, 0x390e02fe2b255327U, 0xebb9d3cddb18f0b2U, 0xf109c7f2d3fd01a3U,
  0x3700d93ef83627feU, 0xf6367fe841fe06e2U, 0xc002020afe26dce1U, 0x14340514d8eb0b7fU,
  0xf44dd0e31e202741U, 0x1818f30c0ee4c50fU, 0x69e61baa1fb9af05U, 0x3cb110e11e0dee12U,
  0xf31d5cb8bbf8d3e5U, 0x1fe9e2d208e9dd22U, 0x21dff2f91712d0c9U, 0xb858188446dbf7e5U,
  0x280407e4f9081e81U, 0xfd22643cebcdf9e7U, 0xa307fcf1f8e02db3U, 0x3aec815b2201162fU,
  0x36ccfff61ccefffdU, 0x149f6e107c83cf4U, 0x254d0829eb200cfcU, 0xc546f4dfe10a05e4U,
  0xd216811a041e05c9U, 0x2f0125f714b42151U, 0xf2fe2522d00bcaU, 0x240658ce11f4f632U,
  0xf410e0b7150d2451U, 0xfe19f91ad20e5d18U, 0x5e9e4f339fa5906U, 0x96ebbd0611e90bd4U,
  0xdc5d0fbf15e51af6U, 0xbe1ef9a86395f20bU, 0x4bbd7e726c4eff3U, 0xb4dd57fec848dd25U,
  0xb01700acb2287fcbU, 0x5c0ed21afe34f15bU, 0xe7e4d3f82222f2edU, 0xc6d5e5c8b7dffef8U,
  0x2de2b4c5e8a70b0dU, 0x3a1e02d71cfc5981U, 0xd9bdeca4f3cc3c3fU, 0xe4cfd8f0fb4ccbefU,
  0xe0f081e3fd2ce557U, 0x6ec7d5f4b413eda1U, 0x1ad6cbfc4c06c206U, 0x8e031a6aeef50c2fU,
  0x1461e7fbecce22e2U, 0xfa150f0bfcef0d36U, 0xa3e1264140f9eb13U, 0xf30526e5e63229e9U,
  0xf5291d260a81cd05U, 0xcedd06e01324d73fU, 0x94f8d5fbec57e626U, 0x43d13407349f1dd1U,
  0xffcbbf3101d616d8U, 0x4c49192a27acd80bU, 0x3b9a4e0ed2182aeeU, 0x357f08f3e8efd209U,
  0x54347e600dffcedU, 0xec4fd70202fb00eaU, 0xac1a30cff18ef422U, 0xaf10ddf3c14490fU,
  0x3f9df306164f1f9U, 0xd437810113c6f978U, 0xaa04dffff54ad998U, 0x1030fc15cb43be25U,
  0xc9497f2febf2f1e5U, 0x263bccf94442eccdU, 0xe8023032e0e2da1bU, 0xf61d120304df0b0bU,
  0xec47fdf136ee1729U, 0x16ed2c36d6322320U, 0xeedfc262f66867e5U, 0x4fc5322f7cdd71aU,
  0xb71c0acb04f2de0cU, 0x98f58136f03deb1cU, 0x3e2fa281de40cf2U, 0x12dd1de9332ffab9U,
  0x3dea151627452ee1U, 0x22fd6b2cf053fbf4U, 0xefdbc72a591fe5c2U, 0xfe1d06e881df1416U,
  0x23c7fee6b5213e0bU, 0x9f6f616f5052211U, 0xc09735ed2d11fa42U, 0xff960624d30dcfe5U,
  0xe7cecabfcef0be81U, 0xe81517ff05651539U, 0xea283130c38de702U, 0xdc81f95927270cf8U,
  0x2aebf5f3182f30d7U, 0xfdf414fd3d563295U, 0xd9130330ffe1ea0aU, 0xdcbfed5cd81805d6U,
  0xb9ce1d12e9ebccfeU, 0xea250fe06a9c72fU, 0xb12b1cf57bf71a10U, 0x1bf7abe3dbabe3e8U,
  0xe5960e813b49f9b6U, 0xe1c8cee0cebec9f2U, 0xad4d2f5baf93e23U, 0xfd03fa47ec12df01U,
  0xec2fde26f6231aaeU, 0xe830ad304dee0204U, 0x82f4ae6122515e3U, 0x3241c08034424d6U,
  0xc4d82dc77fbab5dfU, 0x592339daf321fe33U, 0xdcfae2df02dfbb06U, 0xdafa0fe7207fe508U,
  0xfe28de0e14f81a1cU, 0xb6fb34eae3c217U, 0xd301b10a04d6fb2aU, 0xfa27211110b00509U,
  0x2cc7ca1feaf8f915U, 0xe1f7d6204e46d141U, 0xcfbdb08f404acefU, 0xba3681130c012d1dU,
  0x442d7d12420ec24U, 0xbfc78a31bb3d1344U, 0x2b03f60b07e0d3e4U, 0x5208b51117ab321U,
  0x1321b6ea1981e520U, 0x46fe18dc8ad7ccdbU, 0xdc8111271cdcc478U, 0xb6b3e6d1c0f744d6U,
  0x653fccbe0cd1ac5U, 0x4606b5e6e14741e5U, 0x3a57ce4f482a8820U, 0xcd02d4dd1f0a280cU,
  0x8a0ae8d6bfe11bf4U, 0xc9f98254a69f43bU, 0x11141faf7fa820ceU, 0xafe80df7106fe042U,
  0xed233ef8564dad58U, 0x1a2c68024e0dc462U, 0xd9e5eff523001ec2U, 0xed10e11e14fcdfffU,
  0x1a239c3009b939f3U, 0xed46d922f72ce8bdU, 0xffe6dc81444306f5U, 0xc43d0a3b0c26214cU,
  0x1fd307f79b9b30c7U, 0x507f912f91823fdU, 0x2a03e50019cac7acU, 0x185001cd7fc4f551U,
  0x8db401003ef052cU, 0xcb0ded2a2f3e1319U, 0x1a811c04050ffff3U, 0xf9f09537280cb517U,
  0xc50ef1e2ab2bcdc0U, 0xcdf533bf09f732e5U, 0x3cbef12809e544daU, 0x13ffe1f2cd7726c0U,
  0xab0eea56f6d004daU, 0xe3e3d73512031110U, 0x85b5fde432811f32U, 0x273cf4324c10f0dcU,
  0xf36c052e2e00083eU, 0xd0fa4bef24facf13U, 0x1e04d11cb848d137U, 0x350fd305e61b8e1aU,
  0xfa2d0ee703ec17d5U, 0x81184501dcb82212U, 0xb43be951d809371fU, 0x6f3023216f7b6c9U,
  0x26dad3c502464523U, 0xb6f00e806dbec11U, 0xff3b053d0bece5e1U, 0x500c1191c3920f5U,
  0xf8301dd5fef1efaaU, 0x16118d7ff74fe7e8U, 0x340277f5fedec618U, 0x33e106a3b805aaedU,
  0xf4f5fd15b00923dcU, 0x28cc281cbffc987fU, 0xe027dc3a2c12fe2cU, 0xd14efd8fb20ca03U,
  0xdeea122ebbbdf4cbU, 0xb4f0e6e8270933ffU, 0x2d180614c2eafd3bU, 0xce0c42f70263f22bU,
  0x7fc1fcbbfb5fcbfdU, 0x3c39c305d2b39aeeU, 0x300fa629fb041425U, 0xf8cc1e7ff818f1dcU,
  0xfe36e7b525fcdb15U, 0xe50f04f71fce3a3bU, 0xf7de0407d60ac3d9U, 0xd38bde8240ed10fU,
  0xdcc152edf1762ecU, 0xbad32ffff1bec3cdU, 0x17a3322cf9b5ddd6U, 0xef0eea331513310cU,
  0xecc63381d3b665e0U, 0x1e4da500da07dcdeU, 0xf12be17d0ed1826U, 0xba54f428afe5172fU,
  0xd918d0095f402c94U, 0xe4f803ec36c08126U, 0x26b3441ae120260cU, 0xe3adfa12ef0bece7U,
  0x5252ae6322eb971U, 0xe2f58132cf1b0c26U, 0x16d9c021cadd13f6U, 0x1ae9bbe3c4b20457U,
  0x9d7e70e48cdd1f3U, 0x3517d204c77819caU, 0xb36d4dd1709d41dU, 0xc81230c56d1a049U,
  0x143525e7f5181263U, 0x493aad55eca8b007U, 0x7d9748ffd0e4654aU, 0xcd201a5231eb12d7U,
  0x19ca4118313b51faU, 0xa6e8d1f112ceed7fU, 0x232d13c5b71cc120U, 0x189fdae8ac1a38fbU,
  0xfa2dd7a12dc4adb0U, 0x40da1c17a825cc10U, 0x13274faed1d11d4cU, 0xf923b3d23105fd24U,
  0xb4207c80bc5bfb7U, 0x1cf3b7e51a17d4f9U, 0x1ded0c2ef3b40c30U, 0x2936e6ecc3e4617fU,
  0x1a1ee20838ecf3d0U, 0xb10f31b1a93390bU, 0xed1e9501f8fee8c8U, 0x8110275dc9050642U,
  0xbcf114f421ec00faU, 0x20ed0bfcdcf80d0aU, 0xd5e3c4ecc506031cU, 0x2ce3f42c30e30760U,
  0xcdf327c9e7d4143cU, 0x5f0bf70df612d844U, 0x54f27ff4ef200b0aU, 0x3006b2e1e65f0c2eU,
  0x7fd1e3d80b313110U, 0xcfe2cab811f1e5abU, 0x3a2f204202ecefcbU, 0x6468e7cf3733b917U,
  0x1c5f62c81015eb25U, 0x20acf0f0cdb7dfb3U, 0xa5919fce6eb4416U, 0xbf0eedf3e7e4e91dU,
  0xd6de16212017b0e1U, 0xf04b065da3c6f4fdU, 0x81c4e27115bc4036U, 0x20e802d53e1fb3caU,
  0xf5811747c819d6e8U, 0x3fb13321ebd908U, 0x30dea5336235455fU, 0xf8f7fce94f0c18d7U,
  0x3962ebad5f5f9b6U, 0x36df155eeb161f04U, 0x21e6171eab53ce49U, 0xe60beff70121f23dU,
  0xdbc0fe3390323fcU, 0x397f0a36c8191f1eU, 0xe7eacb0e2b07cd06U, 0x21df1e6ef335e9f2U,
  0xc705755f44fde706U, 0x81a8ee1404810324U, 0xfa92e09fde101fb2U, 0xb2c32da906599f36U,
  0xe6f41f72ba93c491U, 0x1d27fc376843a743U, 0x2dfc9421a6a0b972U, 0x2482cdadefd4e0d5U,
  0xf4f0813ed9e02c4dU, 0x55b7e0b42ec422f1U, 0xcf49d7fc051af7a0U, 0xbfcd0b0e26990500U,
  0x4cb5c29c9fdf20bU, 0xe8fa05e0e11bf799U, 0xedefc41b257f0ee8U, 0x18f0fcd5dffed1eaU,
  0xe90dd82ad813b004U, 0x17fc37290e1d4d18U, 0xc0bc0ef8c2395e40U, 0xa73dca06b42e0accU,
  0x43c8ee100b51e2f7U, 0x9eebbd9859b123dcU, 0xdae11719be29137fU, 0xfe430145bdf89c1aU,
  0xb3f308f84ade18c4U, 0xfd6d717fbe80638U, 0xd9f19db59451ee7U, 0xd5e9da81403820fcU,
  0xdbeabeb33bb5c3f1U, 0xb20c2509250843edU, 0x25e701e49f1efb01U, 0x9d7efcfc29def058U,
  0xe9da130d28f8b249U, 0xcdf21ea9c4b060bU, 0x2cf3e2d8b44809bfU, 0x413fbcfcca81dcccU,
  0x9bc9cbf4e022d073U, 0x931fe8ad4b81d306U, 0xeb62e61ceb392fbbU, 0xc6ddf92590321ae7U,
  0xfa53c8990b1fad29U, 0x2bd0d502e83b00bdU, 0xc8e7f620f91606daU, 0xcffe0d474614181aU,
  0x21dd15d014d6e0f3U, 0xdbc6fcc8f9cdb0dfU, 0x56f9f6fb2fb6ca76U, 0x748107dbc5fad6feU,
  0xb63e0524c20d37d6U, 0x16d1effa9d020ffbU, 0xf830b85a0314b1fdU, 0x26f945f3def817f6U,
  0xed4ea6fa48f56c28U, 0xfbcdf4e6dc1781fbU, 0xe71e1390e8f5cdf8U, 0xfb824ee0ee9002fU,
  0x6155e605f8c6fbf5U, 0x1f7ff4370400dbf0U, 0xe4c7214f1664f9e6U, 0xe23cea0876d93df1U,
  0xc2177fd12b1237cfU, 0xf4e7a56c0423f30eU, 0x1cfe67e0ffc3e801U, 0xb319311eed66a0acU,
  0xd1cb2d0cd6fcd805U, 0x1cc33c122f1a1e83U, 0xce05cceed9d80200U, 0x5ba5df81ffcf2b3aU,
  0x409ddda3ffb8300dU, 0xe6edd6fde6573117U, 0x2843ec40593aff2dU, 0xe1ffffc843ecfcd4U,
  0x122cf7d643c4f1f5U, 0xf7c93462b0f9eec5U, 0x17f0f6df3d4046ddU, 0x114531fdd8fd41d2U,
  0x72e2bbf15c77f1aU, 0xbbe402d2efff5027U, 0x81dbe72b56e5da0eU, 0xf8e439ddfc0207f1U,
  0x311dc43ab217ed02U, 0xceec5cecf2f5dce5U, 0x33f7f6fcd3eb1eebU, 0x1b19b2379124142bU,
  0xd2fa0328ffc7efebU, 0x1325ff16c5010d20U, 0xe7561e20ef094328U, 0xfbdfeb1629010734U,
  0xf8d0f312dff5131cU, 0xe11209127ffa3d06U, 0x3db58c420ce702e0U, 0x70ccfbd13facc832U,
  0x89131c7f2bbb0ca9U, 0xd8d6e00b4419d482U, 0xf2e712e560ecfdedU, 0x15e3bbe66620a803U,
  0xf403d8499b5b7bf6U, 0xaf4f5707edfca5c7U, 0xea631d170e5c81ecU, 0x1cdef61c111fd8c8U,
  0xecdde71ec414f1d3U, 0xe2762513002021aaU, 0xd0565b4b3e9cc00fU, 0xff1a26db92ea5ffbU,
  0xf61187ce360123c7U, 0xa641d9e2b83ff3ecU, 0xd010fbd8f615dbf6U, 0x5a00b717c5f4cd81U,
  0x2f21fff9041dce81U, 0x112ae9fd07e6cbbcU, 0x1bc71efd28f8e7d0U, 0x2938d6c82267e0f1U,
  0xcccf00d581290414U, 0xb3cb0112cfcbe5e8U, 0xc1e9fc8828f51f2dU, 0x8610eb7f62aab511U,
  0xf5b4f08d7bd1e3aU, 0xf70b5eecbf021422U, 0xade27c2143f0d2a2U, 0xb5ec2fdde317f850U,
  0xecd7bc138458b535U, 0xb48ba0fd6132a1eU, 0xfc9b4121ca22a607U, 0xcd24f56fe0d1fc0fU,
  0x1b2af2bc07f62181U, 0x1b4329f7b937fcd9U, 0xbfee314142d2fdefU, 0xfd11ebee0003122bU,
  0xdcce029bcd1b0ee0U, 0x9d11e4521410050fU, 0xdfbc4a3501e73056U, 0xf0fafd220bcb30e1U,
  0x911123fd7f11fa20U, 0x2fef83bd247cbe2U, 0x2a1f0af4f53f06f0U, 0x2ca38032338d6e5U,
  0xd0e2cdcc0412ed53U, 0xc4ebdc040034f2d8U, 0x36d104d6812329efU, 0xeffaea1cfddce8dcU,
  0x6f82f173c00ea14U, 0xfe15d7f9c1e80952U, 0x49f610fabfc72dc4U, 0xf27fe7b457011eeeU,
  0xcf16cd01e2d8f830U, 0xc334df20ea316feU, 0x13d071328c01468U, 0xe857fc0b00201981U,
  0x40f153e9fdcea6c0U, 0xd106ec4cd7314102U, 0x9ec5551914d31c2cU, 0xede367f007c647ccU,
  0x373c7ff6e9f8ee02U, 0xc83a1e5c51b8604fU, 0xf4f6490e3ef56dbaU, 0x16e02a3ca93289e1U,
  0xcb5fdee1c2335beU, 0x7f60bbd3093e2eb1U, 0xf71bea08c83fdbecU, 0xc09d238bb504636U,
  0xa1e16dd1151bdbaU, 0x211e8c3f1b273ee2U, 0xec2119cbb438a610U, 0xfb5fc22393a111dU,
  0x1bf0fedbeeafe4a7U, 0xb62ae6f32e07ebc3U, 0x11397fafbc1f0f39U, 0xd3508cf6452cf48U,
  0x138d80cd070fee7U, 0xc17fcfafccba0102U, 0x23efac0a07135918U, 0xb20c24ed02242de4U,
  0xef16fbdd13331b15U, 0x3e2118d7df0bb1e2U, 0xe4fb523f01dae6dcU, 0xb126a7a1341502dbU,
  0xf5cf2f210ad90110U, 0x25c3eb1114fe7b3fU, 0xaed353381e6c9dcU, 0xe61a2f9002dcc11aU,
  0x1ea2a292eedcd04U, 0xe8dcd181bc04218aU, 0xf6f6e08332f839e2U, 0x39424618363c420aU,
  0xff88de2c5b470b9U, 0x4b32e73e284356edU, 0xd02d031db3ad6e5dU, 0xc4393fbadb63ee2fU,
  0x24e9faf0d0023bfdU, 0xe46cdef0c6af1b38U, 0xf31fdf6be135922eU, 0x5297b9f4c081dccbU,
  0xbfdac4fb400928cbU, 0xeaee1e0ed200deccU, 0x230cc8d6fb35f5dbU, 0xc5ed75bac1314d14U,
  0xadca18e916eca6cfU, 0x1a53810900050c28U, 0xa34ecc3b612ed1fU, 0x1bb81e42d912a09U,
  0xdabc3e0b5821360aU, 0xbfd807d2e0e4c4cbU, 0x5612eccafcb0e74fU, 0x6f0fee2a2d12e71aU,
  0x1e3b40e502ee3e12U, 0xed01f8bc0e42d4b6U, 0xed8b024bdafdbf36U, 0x7f4f836400acd00U,
  0xf6f605493baa7f27U, 0x1d0007dde07dbaedU, 0xe15d166b35cc0b15U, 0x48d6bf08e2f7fd2dU,
  0xac632fdbe57ff7d8U, 0xc7231f17ecf61b6bU, 0x1d0b18060be603cbU, 0xefd99c25dc8326ccU,
  0x43355dcc0137f4aaU, 0x1dd521ce0eb7fd03U, 0xccf00e22fbc5b02fU, 0x1cf31a0f811af342U,
  0x2ef50d4ff92dc0efU, 0xdbc6e23fd319ecd6U, 0x6600da12U, 0x0U,
  0x0U, 0x0U, 0x0U, 0x0U,
  0x0U, 0x0U, 0x0U, 0x0U,
  0x0U, 0x0U, 0x0U, 0x0U,
  0x0U, 0x0U, 0x0U, 0x0U,
  0x0U, 0x0U, 0x0U, 0x0U,
  0x0U, 0x0U, 0x0U, 0x0U,
  0x0U, 0x0U, 0x0U, 0x0U,
  0x0U, 0x0U, 0x0U, 0x0U,
  0x0U, 0x0U, 0x0U, 0x0U,
  0x0U, 0x0U, 0x0U, 0x0U,
  0x0U, 0x0U, 0x0U, 0x0U,
  0x0U, 0x0U, 0x3c4312700000000U, 0xf6e10000f381f5ecU,
  0x1fbff84d3bfbcf32U, 0xedccf3ddb4c12bceU, 0x1d9831fc8ed6c512U, 0xdddf12a73ac208e7U,
  0xb3d2c1342ef154daU, 0x202c095ee1c9dd33U, 0xedce7e7ffd7fcd09U, 0xf8f95527ccc6e1f9U,
  0x28546581e5102db5U, 0x2af4bf2a1d81f44bU, 0xfd233faf0923464dU, 0x27e8071c1215eed2U,
  0x47bd21cfff3e36e3U, 0xb22726e752463e93U, 0xfb16c31ecd8b2cadU, 0x3b30c5983e75dc6U,
  0x8f5021826af0610U, 0xe82b4cc245f9d516U, 0xec1bfae90a0f0c55U, 0x3be1834f453f7faU,
  0xdf8e5eedde869U, 0xee19f2650ffcfedeU, 0xed09063dcc11fc1bU, 0xfef9e51b35fcffbdU,
  0x44322ed11735ddabU, 0xf20c14ff08d33b55U, 0x81dd23d6ce7f4b13U, 0xf6c816e6333bc8caU,
  0x14e7df30e9b2f4ebU, 0x5edbe615271ddff6U, 0x6f37f3d0d794ccdU, 0x4981eeadc5359713U,
  0xc4360401ec37f73eU, 0x2ed88ddebbb50f14U, 0xedc30e28ea75c8a4U, 0xfae1b3faeb1ae61eU,
  0xecd7af03f9865213U, 0x4c81420a01d0c8e0U, 0x4bdd0e2fbc4134dU, 0xe229c565d2240affU,
  0x2381a71047d3e008U, 0x5ee4fd300dd811ebU, 0x14c56a39a3b87ebdU, 0xf53e14daf0f1fdf3U,
  0x3edcf6c62a0431b2U, 0x1925cebada2c7bdcU, 0x45f4f9f072fc3ff2U, 0xdea4c8f52a4e3298U,
  0x40fe415b0198f617U, 0x1bf5fbb2c87235e2U, 0x24b24e381651f0f3U, 0xa46290d182e1afbU,
  0xe9b80940d4ce32ecU, 0xcbab3c2045140d33U, 0xc417391c7612121fU, 0x213d13cd08b4fc7fU,
  0x34c9dff42a218531U, 0xf82ee7f115b98123U, 0x4fcbf3dbf09bdeedU, 0x3f3f0edb3eeb045cU,
  0x76b82d351ea02101U, 0x85e211057f49f010U, 0xfb1cf1c008b023fbU, 0x237ff73019fbf9ecU,
  0xf254ea39b8db7f74U, 0x9a816a44aebe1e11U, 0x1a3fda2dd8b97fe6U, 0x9fd0dfe2d9bb4bdU,
  0x39009e220c04ce0aU, 0x810851a226aec60cU, 0x1e61088278fca36U, 0x3abaf11e5306c43aU,
  0x43cc2cf432c8d650U, 0x63231ac3dfe43a0eU, 0xe1e4c53fe2dfa53U, 0x7fe72cb90bf87f37U,
  0xca9fd5cad22ebb35U, 0xddf43355db4126b0U, 0x1d1cd00ae2a760b9U, 0x33dd397f471007f8U,
  0x1a4ae1993d3754f7U, 0xbe2e1c34c8d2061cU, 0x17f247659af0f207U, 0xea2663e95b03f2bdU,
  0x40e2fecbf623091cU, 0xb5fcfafbacde61efU, 0xcdc3b8bf1ca3ff1fU, 0x2b03ad9ca5cb4999U,
  0xe00f470004f9ca3dU, 0xeb3191f8e712e8ecU, 0x3baa9d1aeed13021U, 0xfec5d1f03c3fb36dU,
  0x8c70383f1f3cdc14U, 0x810f3ffa3bfe6911U, 0x1f0aea20018140f6U, 0x3aa5f1eaf9d3b60bU,
  0xf92a563e7fb20904U, 0x67ee291700f57f17U, 0xf6f5180f191425bdU, 0x3811ca22fe4f1309U,
  0x21d10ee6ede50fd7U, 0x320a432e37397f81U, 0xe5d183043142ee2aU, 0x2254f1e10f81ba20U,
  0xa755525628b213bfU, 0x50d28817fececa8U, 0x811377cb2b69b7bbU, 0xd5435732f4ad0b3eU,
  0x5f08f26ab1271611U, 0x29d581c8c103f4f4U, 0xd37c6087f863f12U, 0x28cc14d6d40f00fbU,
  0xc147dcabe8c7052bU, 0x1000dc96f81333a1U, 0x8136e6dc0cb67f26U, 0xd2c048b2c1225912U,
  0xcee61b0cf9efecd3U, 0x22d5b8ef054512b5U, 0x234176762e4e604U, 0xeb413e0108134445U,
  0xa17f09ba04753c81U, 0x6c282208cdc64135U, 0xdc40da0955f90c17U, 0x12698100bceb3dc9U,
  0x11abea5d31baf4dcU, 0xd2eae5155be83120U, 0xbb2ef93374affe3U, 0x3108f9ef0b00e24cU,
  0xabd2c53008074f33U, 0x312344ee9fe9dd35U, 0x36c3c0f8c8ea22a6U, 0xfeea2403f6b3f21bU,
  0xf7f3b19ed992d824U, 0xca4fd21923aa1281U, 0xdbc0aa1a327e7f29U, 0xa81937cd08b6fc7fU,
  0xdbffe51881300af3U, 0xcaa9733b2536f8a2U, 0xe26e211502a1722U, 0xf4d700b90eefe1f1U,
  0xcf022b2e38178178U, 0x55152363b648a926U, 0x12d5b8104ea05d8U, 0x219fdac4f9af0420U,
  0xbdc0c1be2f716baU, 0xbc14216304aa24f6U, 0x19e5fb1907592dc1U, 0x27d53ca309ee0475U,
  0x5b737fe33025d304U, 0xd904141a8d06fe43U, 0xe1071a24393b03e8U, 0x7ff63b16fa0fc1f8U,
  0x40f9daa224a4a7c2U, 0x21be81f7d554e9a9U, 0xfc6aeed10d640de1U, 0xe8fa17814b2c0beeU,
  0x9fb15bc03b800ddU, 0x2b42e7563802f8f2U, 0x66519d263a44b07fU, 0xd7e4db8656c0ae30U,
  0xdfc9534602f95435U, 0x7f001df2aa08d3eaU, 0xf7cc39d75c21ab7U, 0xf5f0c4b17f1e4bd2U,
  0x693c239b7fef0941U, 0x45e6a710fb882160U, 0xe2c61f187e21b810U, 0xfb1fe1f642e20a91U,
  0xda161717fba101a6U, 0x11f35981a2cac022U, 0x3ab0fd03a3d8c5bbU, 0xb8e825b30b134db6U,
  0x991d29ede2f722b8U, 0xa5089b2f41ea1ec8U, 0xdb3c2cf0fa8175e1U, 0xa92a54ce0ec7b8feU,
  0x2c133b1cec8b79U, 0xf7de2536dd96c6ffU, 0xaa96f71a3a22bafaU, 0xeae4f61a5bd57f81U,
  0x18eee20a38f0caeaU, 0xe013fa4ef78e23d9U, 0xee5148c3ee66fdf5U, 0x3804bad92381a085U,
  0xe52f1669028121efU, 0x5644e5d43c7fc8dbU, 0x1302c097812cdd7fU, 0xd2e2e6191075cae1U,
  0x441a01f110e33281U, 0xd033b734f637fd81U, 0x4f1afb40027213a6U, 0x25ce025581bc2667U,
  0x2d6d8127fd7f3efeU, 0xdf32007c4647eff0U, 0x4fc0ac00becde25U, 0xcc3929ac1c9a3051U,
  0x61ccfc8d23b11fdU, 0xe713100d23fdd4dfU, 0x4fc4bba510157833U, 0xfcd93cfe1f063032U,
  0x1914b75fe17f2a85U, 0xe62809ebfe0463e7U, 0x213fee1c7fed1cfdU, 0x7f25274499f5270cU,
  0xefc538e616e3e102U, 0xdfc076d09172861U, 0xfa261cedf3ef5948U, 0x11f034db1ba6bd12U,
  0xfcf0ee6be92bf07fU, 0xb918cecf6f39fd1cU, 0x37ffd1b90b22c1bU, 0x1fceebed18712419U,
  0xd6de1c3d55bf2c7U, 0x180207e9358cc7dfU, 0xfbe4a1d6d4c79e71U, 0xfc311be6bbf911dcU,
  0xfa3e301818f8b00cU, 0xa19d2cffba81b4f8U, 0xe5810681e21e543fU, 0xfd2de881d5030838U,
  0x3a5055f04d0dcb9U, 0x21fff81fc2a50807U, 0x26002c0b2dc92dbfU, 0xf7d2b8cbce1321f9U,
  0x81f735e1cb3515c6U, 0xf2811c1dca7753f4U, 0x2fab81ff3791012fU, 0x464d44dbb3ea3b56U,
  0xb07b20dbf4d806U, 0xa02c47dfa20ee61fU, 0xd50e7ff211e3d5b6U, 0xddb22245cdbfaaaU,
  0x4437d9a6e50a483fU, 0xe7da44d41c912afdU, 0xed1c45a6d4018cc4U, 0x30f50bd3f7240308U,
  0x29abdc270f05dd05U, 0x6014bbfd2d1e3f1cU, 0xf4133f675812ecbU, 0x6b5620f04371f3c7U,
  0x48ff192e1e416e1cU, 0x6215dcec3447eab0U, 0xe61fdff928cb00f7U, 0xb00fcb26af0e4afaU,
  0x22ede91019123dd4U, 0xa0bf7d20c1ec623U, 0x365e29c020a91ff2U, 0x64f9f4f6d212a804U,
  0xde7f06734734f76bU, 0xc5f1f0af36b44aeeU, 0x2010d4d4d1d7f55bU, 0xcfc93dd3098f090cU,
  0xf65fb4e4e93b73e4U, 0x2e35d7e70c10e828U, 0xdddb2d6d3f0ac649U, 0x36bd4c037f001edaU,
  0x2ff11412470df309U, 0xf1fdf7510795ff49U, 0x1a0e37015fcb5fd4U, 0x54cce21b0bc3eaf7U,
  0xaf007ff909e8e8aaU, 0x721ce86f30e4aeefU, 0xf07fe613e9d0c5c9U, 0x59eb6eec3706f2cbU,
  0x1347f2b4f08e3U, 0x7f1ffe7838f734fcU, 0xf1c0e5fc6cec0ad9U, 0x1b44f831f78a1e4eU,
  0xa6191a7f02b9f8f0U, 0x63347f7f2a31ce27U, 0xbb30e5d709663f8fU, 0x3d5ca5c9c2f4cee6U,
  0xaad238e114ff65aeU, 0xe62953370ab7c3b8U, 0x14f4314bc2537f01U, 0x2f8181ae1fc0cae5U,
  0xe9d6f7eeccfa81a9U, 0x3cc81641c75e27f3U, 0xc6a615544847091dU, 0x3c01ec054f0e2441U,
  0x122a1acc15d22134U, 0x3dc3eacf1dfff1b8U, 0xe813cb05200fb402U, 0x12a57ffbfccffe4cU,
  0xe0f836b140a27515U, 0xebee14c1f5b4add9U, 0x62d1cc74c45d881U, 0x1ea614d810ed45faU,
  0x81071de4d4082ce5U, 0x2e0617ca4d05cab3U, 0xf6fcea00ea53fe24U, 0x14f35300f2090dc1U,
  0x7f0111c831dae819U, 0xc6dc70be8104e963U, 0xcfdfdb03f110327eU, 0x14fff8d1faa181ddU,
  0xc28351deaebb620U, 0x1907202123e5cd9fU, 0xf623cbecU, 0x0U,
  0x0U, 0x0U, 0x0U, 0x0U,
  0x0U, 0x0U, 0x0U, 0x0U,
  0x0U, 0x0U, 0x0U, 0x0U,
  0x0U, 0x0U, 0x0U, 0x0U,
  0x0U, 0x0U, 0x0U, 0x0U,
  0x0U, 0x0U, 0x0U, 0x0U,
  0x0U, 0x0U, 0x0U, 0x0U,
  0x0U, 0x0U, 0x0U, 0x0U,
  0x0U, 0x0U, 0x0U, 0x0U,
  0x0U, 0x0U, 0x0U, 0x0U,
  0x0U, 0x0U, 0x0U, 0x0U,
  0x0U, 0x0U, 0xedf8a91c00000000U, 0xd4bf2feafbeb0609U,
  0x2425f2ea35bdfe15U, 0x1cf2eabed7141ac0U, 0xeae45df4250702a8U, 0xa15ed381641fe0aU,
  0xe7230f0821db40e9U, 0xd157f0141c14e524U, 0x10facf0ecf612edU, 0xe54dc8c17f303f0U,
  0xe2c6fc1408ef0a81U, 0x5a0a225aabd8f0d6U, 0xc865b46705fd1322U, 0x26b5bff0a5c1139fU,
  0xc2298b0a6a535e1U, 0xabb01f02d1200b0bU, 0xf8e7e6b20a06e746U, 0x1038da7125cdc906U,
  0xecffd2501c250ce0U, 0x1aaffe1602a67debU, 0x281d831093ab11fU, 0x188393bfb6370115U,
  0xe5a1080b1a472a1dU, 0xb10a151c05273067U, 0x3172ccfb3ed9998U, 0xf0ff2eb10bc60dbcU,
  0xedcdbe23034dbdf6U, 0x33a1f181dc1319c7U, 0xd2ad1bf22e35444U, 0x182f2f68d7f9e84fU,
  0xd8dff90cf9f8039cU, 0xe0a3fe0892ee8baeU, 0x51e9f9b3351a1d4cU, 0xa2e1ad17d905ffa9U,
  0x1ee3203734d8fbb5U, 0x18f4c171f50b13efU, 0xfdf430efe3e7e29aU, 0xfa1df6200bf230bbU,
  0xe07cd1afb14db0fU, 0xc6001b6c0b27e310U, 0xc8efe11121d049deU, 0xf3f5f0b8faf19305U,
  0x7d8ef4b01250f3aU, 0x3b19fb162628f401U, 0xf9f10daa051d1f3fU, 0x7fd0612d00f73128U,
  0xd31bf629071a0e4eU, 0xb32f4e32df172eeaU, 0x46ccffe3d01d3be3U, 0xc0d61a340cf32653U,
  0xea02ce2fc5077f17U, 0xf12810e8eb18e316U, 0xc5cbf33878d8e994U, 0x15e2e0f4b1ea2dacU,
  0xdfb0cfceda12e67fU, 0xd6675a3b1e58f934U, 0xfef00ec3cf1b9267U, 0xd06cd15544dbec8U,
  0x473c02d2f0f3222bU, 0x95e413dcc8f721ccU, 0xe71e071c82af18ddU, 0x1edffaf0ea1dd006U,
  0x390af6e7f808ef24U, 0xc92ae7e1fef13f29U, 0xebf9ea2ecb19c4f7U, 0x39f023d8e5d2f64bU,
  0x50eadca65bac1de5U, 0x69131aeaca1ef41cU, 0xfec8ffeddf282446U, 0xd6291ae62ec21e71U,
  0x7021240bbeec465U, 0x81d72219021717f3U, 0x3c3ad2f4edec05cdU, 0xdfdfcd0e74eee9bfU,
  0xfacd3808e1202bfcU, 0x601c9d7fccb4a50U, 0x45eccbf4f4f72af8U, 0x18d406e22f177f15U,
  0xfcff030cfb13f128U, 0x5da06fec0ea1ed6U, 0xc3eed03ad7df7303U, 0x1e59be0bbcdebed3U,
  0xeabbf209fff1ddb2U, 0xd83d711ef8d723e5U, 0x1cd81f94133bc7f8U, 0x9cab22c1f2d509feU,
  0x5110e5661616410aU, 0xfc0a88ff315affecU, 0x5115de0c114c56e6U, 0xbcdf9a3337f9fecdU,
  0x5804b43aa52f0ef3U, 0x8edfbcaf0ddb4346U, 0xb8caa90b2c010211U, 0x20111d6e0e4b22aU,
  0x35fe2afc03d83f81U, 0x40f31b08f968c0b4U, 0xee68194c611bfdceU, 0xe82413130a1734d4U,
  0x17cd133d14df34dbU, 0xd9e855ac24dcfd1bU, 0xe50e2df28ecaff01U, 0x2be9cbf00808d224U,
  0xcbad2b0d287fdf11U, 0x65e5095e021af8faU, 0xaa02f9fdf8e9dfb4U, 0xcf2d0317de9125a7U,
  0xf017f1c5220b33e5U, 0xfd18fefeb5c7e82cU, 0xe07f1816e7c8fffdU, 0x3fbc733d7e648f5U,
  0x1301da58371a2304U, 0xea1c0edafdc2fc9bU, 0xc2df2d4b156e40b0U, 0x4e3892e003ebe03eU,
  0x221b22870e3accffU, 0xd6f59eda83b51ffcU, 0x4356fac0f4803U, 0xae46f54efbf537f2U,
  0xdbc2a48eb872feeU, 0xcf0451d44ea1bfb3U, 0xb8d00ae203f3101cU, 0xe9def9f623f18be7U,
  0x2234bda3fdede40cU, 0xccfd081dd537eee2U, 0xf50508c4e0b51481U, 0xf2fc0bc615b9ef03U,
  0xebe03924e6aff673U, 0xcdf5adede2e6f391U, 0xefe84422c8100ea5U, 0xdaf714b0e01d3316U,
  0xac57161c1e210f1eU, 0x3a00219fe58ffb21U, 0xc89cb1ed35e3d51fU, 0x1a1616b0190b21efU,
  0x1481cce83352ec1fU, 0x2175e41cd337c52aU, 0x180e1fea230a04acU, 0xd8e33ce0d9170624U,
  0x58011fd3e22be3f7U, 0xf409be10051fdb9cU, 0xc33c316bbd0dba02U, 0x1738f6ea2c17da04U,
  0xdc1023ccd91312feU, 0xfaf624f0f6ee182aU, 0xf424e250de32592aU, 0x3300295839c34cd6U,
  0x40ba851a4c0d764U, 0x370e159fbd43ccfeU, 0xeb27fd0b24331dc5U, 0x3cb321f618bfd5abU,
  0x430eeade1ca2ce06U, 0x1105c0d8f3ef9f17U, 0x14f5ee3b2aef2329U, 0xcc7ff7e33317d4d0U,
  0xa1612309bc4febf4U, 0x7a03f3f927b0d799U, 0xa5e583a4f2e0fad3U, 0xcedc3225a325f8f9U,
  0xd8249f25d951101eU, 0x2234f6caf713f9eaU, 0x3e509f9c5f60fe7U, 0xe4fe3f18f3b7d00fU,
  0x13fab83c01fdfedbU, 0x4019fe2e4b4c80eU, 0xbf25cdf4f2fada08U, 0xea13bfe9c543222bU,
  0xbe00be8109300825U, 0x11420610146ddea9U, 0x3c0f352d07d45f18U, 0xf27c26450defd012U,
  0x9f91feddbb43603U, 0x14ecc833140fcb1cU, 0xeaf9c82056b25512U, 0xed3f22f6fe2dfcc5U,
  0x8103a744ddd608b0U, 0x40e203ece10a15U, 0xf94f3bf42c22f533U, 0xf1c80ded0e11de09U,
  0x33ea1fccf0f10b15U, 0x3031b0c805fdd8f9U, 0x27ebded9f5eeefc7U, 0xf318410c2ce1dcc8U,
  0xc77fe8caedbbe4d2U, 0xefa8d33cdb2804ddU, 0xf13b46020e293512U, 0xdfe81f64fd0f0bd3U,
  0xfca90f100934cc11U, 0x7cb30de1dd219feU, 0xcce702d3fbeedb05U, 0xe9191f2a1d254b1fU,
  0xe6f92024f5cd29fdU, 0x4f40c0ceecfec2eU, 0x9cdec2f31b04ecaU, 0xfbdf581404ecb847U,
  0x5bcf29cef3e04519U, 0x13f3bdeb3c10eec5U, 0x7e5d5ecfe2531eeU, 0xfc7f07144dfef7a7U,
  0x32f9f5eaee1aac99U, 0x19320fce4b296f19U, 0x5bcee021bae21dd1U, 0xb8bd03104b4d2209U,
  0xa019b9c3cf1fe922U, 0x92f112dd2a2da9f1U, 0x3fd510cd21e51a1bU, 0x2881043ff458ca1cU,
  0xf1df1b27e1fefd1cU, 0x12f059debda94acfU, 0xc14f245e8f12f3dU, 0xd8f7998f29ec27e0U,
  0xd5f5445e3f50ed20U, 0xd82728caf3081ad7U, 0x6fc0b102b44a7e9U, 0x722aafb9ed4c22a9U,
  0xbc0454ddd621f1f1U, 0xcd12be2cf9c321e2U, 0x97fc0233e8ce10a7U, 0x4402141a90e95c31U,
  0x3cfaa8f0aa0eebacU, 0xd8bde8963206c4a5U, 0xa1eeef808d75729U, 0x3fdf6974cdc4c2eU,
  0x20d35a4e927410bU, 0x1bf323d2e20328c8U, 0xebf13af4d3053852U, 0x2a1cdf02c6513ecaU,
  0x9d7ec31081021321U, 0xe4daec39ba171ef8U, 0x5d2b30d33017388bU, 0xf0214fdeb3bfd04U,
  0x3c9f3c77b9f5f924U, 0x85a23ac4722c7dfU, 0x3813db0ffdafc11bU, 0xf71249b9ce0fd832U,
  0xb82f5dd02094854U, 0x1306f2f5d10f8e1dU, 0xe7c5fdeacb7f15eeU, 0xb9213d9d7cdd501U,
  0x550203010faff9daU, 0xe0437f60c314111U, 0xaf9d417022c3309U, 0xeb1d44e00d072231U,
  0x910ea0e2a44e749U, 0xf5cdbf0b3d5df959U, 0x26f013381807150bU, 0x3f290530ed2322faU,
  0xd54cfc4af6e9edU, 0xe039040d03fb0314U, 0xcd05e33381f3e61dU, 0xc42702daf7f021eeU,
  0xefeb33e81d34aa1aU, 0xe8e1ddd4bad3f144U, 0x15f4c62fb7fd33f9U, 0x1f0c1f2d0fc601dbU,
  0x17d3f0fff0fe35cfU, 0x1944f512d9e307cdU, 0xfdfdc5dd4cc6f81aU, 0xf9d5331018f8ff10U,
  0x13e321ef180abb07U, 0xe3fc2a011af62becU, 0xaffea06d5b42df1U, 0xf1cee8edf8adff1eU,
  0xe10b810e05080af5U, 0x2e1cf72ce6021d23U, 0x67d77fe8c1fdd62bU, 0xc2fbc04ed46cebcU,
  0x1a5d4f02ee1ee513U, 0x67e5f0ce0ab62b27U, 0x49e6e70ddc371d60U, 0xec1eb4f999d713ffU,
  0x63c3f159cf08ec34U, 0xf82e1641f6cdf72bU, 0x4dd5e80f161c16e8U, 0xeb1ad7f3aff916f5U,
  0xeeea1cfff3a729ebU, 0xe6e5685aebc9c92aU, 0x51cf11722121e4eU, 0xde26fbd150d0f0dbU,
  0xf9efc50ad12618f8U, 0xfb3805d3fd1be61aU, 0xbb0bc8592417d202U, 0xbf7330f10f004dcU,
  0xcadf4647ead7e121U, 0x2bcb170ed1edb22dU, 0x15e007edf5c0e134U, 0x81d7fd3223b040e6U,
  0x931d0df71a1f293fU, 0xe24e9192609e3fbU, 0x24fe18ecU, 0x0U,
  0x0U, 0x0U, 0x0U, 0x0U,
  0x0U, 0x0U, 0x0U, 0x0U,
  0x0U, 0x0U, 0xee0bf20a00000000U, 0x7fc1a06fa04ffffU,
  0xf4faf10cf626f4eeU, 0x3060d04f6f002f2U, 0xefd060f0103fdf4U, 0xf413f9160f0a01f4U,
  0xfafa03f10dfbfcf1U, 0xf5fdfd0df90fff08U, 0xdeeaf0f80703f311U, 0x30ef4fdffecfcf4U,
  0x5ebf4fd1012f50aU, 0xeef4f6f9e50301U, 0x710fb04f713fcdaU, 0xf4ebdc03fcf3f9f6U,
  0xf0eff80b010802f5U, 0xfb17070a1102e705U, 0x40f0604f604f310U, 0x10f908f6ff00e517U,
  0xf8140301ff0b0009U, 0xf2fcdef3f517f603U, 0xa000608f3edfdf9U, 0x1f1030526f708f7U,
  0x4f408fa030706f2U, 0x13f016e3020cf9fbU, 0x214f4e4090c03feU, 0x506fe2004f612fbU,
  0x13faf50b0207fc0cU, 0x5ebe8121eff1e0aU, 0x21fbe5f8ed0c10feU, 0x6fefef314f80606U,
  0x60afdf4fe04080cU, 0xfdf5ff12fb0002e3U, 0x303ef1000081a03U, 0xfc090a0e05f2fcU,
  0xee02f5fd08eefe1aU, 0x500eeff0511070dU, 0xf5fdf60d02f7f0fbU, 0x8e9fe03f60913eeU,
  0xd0cf609e5080a0eU, 0x3f8f91406010504U, 0xec0701f902140df9U, 0xfffefff304070dfcU,
  0xf1ffff0c01f9fb04U, 0xf112f40323fdfffdU, 0xfb0c06120106fbfcU, 0xf702fdf6ffeb02feU,
  0x80f00f51e00f504U, 0xecff09ec04e611U, 0xce61202e50610f6U, 0xff050718eb13ffffU,
  0x610200106f6020dU, 0xfcf209fcf6f0f408U, 0xf516f8fbfd19fffdU, 0xf112f603fd14fe02U,
  0xd0009130c11edf2U, 0xecf408f803fd0202U, 0xf709ff09fb0011f0U, 0xff6fcfa1002f8U,
  0xfdf6faf6fbf807f6U, 0x10fefceefbfe1804U, 0xf304edf4ec000403U, 0xf0e9f6f01106fdfeU,
  0xf60a130b0705f6f4U, 0xf1f11003f4ff10faU, 0xf308f0f5fd070603U, 0xaf204f3081711e6U,
  0x16f90d0412f70efdU, 0xfaef0107f5fcf904U, 0xaeef70afcfb08f2U, 0xee000509fd14fef8U,
  0x5f308f41a080b08U, 0xeef4f3ff1b041b03U, 0x160cef0bf00615f1U, 0x30dee00f504130dU,
  0xf8110ffffd15f4f9U, 0xf10cf20af30d0402U, 0x90d00f7050e07fcU, 0xf40307fafc15fffcU,
  0x805ebf9f6dcfb03U, 0xf8e613fa0508faeeU, 0xc011cfefd0818e3U, 0xfbfff30104f40310U,
  0x7f4e70d08fa0003U, 0xf05ebf0f7f80011U, 0xfd0501fe06f217f2U, 0xf30505edfd060904U,
  0xfe0af5f0f4001ff9U, 0xe0afdf2f909f6fdU, 0x608f603fdf309fbU, 0xed08fef7131923f5U,
  0x90ce206fff5ee12U, 0x2ffed09f3050111U, 0xf21106fd13120bfbU, 0xefeefe8f9fc0708U,
  0x401000efd1cff20U, 0x1f2e4090210f0edU, 0xfdff1f0a06070affU, 0xf609f6f6eaf9fefbU,
  0xfcf104f3fe0a0a08U, 0xf40d0a0ae710f500U, 0x3fd03eff5010508U, 0x207fe0302ebf9f2U,
  0xfdfe06eaf3f0faeeU, 0x8fe03f3fefce7f3U, 0x4efea101e120af9U, 0xcfe00eff1f90908U,
  0xfe080d000f020700U, 0xfc03fcfee52000fbU, 0xfa04fbfa06eceefaU, 0xf20ef7eeed000500U,
  0x3fdff0511f90203U, 0x1ff0606f0ffe1f7U, 0x4f909190302f301U, 0xaff0fff0d1002f6U,
  0xa0a05ebfd080bf1U, 0x20313fe0100faf8U, 0xf916f9f9f7e70d14U, 0x100bf7ed0c11f90eU,
  0x12e9fefbf904f715U, 0xee0e0c11110e1200U, 0x1d04130f0608030cU, 0x108f9f5f6050905U,
  0x502fd00fef0f616U, 0xfee4f5031df9050cU, 0x1fffcf9fb1c050cU, 0x6f906ffdeff14f1U,
  0xcf300f5f9070710U, 0x2fdfaf8de0eff0eU, 0xffec0efd0202f9f6U, 0x4f2fcf4ff0c08f9U,
  0x7fff607f7f90e04U, 0xd1709fff5f11714U, 0x7f0f1f3ebf80907U, 0x1206e9f2070fff09U,
  0x6fe03feea11f3ffU, 0x11e7f712f9fbe4f5U, 0x14f8fbf4f3f70df5U, 0xfe0309000a020c0cU,
  0xfde9071516f5fff5U, 0xfa020afaeff203f5U, 0x305ef0319ecf40aU, 0x1209f308fa0012f4U,
  0xf10e130eef0304efU, 0xffdf01f50cf80df9U, 0x906f50d080503f0U, 0x4edfbf9e9fc0af6U,
  0xf4fffef002f81001U, 0xf810ecf80af80617U, 0xfdf6f80fe8f40923U, 0xb0102fbeeebeff3U,
  0xe00afff0f3f40407U, 0xfb0c0cff01e203U, 0x1802140bf60005e6U, 0xf2fd09f10002f112U,
  0x8f4fbf9f805250eU, 0xfb08f20af60501fcU, 0xf503f60510f9f308U, 0x4eded0a100500U,
  0xf0704f30508f6f7U, 0x70f0dfcfffd0a07U, 0xf7070ceee7fcf604U, 0xafdf1050cfafafbU,
  0xffdff8fb0af7f1fbU, 0xf4040cf10a1903edU, 0xfc0f210700fd1105U, 0xe140fed0815010fU,
  0xf1ebf9fce70a05e6U, 0xf7f6ebf400f40014U, 0xe060501fe07ff1bU, 0xf50bf6e3f8ee00f1U,
  0xcf2fa0d16fa1c01U, 0x41302f7f918ebf4U, 0xe7fb07ee01edefefU, 0xfafff802e10aed11U,
  0xf6fc02fbfef9f302U, 0xe4060014110501faU, 0x150016f1f70d0a0fU, 0xf7ebfd001ffe1116U,
  0xc130c0df60b04fcU, 0x3f30f02fa0111f6U, 0xdec0803faf2e3feU, 0x30108f0fa11f702U,
  0x1312eefbfbfed6f5U, 0x50fe3f30504fff9U, 0xee0a061c0cfd0410U, 0xef800f4fa1811f9U,
  0x7010bfb03040cfbU, 0xe9010d00070206fdU, 0xc010303fb02edf5U, 0x150704ff0e000dfbU,
  0x5ff08000202fa01U, 0xf8d404e502122604U, 0xed02f6160e060afeU, 0xf4180303f302effcU,
  0x42600fb060c16edU, 0xfaf50f040801f70eU, 0xf4f51420eff403fdU, 0xc18f40d0e0e17f2U,
  0xeeef2fdfff7020bU, 0xb080bf1fcfe0af4U, 0xfe0307040503fb03U, 0x10e61c150300f807U,
  0x204f7f50104e504U, 0x201170af2f9eefdU, 0x70bf5fff704ffe6U, 0xfef7110febf90104U,
  0xfafb0f0d17fbe504U, 0xf9e4e9f6f5e9effaU, 0x19f0f9f00306f11eU, 0xfd1c000ffefffa0cU,
  0xe604f6000709fbf5U, 0xf208faf8f50ff3ffU, 0x90304f1f5fbfe0cU, 0xfc04fe13ebdaf0U,
  0xf70709eb1103e5fcU, 0x9f704f5fc04fa06U, 0x21508f30c1b0dU, 0x6f5fbfc08f40b09U,
  0x12f702ef04080002U, 0xffe01ff0603ebf7U, 0xf70fff1326ed0900U, 0x1bfd040ce4f5e10dU,
  0xf601fd000bf304f6U, 0x6fe0802fbf5f709U, 0xf20010e801f8e5ebU, 0xf6f1eb01f114e204U,
  0x406ffff050af7ffU, 0xcef00f903fbf309U, 0x1f4130c13fe0bfdU, 0x100e08f80aec0fecU,
  0xf906fdf61317fd05U, 0x6f51207070df000U, 0xd080703eeecfd0eU, 0xa07f4fb1310fd04U,
  0xfaf90201fe05f8e5U, 0x9fbf8fcf7040815U, 0xfcfa0b10070af5f4U, 0xfbef1100fcf60e09U,
  0xfae10000001301ebU, 0xfdf4fce8fa0304f4U, 0xecfb10ff04050ef3U, 0x8ebef10fbf6f9fcU,
  0x1ec01f3f10eebf4U, 0x3060c0413f6fbf9U, 0xbfffd11e20a05eaU, 0xfef9e80efffafafbU,
  0xf8e502040410f6f1U, 0x9120cfb06fbfe02U, 0x5f20e0c030105feU, 0xb0cf40cfb0e09U,
  0xeef107ec0a0afafbU, 0x61aee0616ed040fU, 0xf80c0eedff00fdf9U, 0xf8f1f5f60af3f3f9U,
  0x15f6ef050e150b0bU, 0xf20bfc07f208e601U, 0x1ff06130e0e080bU, 0x10ff08fadbf804f6U,
  0x510f7110e0df90bU, 0x9fef702f90ceb01U, 0x16f10bf504f6ed02U, 0xff1000a0b0ffaf6U,
  0xedfdfafeec1800fbU, 0x8f9f70ae7e40df6U, 0xdbfa0819fd0813f7U, 0x1512130afff81603U,
  0x15fafe01fef9f601U, 0x1023f908fc080b16U, 0xee10fce5f006f7fcU, 0x116f4fa0af6ff08U,
  0xdeff20b150bf7f7U, 0xf1fbef0a04f01901U, 0xf5f401f70910fafcU, 0xb0e14041609f011U,
  0x1bffeff710ed07feU, 0xf7fef303eef3f505U, 0x7e80de9030df3f7U, 0x20e171ffd160be8U,
  0x20b06ea0efaed09U, 0xb02f0080a170509U, 0xaf2fe1617070302U, 0xf0f9df07fffd05fbU,
  0xbf907e0fef7fefdU, 0x1f3fff7f8da0207U, 0x5f80407f51300ffU, 0xfaf50b0bfb0ffa20U,
  0xfffe0af107e1000aU, 0xf7040a0116eb1707U, 0x40000000f306f203U, 0x4000000040000000U,
  0x4000000040000000U, 0x4000000040000000U, 0x4000000040000000U, 0x4000000040000000U,
  0x4000000040000000U, 0x4000000040000000U, 0x4000000040000000U, 0x4000000040000000U,
  0x4000000040000000U, 0x4000000040000000U, 0x4000000040000000U, 0x4000000040000000U,
  0x4000000040000000U, 0x4000000040000000U, 0x4000000040000000U, 0x4000000040000000U,
  0x4000000040000000U, 0x4000000040000000U, 0x4000000040000000U, 0x4000000040000000U,
  0x4000000040000000U, 0x4000000040000000U, 0x4000000040000000U, 0x4000000040000000U,
  0x4000000040000000U, 0x4000000040000000U, 0x4000000040000000U, 0x4000000040000000U,
  0x4000000040000000U, 0x4000000040000000U, 0x4000000040000000U, 0x4000000040000000U,
  0x4000000040000000U, 0x4000000040000000U, 0x4000000040000000U, 0x4000000040000000U,
  0x4000000040000000U, 0x4000000040000000U, 0x4000000040000000U, 0x4000000040000000U,
  0x4000000040000000U, 0x4000000040000000U, 0x4000000040000000U, 0x4000000040000000U,
  0x4000000040000000U, 0x4000000040000000U, 0x4f44c0540000000U, 0xf02110fdf90ec505U,
  0x270a1d10f5af5f06U, 0x7b041e8ac77d1a17U, 0xdd4afef03037b3dbU, 0x32aea41b3a2bc30U,
  0xdae235fae53744e6U, 0xf0f3dbb1ff200313U, 0xf92ef9d6e8337029U, 0x6b1014fbf749f5f7U,
  0x15120d1606510208U, 0xe51bf133bd7feb00U, 0xf5551a12e4fd1d2dU, 0x8ee425fc3d2d4ddeU,
  0x1c3eea210d2f250cU, 0xdcf72ff70fbbe188U, 0x1d22df083b025108U, 0x2be0fcfde9eef1f8U,
  0xd104d60ef8fbdd17U, 0xeee8e31e0aac0d9fU, 0xed93e9a4d5d0152eU, 0x60ffcfe2eaa638feU,
  0xd9cee4f52681d6c0U, 0xf4db10065415fa4aU, 0xdffceff9f90aef23U, 0xd1e90e35112031fdU,
  0xf318e7ed1eea06ebU, 0xf2fc2129f02315fbU, 0x45025ade13f6d9e6U, 0x22f1f8f550d61a28U,
  0xdddc0513f40f310bU, 0xbba32283601f9f5U, 0xe67fe8f2e301f01fU, 0x1e44db042ef9d4e0U,
  0x310cfb30e5dbd80aU, 0xe0cbcb0f3b3f060fU, 0x9df1fb27f9040b1bU, 0xeb31f0eac7ece3f2U,
  0x4dda0c30aed85929U, 0x3f8bce3f2f7033cU, 0x2657cc47c0cd45f4U, 0xfa117f07a49c21feU,
  0xfbe444eec126d23eU, 0x251c63f0ea0f4accU, 0xc709f45c02302c16U, 0x2637ba032206d3fdU,
  0xc9f3081ece5307b0U, 0xe715fb29ebcdc9e5U, 0xe821eff63540e9f7U, 0xecece7250d18cb9dU,
  0xed08e8aa2bddceU, 0x65b010ad2f9dca9U, 0xe61ee0061934021bU, 0xe30f17c82345eb01U,
  0x15f4e3242dea3df6U, 0xcaebc715035202b7U, 0x1d0405e6ee0635efU, 0xf70d8129d81d1c22U,
  0x18a934370dfa1e13U, 0xc629fcd60bd1efffU, 0x132deb5a17d9c84aU, 0xd11235d8bc3cdaebU,
  0x240ecee9f1362d64U, 0xbf4a3b0ee6f112bfU, 0x14d3e21d1db561faU, 0x150c12101222ec13U,
  0x18ac0ab5e2ef1cadU, 0x7c0c3efbc819fb0dU, 0xcd4c121e02f326f1U, 0x8145f7edb201eccdU,
  0xd010bc0bfef2112dU, 0x12fa1f5aab0c1601U, 0xec07ef136737d2c8U, 0x270a6b0ffe5d3cf3U,
  0xd4b881c6b45a00d3U, 0xe619259708100c44U, 0xeb17100eed271019U, 0x182cff28fcf31407U,
  0xdefafcddaffa5bc3U, 0x40c80db7d2d113d0U, 0x1bda30170bfed4f3U, 0xe7bb2ae61cd1f2c7U,
  0x20130dee0f3a33e6U, 0x21e3ddcef174429U, 0xe35b2f072cf62a2fU, 0x3060a37d71400d3U,
  0xb1d21807fe10efb7U, 0xa203d52bacd9de04U, 0xe5b1960da0609d5U, 0x580f11fa0e8ca237U,
  0x5fe42ce726fd1331U, 0xd224f904d0ef9d5cU, 0x683a07cd2815f4eaU, 0x958174d8f391f7f4U,
  0x10362cd0221e46d5U, 0xbbb40afa0e27b74dU, 0x1400240d091d3802U, 0xf402f4b63a0611d8U,
  0x5af41ffef0380545U, 0xa85f0a55d0d1a3e7U, 0x1efcd4d72c13b5b9U, 0x19d4d42819451236U,
  0xcd1f47d90b2f0cd5U, 0x20fbf50f1bf67f0bU, 0x6eaf90bfdf53c2dU, 0x14d12bf4ff0e1919U,
  0xf2101921f11c2c12U, 0xe20d4e17f5e23abdU, 0xfafc010c071f04e9U, 0xcfb571c41d52dd0U,
  0x3f1ea8f7fe1e047dU, 0xd10221e52900def0U, 0x2b0e13ffc103dc05U, 0xef28edc1d5210cefU,
  0xba81084300f819ffU, 0xfb092db9661f222cU, 0x28b5def4012a3902U, 0x21133f2f13c9ca10U,
  0x24e5cb11e1000524U, 0xd625de30dc2216eaU, 0x94c1aef2c1bc9f6U, 0xecd92cedf635f4f0U,
  0xc732b9eafd2019e7U, 0x185b43f5f603e5a7U, 0x2737272445081be0U, 0xe633201fb5ea4806U,
  0xf84bd305e4fbb539U, 0x2cff30df4520eac5U, 0xf1f61cee32e6134dU, 0xef7fd6db46043aa8U,
  0xfc05e8b42feed312U, 0xdc262d1104570e15U, 0x150d7fff5ed4f00fU, 0xed5da6a808d624b4U,
  0x12363641ded8f5fcU, 0xf0082973ef32f5a6U, 0xe5fbedf8fafbe2e4U, 0x10eabaa541cb23f6U,
  0x1911fb2901311625U, 0xf6e2225faf09701U, 0xc12c3f625d11b91U, 0xd9e41b3bf2d215f0U,
  0xf217db3aed460c50U, 0x2cf1f60e25c15d25U, 0x33d0d50830f11e2fU, 0x3eaf9a2721cf0de3U,
  0xc5f8a144e8ebbc03U, 0xfd1517e3f85b9da9U, 0xd56f23426562eefaU, 0x17cc29ded05d4b27U,
  0x30e3eaeb1aa6d80cU, 0x10f02ffd2c14e223U, 0xe70587e7e9de1610U, 0xc3072f1c107fb125U,
  0xaff9ac47acc48750U, 0x253390ad910d1003U, 0x7fcc0fefd3db5eedU, 0xe6df0ddfd9030a08U,
  0xd8451e0fcaede7efU, 0xc63e0329013d272aU, 0xc71421932620fd32U, 0xd02d2ad7f924cbcbU,
  0x1d15b7b92ee416e5U, 0x12f3b9d2d11b2e20U, 0x28b0f5e9253401fdU, 0x3712fe1527eb04daU,
  0xa0910050ac6e11aU, 0xea3b12123bc238d8U, 0xfbe7eb32fff25eedU, 0x7f34290628d2d2ccU,
  0xcb01f8c7c79f180bU, 0x46f3424f5e59ff4U, 0xe4df0bc3dae1cd1cU, 0xdde7f231290507f9U,
  0x26a13bff49f7321bU, 0x15fc46c52eea36caU, 0xf60a2ddae1d865d0U, 0xd50148f9de661fe9U,
  0xb5c52fea6e7fa25U, 0x5e9380eb3091e0bU, 0x9f23110f31230890U, 0xfe2bf50eeb5136fbU,
  0xe62ddecd0a7ff8d8U, 0xf8982ad14dc012f5U, 0x6048dacd3c1998e9U, 0x830543dc06e8ce2eU,
  0xfe8f21de521f9f5U, 0x4dbcf1c1ff14efc8U, 0x15fb2c59ed022d35U, 0xfd610a153b14eb1fU,
  0xff0ce54fe251f3ffU, 0xd9e7d88238bd0735U, 0x1efaebfcef1e0414U, 0x21eef7ac4b18f82fU,
  0xf022d82611d60a4fU, 0x59d9b8ca2da52931U, 0xffeb46eef12d00feU, 0x2d1c4705d4044a17U,
  0x511cd300e6500639U, 0x4a2fdaf300f256edU, 0xffccc7df0204dc2fU, 0xe7962bb613022249U,
  0xf4b6231b5215cb3bU, 0xa41fd10177fd69fU, 0xebf613190cbbca0bU, 0xb3fc1df8d7029d4dU,
  0xeced0874d92139c6U, 0xf0dba3f6dbc03520U, 0x3a2a9d9be7efdbd4U, 0xfdbe91681e8e5e8U,
  0xfa2a1905e00bf6d0U, 0xce471b0e1dceeae1U, 0xf6dccece6ff70597U, 0x124ae8301dfa5c22U,
  0xf128dc20f20e53e1U, 0x34d3a827fdb5020eU, 0x11260f3d1bde2418U, 0x1dd2a7d34207210aU,
  0x320e5e18d03e0fdbU, 0xb0c40733f43911f9U, 0x150a1f07172127d0U, 0xdee59f4e451df31aU,
  0x22102b59f61b0c12U, 0x81e74d0435c511c3U, 0xdb0f00231f0328b7U, 0xe5cd47d3ddfdb9fcU,
  0xdfa300b9decc32f9U, 0xf4d5e2a0eb15f7c2U, 0x65fa9355412e3ed0U, 0x3bc5cfbcbabd351eU,
  0xc41e00d5171e0cf1U, 0xa281f6eadd433411U, 0xbd0dfa37100bfaaaU, 0x5a24f80922d435e4U,
  0x5e6ddc8bc1de3f3U, 0x4cc3f5ba39efebf8U, 0xc9ff12408d4cc95U, 0xf5cd1912bd05551bU,
  0x1f193fc9b21dbd0aU, 0x16a63dedb49e3dd0U, 0x23e321caba1cc8c5U, 0x234354710b0bc9d6U,
  0x21bdf819e0eb29e5U, 0x3cf30ec123176828U, 0xe917242cfdffe541U, 0x29e4fb16b70810dcU,
  0xc6c4f7603903fcb4U, 0xce5afed3de143481U, 0xaa01001c9e0d63f9U, 0xff16d528290bf414U,
  0xff31b0701e8131dU, 0xd20039d1ae0621ffU, 0xcc07ece6120bfd3cU, 0x3ff960f121f51f38U,
  0xf643cdb0ea11ecdeU, 0x46de0aafe4fcf616U, 0xcfe781cc2810f906U, 0x20518ee16d61628U,
  0xfe052df2f0ef0cbdU, 0xbf4119f514e01fcaU, 0xfc31db1c1036291fU, 0x2b0f0519d8d606f5U,
  0xeff51de902443acbU, 0xe0c02c16fc1f350bU, 0xcc29ee370e3ad5d9U, 0x171cb8ea192606faU,
  0x91f9fd30cd72e12U, 0x5d0ff111bd90ad5U, 0xeceae1be59ee221fU, 0x7d1b5c4fbda2903U,
  0xbaebfc3c0605cac6U, 0x32070534714cbeeU, 0xeddebfd3f521e2daU, 0x26c709f5e904eaecU,
  0x164f150101befc1bU, 0x9d3d40a0281d1d3U, 0xe033d4f6b0d8e6ddU, 0x1fc5eaf3402825c4U,
  0x21ef3e2c34191c29U, 0x30ed27482f200621U, 0xedcf20ffefebe5eeU, 0xd743e933d4010142U,
  0x1318b121bf52fd11U, 0xeee06ea26d9f30eU, 0xdc041bc245d92af7U, 0xc10ac931e7e7bce2U,
  0x7f240e28530a160aU, 0x1a01d9edde101115U, 0x66c7e7f2dae03de6U, 0xfbcc11084e76f31bU,
  0xc410f009c4f1221dU, 0xf0bb27bc81f1b8ddU, 0x547c36901f5ecdfU, 0xfa13dfc7430c3608U,
  0xa72e1253e9efad52U, 0x4640fb2ae0220e8fU, 0xe62f26671acad32dU, 0x1cd572d09dbc2734U,
  0xbd80bf1ee0bedfaU, 0xe815effa03d4ea23U, 0xbfd7bc1be4fc5508U, 0x1412f63eec3bfbffU,
  0x2b4dafc160e36fdU, 0x3525b40b5cc93fccU, 0x2565bf3d45c0d7b6U, 0xcaece6ee21ca8354U,
  0x4cf3ffc81982008U, 0xedae63c3bf26b912U, 0x4bd5c6cc0bb95816U, 0xe155b1f1778c95eU,
  0xd213f6dbd130feeeU, 0xafaf01f239481b25U, 0x17fa1a9fd9469603U, 0xe8ea4a56cd222d09U,
  0xdbde0f2da77aaba0U, 0xf43f174fca2523ecU, 0xde093cfc43c09e0U, 0x3cc57ff947ece907U,
  0x1319bbdebccf11e9U, 0x1219f628fb095612U, 0x21ecf1ec1c2a0ffbU, 0xe6182e9b211dbce7U,
  0xd5c91ed9bf990fecU, 0x47290f391feea4f9U, 0xd781b042a3cef2eeU, 0xb9d0ea1f14a452d5U,
  0xb887ce27aaefedfcU, 0xdca8cfb730f34a10U, 0x3f27932137c6232aU, 0xc70711c2f34f05e1U,
  0x2004edf457d31e05U, 0xfbd44ccef69b09dcU, 0x38e6ec56f724ecddU, 0x384a0afba7a6e340U,
  0x3816c054d2ad01edU, 0x24b19c7f81d94f0U, 0xe27f1c2dfe0ccfeaU, 0xb3ca07041138fb15U,
  0x1a1cd50fe9e7ca25U, 0xd52d46ee121dc60fU, 0x2327ddcd3cf119e4U, 0x2a12d9570639ef38U,
  0xfdc140adc24c8faU, 0x10cae1ecfa0aff2eU, 0x1fdff05dade3b01U, 0x331707013a63c711U,
  0xf21528eac6b7f304U, 0xe010110b0e1de132U, 0x83c02c3bcebf63feU, 0xcfca4b45f3f0ddf2U,
  0xe2ffbee23f80e9fU, 0xc74eafa720df2c6dU, 0x4120ce18008142d0U, 0xfbe0d208af2a1e0bU,
  0xe800cfe1e3db4108U, 0x361018372c7de5d7U, 0xf5e33f641af3c514U, 0xb515e5dfbdfc4fc8U,
  0xed314d151bf72128U, 0xd8e13f3c03701120U, 0xfcc9f42d160ec524U, 0x43c33cfbc701c90aU,
  0xdbd021512a3737d8U, 0x2defedcde4acd131U, 0xc144112101c52825U, 0xd0ebf12bdce2e321U,
  0xcb1fbce42101cc0cU, 0xee1ef07fd1b10ae9U, 0xf8d810060e28f005U, 0xdd4405e9e93eba36U,
  0x38f8ff274a066820U, 0xf0aedf4f415011dU, 0x59403f67002106d4U, 0x17d6da3a00da1f2bU,
  0x5a0b901dbfd04b21U, 0xeef9aa20b6c30a65U, 0x48fc142e2e35e6d6U, 0x81c904463b2f170cU,
  0xda04cae5f74b20e7U, 0x513f24096d1cfc16U, 0x30fd030503b1f2f9U, 0x1528150c130c3213U,
  0x6e716d9f6dd2f09U, 0xff10ae08c2121207U, 0xea7cbc08d7340e1dU, 0x26fcef49f0ae5407U,
  0xeba3ec285000faadU, 0xedfa1ae7cb220602U, 0x7192fc909cc0c1aU, 0x92f0d0592e4affeU,
  0x8322c61fee8a7f38U, 0xdddbe118dafeef7cU, 0xca0e18fde629f309U, 0x2ee8e1ac27e6f727U,
  0x3de625afb30219d8U, 0xdff4d00c3dc115c4U, 0x24f701f921c1883aU, 0x751667174c4371e4U,
  0xf1ab14462cd9fab8U, 0xcf681d3ed9491e0fU, 0xc4229cd61bd61cddU, 0x37011accfbd8edbbU,
  0x2dc5a57fb485d124U, 0xc4d13c4d335fa557U, 0xc5efd7f15d959622U, 0x50d30fc49ad22d75U,
  0x3bedf1220556284cU, 0xf90aeb2de3aa0bdcU, 0xe6cf02d634f016f2U, 0x6014f71623313410U,
  0x2de190122dcc6eeU, 0xf5fcde06a1f81324U, 0x37221b42f3dfe82eU, 0x20a3d1fe360c0bf9U,
  0x31de611c77edd4fU, 0x4018e0140b191df7U, 0xe53babe4e4281f01U, 0x1d21f54a398167eaU,
  0xe82ad0e27daaf61aU, 0x1c0206b9a63ea63eU, 0xd616394103e5aa4bU, 0x1bbf1a04f3cd12e6U,
  0xea120b0f051535f9U, 0xf456eadde2001ef7U, 0x31ef5d16f5f10a21U, 0x9b7ee21440ef8f6U,
  0xb52ee62e0cd701fbU, 0xf112dff41fdf1d7fU, 0xcedf0bf61be2d0e8U, 0xedfaea21ef064126U,
  0x14f82031c8ce1fe7U, 0xfb09dcf9480e3511U, 0x2329f5d419ce0e05U, 0x1602b0f8d82b0207U,
  0xe8154ce31cc27fe1U, 0xf1fc9f41b10b00bU, 0xe50b3d1af414fcc8U, 0xe115fae31004d46fU,
  0x4054d7341004b5c9U, 0x183f2428221126c7U, 0xf1f9f9233822ff2dU, 0x3904fcc6d91b1edeU,
  0x26f54422e81ab1f1U, 0x93c51f8e4b486fcU, 0xa1281bd8c9164bf5U, 0xf005022ceaf81df7U,
  0x13265ded16d40281U, 0x170d210145fdb34aU, 0x1b14ed26ee3f1fdeU, 0x2f10f535e5edee28U,
  0xe7d1d70c0239d8f3U, 0xfbefeee0fbfb01feU, 0x10fb10040a120b00U, 0xec0601251cf7dad1U,
  0xe71c21e51ffa0ad3U, 0xc10a31f8490b0051U, 0x32dcd8f0e81001c3U, 0xe89e3bd6fe16ebadU,
  0x31e8e067006f1437U, 0x40c71ddd2e5e80fU, 0xef0d45d0ded7d7ffU, 0xb302e8fc2b042554U,
  0xff9d88819acd7ccU, 0x4debfbf13f2c222dU, 0x22bb9d1afd7ffb2fU, 0x3458f4214ab4980eU,
  0x1afef00b1f3cf7ecU, 0xd39fca2cc6292c4dU, 0xc4f2b948e3daae6aU, 0xee0fca136b0bf30U,
  0xe692477126d1423aU, 0xc2b6ea0d20d940ddU, 0xfdc9a8eba2e5e02aU, 0xd361e25e70b0d12U,
  0xfb0ffe17cb024322U, 0x1e043ccb025047fdU, 0x2042cf8e47ffa29U, 0xd411db06c1d4f139U,
  0xc5be53020195f6caU, 0xcee9ac203265064dU, 0x3c47490dd8190af5U, 0x26fe16330405dcfbU,
  0xdaadbbeb15ce0d2eU, 0xf8bb36d8d1d418eaU, 0x16f690a3c59120c9U, 0xc1275ee7a84124e9U,
  0x2308bf7fb7fc0863U, 0xbd20f2117eb0d00U, 0x76266024d24c5a8bU, 0xe14a07afc4ee2c9bU,
  0xecd93a4823e94bfdU, 0xdbee76d21981c90bU, 0x4defabfdc71723e2U, 0xdfdd2542ce2b08dbU,
  0x19f2e02d10eee223U, 0xef4904265dfae0d9U, 0xc11d546f80602a9U, 0x26d40fc2fddab895U,
  0x7e181eff5cf91102U, 0x39481709ab29fc2bU, 0xc01ead50eb0be144U, 0x1814a17009e87fe4U,
  0xe036a0461e460ec7U, 0x265d04dc1df306ccU, 0xe5d6cdd93954e3e7U, 0xcb1fc8cedbdffadbU,
  0x68d9eb030506c610U, 0xe353c5e02015f416U, 0x21bd46b2279db406U, 0xdadcd51c45c96b22U,
  0x5fc47f0aa1743907U, 0xfb9ec692002be44U, 0x9b6cf4f702b9f5c1U, 0x9000bd7110d772fU,
  0x2e3827d87acae3f6U, 0xd3b0007ca01594bU, 0xcbd6d8194bd61cc7U, 0xe5daa20818536836U,
  0xf22234eec4e8ee07U, 0xc3def1180ff5cfe3U, 0xdbe8eedeebe42d06U, 0xd815da02d6a61608U,
  0x23240322bee72434U, 0x1081042fe5fcd61bU, 0x205ff08121231ecU, 0xf01b1de785092c3aU,
  0xf6bfddecbf251ce7U, 0xa0aee6310a3babbfU, 0x1134e6a60b091523U, 0xcc181fdae9d5de23U,
  0x29b61dec35282815U, 0xe72d021c1f3027fdU, 0xbf20c2041ee15c7U, 0xaec81703fae281ffU,
  0x16242f0ae222cbf9U, 0xb3fd80f26f01ce6U, 0x25d7e72a1b28cd14U, 0xdb0ba7af1cc3e811U,
  0xecae24c8f5340024U, 0xf1dde4ccbc00ed2eU, 0x1e2a4f2ce43eeffdU, 0xbe9b5cf2920c6fbU,
  0x21ae1f1aec381d01U, 0xef7f30e861d9f610U, 0x20e4efd40121f0e1U, 0x9bf208d5aedcd34bU,
  0x3f2dd5f24671000bU, 0x20e2051df63d3fd8U, 0xc8042868fd31e53dU, 0xa570039e5f812f4U,
  0xc54aca0a1a0bcc06U, 0x56b800e4fbc8debcU, 0xf32c70d2bb9f107U, 0x2c37eb1ee2fc36d3U,
  0xe317cfb504000240U, 0xda18c90bd4211121U, 0xf60e1dd416d4d715U, 0xec1e1700eb01d43fU,
  0xfdb01341232fd931U, 0xe6103ff2022cf42dU, 0x36411937c8f31002U, 0xd848c614ff030fc4U,
  0xadd0df902df25f8U, 0x10e9c8f548f5097fU, 0xab0c5917000acb0eU, 0x97d6a6a2f5055f00U,
  0xe52448393cf00d43U, 0xaac00dbbbd037434U, 0xe8c21b452d08ea21U, 0x8eee5cf10a7f713U,
  0x9f23e32ca8062cf1U, 0x56b705bf6a0311e9U, 0xb6defbff22c2ce28U, 0xd2f2add23cfd151aU,
  0xcf2f3e1e4c8241aU, 0xd142e5ea427f4db9U, 0x8a1fd62a01e90638U, 0xaee448f0171c8f77U,
  0x2e182dea7fa1d52aU, 0x5545caf4eabc2918U, 0x6ae0686aac0d25daU, 0x84bd06ff8f24bf9U,
  0x424a0b77318a2652U, 0x42e94e2042adc001U, 0xdb1dc402d6e3cc0U, 0xcbdae414b825ee1dU,
  0xe5d6da73b6514c28U, 0xd8fc22e0546baeceU, 0x340c0e1debff0bb8U, 0x5838f057040cd4cfU,
  0xe5eb68f3e431edf7U, 0x193ebefba9c62337U, 0xdeeee72e652437b1U, 0x33274b0cf50581f1U,
  0xe704bddac326e0d0U, 0x298ce27c03d416a1U, 0xc4e94f0328dde1ffU, 0xbcfaff96431edd1fU,
  0xdce290fdf6f36754U, 0x9afdf6edccfaaec5U, 0xfdb6ff1ee60b2a04U, 0x72830d3dbf1f510U,
  0xf2f1f53fea3108aeU, 0xd5e7f22e2e1c0d1dU, 0xe4d3f62901f8e87fU, 0x296e11fc00fefbfbU,
  0x33afaf0d2121980cU, 0xf5b206f8dd0cd3c1U, 0xbd1b14aa08f52da2U, 0xf6fee52a31010e43U,
  0xbdd2cec33e40c2bU, 0x15e20dcb0fac20baU, 0xdd03831fb03ef0cU, 0xbffcd500c0dd5f0U,
  0x7d0191c3e513524U, 0x1cd9d9b07cc2605U, 0x19d8c21034e6241fU, 0xf6220e12222706f8U,
  0x1c42140a2a19bc1aU, 0xcedc0ef53781cd00U, 0xf61e174b19190447U, 0x2161eafb36def661U,
  0xdf13bfc91be906efU, 0xf9b54710bd5307faU, 0x366117de24c3e7cfU, 0xe738e5ba07feb5e1U,
  0x81fa8bbbea6cce11U, 0x19e735be23edbed9U, 0x253ecd7f31f1d21U, 0x587e96c3d5e6a94eU,
  0xe9de28f335961e91U, 0xcf2bb9bfb8afe6d3U, 0x691ee51ea738a523U, 0x302ece91e5be33ecU,
  0x9c2cf12e70f298dfU, 0xb05ed6c6dcaa1ef9U, 0xeebb21dbf114c8fcU, 0xf2d581aeade60027U,
  0x12418a13e61823cbU, 0xea82063c0521e146U, 0xc5012da41bdc402bU, 0xfcfcd5cc29f3f1f3U,
  0xdaa92d27ecd36fedU, 0x1a1d6716f9daf9f0U, 0x900fc79b11253a17U, 0xa81dfecd0f19c6a0U,
  0xa4e044bca060ff8U, 0xd72d39fa3325ef05U, 0x1f2e0fbc153ff0bcU, 0x3a0129c0e5dcfdb1U,
  0xda022ec240421012U, 0xde4010e0b0eb2e3cU, 0xaace8d56146eedfU, 0xd8f10b40f3d4e904U,
  0x7f5bf3f324af214U, 0xef2dee2fe6c02da2U, 0x7fb41fdd0d9e041bU, 0x755c4df15e34feaU,
  0x17fcc3e6c31ef019U, 0xf2bd2050c2809f5U, 0xc3f2fe14df09e9fbU, 0x16f40c83181b1abdU,
  0xcdd8fb70bb2078ccU, 0xd5909cb70bfd4dddU, 0x151026e2fa60f6U, 0x1ecaa04686fe3dd8U,
  0xe9c105092b190e17U, 0x1ada7fddfa463b34U, 0xff0c21f0d8450d20U, 0x1463cce4b0e64312U,
  0x3d1627274bf648fdU, 0x2509f4ca9413dfdbU, 0x220c3e391031441cU, 0x140eab352206fb02U,
  0x4d1cffc7e7bbfcceU, 0xdc2310bde1fac30fU, 0xff3ae9300f28dbf5U, 0xe1d132625251659U,
  0x6d06b6f8282402b4U, 0x28f8ec6bcfe5c43dU, 0xd1f1b4e9dfeae306U, 0xddeaf0000ff2ef42U,
  0x8112cbe873160f34U, 0xfaf74723fcb2c5dcU, 0xd4e01a517f2b4f12U, 0xde041f423728c6adU,
  0x61062a08dc3eb2ccU, 0x15101bbfeeca0e2bU, 0x3707e0d1c8431142U, 0x4319d52b3b250e16U,
  0xa102fcc8d13f1eeeU, 0xaeeb030423c605c4U, 0x92fbc7ca1b189714U, 0xea032f32fcd41b19U,
  0x7f7e043d04a42812U, 0x37d533030be5c918U, 0xe04c0137334c2daaU, 0xfedcd272f419f124U,
  0xe1d9233914b69647U, 0xb7c425c0f3af1d32U, 0x29dbfe5d3629eee0U, 0xff328ffc1312200U,
  0xe2f5bc22c6f402f4U, 0x1c0c264833042e3dU, 0xbc1de801eeb94118U, 0xd32e6000f210e4ecU,
  0x120a37154ad3fcf1U, 0x267f35063419d9abU, 0x26144a070a11ea8bU, 0xada04bbcfa1fdeceU,
  0x616291cc0121df6U, 0xf6d56005c5330b21U, 0x559f23e20ca0e05U, 0xece2340bcf4aa73cU,
  0xe5330f26b01203d4U, 0x32f00bd32c201c6aU, 0xb6be111bd39f31f6U, 0x1bb9d9abf87f32fcU,
  0x34100ae500d3d936U, 0xf3ffff215303922eU, 0x494433bbdf32cb01U, 0x1fe02da0fffee6fU,
  0xdcc804f6e6caca7fU, 0xafaab7fe1eb4f9f5U, 0xd040ecb32412f14cU, 0xdffd0db897fd350aU,
  0x2bd3140798ce051fU, 0xb01d4fc0c819b80cU, 0x38d19c0fd46b3b19U, 0xb18e305f821ceeeU,
  0x21c0cbbde5e1bcd3U, 0x16de27dcefc63cc2U, 0xcbc2c3f041d9bc8cU, 0x113016eee552affaU,
  0xccf8b817bf010bd4U, 0x1c1ea8ec1b51442cU, 0xc9bd0518e243550dU, 0x7471ae4e3f1fc05U,
  0xa9063ad2d8e7c639U, 0x19df41e49c030932U, 0x2af4f7f0fa3bf4baU, 0xdce5110aa5ebfe28U,
  0x7fc22d1b381909d7U, 0xfedc09e44ce435ddU, 0xf2e893340ff7c3e5U, 0xf12c16e3e017db8cU,
  0x53a8f0e5c024f7e4U, 0x55d1a8819cbad0d3U, 0x8e25cdc118d93809U, 0x4fed138d7a242e8U,
  0xb0d8eee6f873e1f5U, 0xe72c321decbc5d0bU, 0xa3cc265ff9616ed6U, 0x23f0f6b603af4d20U,
  0xac61eedd2ebc0d73U, 0xc177e537b0f0580bU, 0x218e113f15495ddU, 0xc54810103edf173eU,
  0x4de615e40e651553U, 0x1dd7473e5630e9e1U, 0xf6e3a967d6df30d9U, 0xdeab4210a4b01602U,
  0x1209177ac112fc1eU, 0x3e291ac60bc7b823U, 0x1355e3c2fdf3180eU, 0x126154dde27a2afdU,
  0xae42e43b4957d6e6U, 0x7f9f362df524eba7U, 0xc344a748172f1609U, 0x151239a6250ec1d9U,
  0xff35272e3d26402aU, 0x29adebd00f2e23d4U, 0x42100008cfb106feU, 0x54fe0034185d5d0bU,
  0xf4a415dd624b0dd9U, 0xde126660f997663bU, 0xca2f090af2af3efdU, 0xc0d38880e43190aU,
  0x4b1dea2be62acb45U, 0x40947f00102cef99U, 0xfd06012b6a090622U, 0xfb1b232839143b1dU,
  0x10db09b7f324d9a8U, 0x2abde905c409230fU, 0x2b11f812ffe31f12U, 0x38cd1f4832faf9edU,
  0xc337d71548ddfbeaU, 0x22c21bb7e0dd350fU, 0x17d71003ff3e43f4U, 0x19a6d3ef58d1fe1dU,
  0xde1bfc015db2601U, 0x7f2e21fdf6160b0fU, 0x143eebdc0341b50bU, 0xfcf632e63ce1222aU,
  0xe32bda063bff0c10U, 0x3b6bbbcdd50108ebU, 0xfe4543001cf25116U, 0x170d4143654316f7U,
  0xdf9f5a9bdb3f40aU, 0x35a633dbb10d5215U, 0x65318113e45e4cf6U, 0x8002c31f711fc02U,
  0x5117eaf608071341U, 0xd4adf851b5ef1e4fU, 0x4b080c3a3d0c0a48U, 0xbeee33f710344412U,
  0x1ce1f4d902e21225U, 0xec1ae7068861fceeU, 0x45c1485ab72ee10dU, 0xdf3d07dd2a22de13U,
  0xe2ca2d1a2bf31b0cU, 0xdbff81f3f17d5f12U, 0x21ceae0c581c2fdeU, 0xda18f90aaee6f805U,
  0x20edb390ffdcf2deU, 0xf0400336db320c0aU, 0x31250f1e01f319ddU, 0xefee3e33e1c72e41U,
  0xf1c57fddeed32e0aU, 0xf1c110b40edd130bU, 0x285c15e8f0009aecU, 0xf7fc172bef0523c8U,
  0x373f8c3a8b2d4c4U, 0x340effb726159332U, 0x2634bc24125afaa3U, 0xced5f0351cf89bffU,
  0x22d22fe51ecb4206U, 0x5f77d18119df68b9U, 0x2fcad4f31a9bd029U, 0xfceef012148f30c7U,
  0x254c1a0f60162263U, 0x9dea45866cbc5deU, 0x27bf6adb1bd5e4e0U, 0xbb51344997f9dd3U,
  0x3ce49dc363de52c3U, 0x888c9c111d16f2dcU, 0xce2212411a19f78aU, 0xb6f4f636dfb93ec0U,
  0xed0a4aa5c266181bU, 0xca3becb39450f779U, 0xe1f9ebfdddf169d8U, 0xd0c4d3d4c92721dbU,
  0x717061a17c3d2daU, 0xdbe59af5f644e8d1U, 0xccd70bc903aa2221U, 0xe31604fddc30f6b7U,
  0x10f263ebc3fbe4d3U, 0x1dd7ee0fbcebfc10U, 0xfee6e95c9d08fbfbU, 0x123b0ef006f310e2U,
  0xff7fde100ce93a0fU, 0xe4101d0d072604c9U, 0xf45bc92440199f02U, 0xf5034af3e7a523c5U,
  0xebcc529c554051eU, 0x981f640639bfd30cU, 0x46d260ed03321830U, 0x2d417f7ff097fcbU,
  0xfbd5fde2b8eee5b2U, 0x45aef605e3e937d9U, 0x205ff1208d0e155U, 0xec19abc22620c0d1U,
  0xcde4d0de804fc0cU, 0xaae33cf650e01efdU, 0x15b59df5f7152aU, 0xe42df3d4ec14f7c6U,
  0x280a47bdd92cdec9U, 0xc28eee54ffa7d807U, 0xe6062500b4bc8bfaU, 0x5433defe30f5dbefU,
  0xe5f9335c0a197fbbU, 0xe8e4f611e0158326U, 0xf601dbdc1d1115dbU, 0xa0811cef2bd6c6cU,
  0xf116a7051128784eU, 0x61550808fc0ed525U, 0xa38414415a0dbeaU, 0xb2f13f62b069b56U,
  0xbdb09fecee9d447U, 0xedf607db42274d11U, 0xfdfef3ebddb7fd20U, 0x177f151027bae72dU,
  0xe50ebd1bfd06ac07U, 0xc71cebc1f4ee1e08U, 0xddf1f0f5c1cf2bdbU, 0xc4efe4030804e903U,
  0x18f2cbf9dae34df2U, 0xaee945dbdb18ff0aU, 0x282dc1c2d1233b1eU, 0x2dddcfe0b1a53cbU,
  0x5c8c1004718ffbaU, 0xa849addef0b82d89U, 0xcc0e080c39e34531U, 0xdee8bdd0d435be09U,
  0x6b6255a2621e6e5U, 0xf37ffb3303fddf10U, 0x1239bef70fe548e4U, 0xf6af3ac91a15f610U,
  0xb1e24d36befdf6dfU, 0xee2aa63c29d5fdf4U, 0xcf8addeac2f89b2cU, 0xbef3b447ed1fd448U,
  0x6cc452aaff51d16U, 0xefcf500c0e135ab2U, 0x11fae21b2316e016U, 0xa97f5659cbc6e039U,
  0xc33252c7d8e37ae7U, 0xcb2be01dcc243811U, 0x1160f846ac2b4f26U, 0xa818f2c841d4db2aU,
  0x27180f04f14a6236U, 0xff30f0f4cefadff4U, 0xf0e9b4ebd6e71d28U, 0x2532fe3a9ef20ee9U,
  0xf03938fff3a8e928U, 0x587ff2dc07052100U, 0xe230f8f8240ec74cU, 0x31fc191ba7331102U,
  0xfe16a904dafb17deU, 0xc6b1e0e9a41915d6U, 0xb1ab120bc04fde08U, 0x1fd5fd4010e623cfU,
  0x5ae7311cbf42d55aU, 0x4983c22101222e8aU, 0xf41cf0f4fe22bee5U, 0x5ed106827ba315cU,
  0x13bbf7f904d67921U, 0xb0d0feeaaad3d030U, 0x7fd3dcfae4e1c5caU, 0xba3f2df102096ec9U,
  0x1e85f712e10b0ac1U, 0xfff8c1bd078df1beU, 0x26d1065904d4de35U, 0xc654d307e1cb2c35U,
  0x14edaf1bfd31e2daU, 0x2d0141ea18fab83bU, 0xffdb1bedc80d1232U, 0x383a00261a34ed01U,
  0xa719f45a01fbe8edU, 0xf4f3511be1db3fbcU, 0x31cf313d5ba2732U, 0xf9d3e8e3b3150607U,
  0x206f8dce87b20dcU, 0xf4faf510fd2fdef1U, 0xb160e1d9ded3515U, 0x27f9dd00160a2344U,
  0xef03e4f3f4222620U, 0x160b0307f4360d7fU, 0xebea00fecfa3ba15U, 0x170d0dfe1e5a1441U,
  0x3e2b2b420000ce02U, 0x2bf802b7dbfacee8U, 0xd1e02d6eefeed681U, 0xf0fb222ee3ea2f14U,
  0xff08a6021323b8daU, 0xee16e9fd3600e009U, 0xdfa4244fd26e80dU, 0x22f9e31f031b153dU,
  0xc14306dbe626d3d7U, 0xf942c30d13f9e043U, 0x21ae7eaa4f528ccU, 0x3449e24f3de8a0c6U,
  0x141cfb142fed3214U, 0xf0e9d61a81e11f11U, 0x3431e6d413151b2dU, 0xc50801120e0826eeU,
  0xe028b20cf2053faaU, 0x8501dbe618299f16U, 0x7511355161b14c7U, 0x811a14da36eadbfcU,
  0xf30e07f2f30e9bedU, 0x453bece314da33ccU, 0xf6ec58fffc2b2933U, 0x19e7c7f5fe76600fU,
  0xc60705d7cc97dadcU, 0xfb2356a7f7c324f0U, 0x3ee4f4feff3348d8U, 0xff1418f0e5f01201U,
  0x4905ed232a3c1a17U, 0xf4e8e94033c4cb09U, 0x2de5d0fdedd9e8fcU, 0x322f503a052706deU,
  0xdebfedfbb6fdf6f6U, 0xfe20eff1ed02d381U, 0xd9e1f4f3c9aab627U, 0xf6e4fc0ecf1ba6f8U,
  0xfff52d151eb135deU, 0x5521df2acb261f05U, 0xe60649e6d4041ef2U, 0xbd1507d32ae6045cU,
  0xf3ee24007f180cfcU, 0x262717bac8053648U, 0x510d5ead4bd35b8U, 0x10f4eff213e5cedbU,
  0xb614d31e19a9f705U, 0xf12e063ac4bfd0fdU, 0x4fec1703feefc4ceU, 0xb5d309ae28b926dfU,
  0xefe4f5300212b9f3U, 0x1cfc7123fd0feedfU, 0x232fc7bb84fcd7fcU, 0xe604fa0b1145220aU,
  0xbb0e0032f72513eeU, 0xdcd333f7f61df833U, 0xcdefeedac6c42166U, 0x253f218122ec342aU,
  0x58c1cac4eb0af521U, 0xb91809821b58eb6bU, 0x4ced3ac146d5c413U, 0xdf38d12711f1e428U,
  0xf02c0e22d1ba132fU, 0x192012345731f7f4U, 0x5d7ba08ccbb5d3eU, 0xfa01812af225fa0fU,
  0xf41f0df006b024e3U, 0x14ffee0aaef7f3eaU, 0x120486fde8df231bU, 0x100bdce7e63545c1U,
  0xeef4240e5127ce66U, 0x26b5d0c82f252de9U, 0xd310915f2faee37U, 0xedc004d0b3fe2abcU,
  0xd504b1d547c31635U, 0xcae9d60cf4d80700U, 0xb8cb0dd9fcf6a6e9U, 0x2318cfade7cb501dU,
  0xcbeb26295730fd1fU, 0x200f034507d5dfd9U, 0x1e0cf42800d851afU, 0xa33ad005e0d207fbU,
  0xeb15f64533412bf0U, 0x390900a9e0ba8117U, 0x1ed501dd980cd4U, 0xfa09af156bc36199U,
  0x10d54c0af30719e2U, 0xe4cb667dff3f2ecU, 0x2cd0efef21e02fbU, 0xbe5c325db2ebde2U,
  0xccbb01f1132ae40aU, 0xf1f0e265e7440c1aU, 0x1fecd640f9d14013U, 0xf905ec811c3800cdU,
  0x13e3d2fca1e43308U, 0x26f6f2dde6f00c3aU, 0x7f3107e924082409U, 0x1cc5bb0ee0293c43U,
  0x110027073f20fb3aU, 0xb6ddb0f21822befcU, 0x4701d85c0df63a1fU, 0x18df2b0cc9d3e6ffU,
  0xf64202f1da6c31edU, 0xeacda6fc022910c9U, 0xf718513102e8f7e5U, 0xda460ae7d7450b4aU,
  0x22100e1112fd28e7U, 0x55e955b7ed050910U, 0xce33d8b6d4ce0b28U, 0x45034b0b111cea47U,
  0x128681420325e63aU, 0x1245e0d39020fb01U, 0xc627e0c439a7bcafU, 0x2eee06382975b7f5U,
  0x6525f22e1e2218a1U, 0x382f0d1357b35fecU, 0x21cb1618e32b1d27U, 0x57c3b82e255ef8bbU,
  0x2c302d0504160345U, 0x39bba43180c15edU, 0x18ed0c17d3050100U, 0x20e82fddb22a0ee6U,
  0x204af2b0daf6fd0cU, 0x2d3f1ef5182feebeU, 0x269c05e9bef7f8f4U, 0x14511bdfd42a3af3U,
  0x1ce01b1cb703f9a0U, 0x12fdeee923d501b4U, 0x23f5ca38d51d1303U, 0x8ffa140d2e33dfd3U,
  0xf0ff1a3f1f1d1081U, 0xf2471c1611ccef58U, 0x430efc01ef161325U, 0x785f33bf17f23fcU,
  0x1a04cafabed7d9cfU, 0xbe0bc4f3aa30f717U, 0xcd374d0f2b380c01U, 0xb1650b1dcf2e2b7U,
  0xe5c9d22b284aee1fU, 0x1c1423edb336bd43U, 0x17e4002d474033fdU, 0xef1afd0f24f09b43U,
  0x23ef00341deafa50U, 0xdb3556431417028dU, 0x4bf7c56c0a10e29dU, 0xedfc63bfb7f3adadU,
  0x17c31f09cb55e697U, 0xdc3318551f34fa10U, 0x2210c39a315843e6U, 0x623f60481da14e1U,
  0x1c1300fbc9f6a83dU, 0x3b0f19cac4f5fa38U, 0x22ff3ae2c1011708U, 0xde0bc514ee1acb17U,
  0xfd2cce0b1cfefeaU, 0x1e0deb3ee6003b6eU, 0x22cedce4d1fbfad3U, 0x9393908f5e84d05U,
  0x37cadb980d41663eU, 0xc230f323c51267e7U, 0x20f6dad6e6a90892U, 0x7ff50a22239a1bb4U,
  0xe9cc06e33311c9b0U, 0xffe1db0b091be5e9U, 0xc1abbe27f4f304aeU, 0xfaf5f9d13c41e0d0U,
  0xd2d5dad32665bad7U, 0x203aed1342ac2c1fU, 0xf5e23bd81a16f1f1U, 0xc6d4d14cd31b2e39U,
  0xd0faf3ecdd10f544U, 0xd2d4e26f4007eef0U, 0x3ef6240323d22d1dU, 0xfa44fa210f9cf5f7U,
  0xf1b6b87f28ec0c0cU, 0xf135ed039f0a09ffU, 0x37bd0847441ecd3aU, 0xc62505affbffee0aU,
  0xfd63bb22e704dcdcU, 0xdbef02d17d4ef22U, 0x6d0a021dfbd80607U, 0xdbf103aa18003f48U,
  0x1e000fff410efb21U, 0xd713220e81bd584aU, 0x5acdc8e7e89bdcd9U, 0xe7b5f60407fa2626U,
  0xcbb6c4dcfa603b15U, 0xd6cc1ce1d2d101d9U, 0xb7f3df00ebbf1cbdU, 0xe620fbf7fc0823b1U,
  0x1edf24cce220d2b5U, 0x6dae0fab726e833U, 0xf13cce4b386458a2U, 0xfff2ac0815ccacfaU,
  0xfa90c0ef4fd33ddU, 0xe30cec1cf0d0fdd1U, 0x10d9cba520f6502fU, 0xb929d6eb20b20f1cU,
  0x43e12aa10c540f09U, 0x274ed60c3f11eae3U, 0x372face91aba3044U, 0x151b1215d7efe88cU,
  0xc6dd1a6f13f410f5U, 0x44e524f0f854f71aU, 0x32fc7fcdU, 0x0U,
  0x0U, 0x0U, 0x0U, 0x0U,
  0x0U, 0x0U, 0x0U, 0x0U,
  0x0U, 0x0U, 0x0U, 0x0U,
  0x0U, 0x0U, 0x0U, 0x0U,
  0x0U, 0x0U, 0x0U, 0x0U,
  0x0U, 0x0U, 0x0U, 0x0U,
  0x0U, 0x0U, 0x0U, 0x0U,
  0x0U, 0x0U, 0x0U, 0x0U,
  0x0U, 0x0U, 0x0U, 0x0U,
  0x0U, 0x0U, 0x0U, 0x0U,
  0x0U, 0x0U, 0x0U, 0x0U,
  0x0U, 0x0U, 0xcdb9d48100000000U, 0x44f5810b5d1c9df3U,
  0xb2061fbee7290618U, 0xd932fcf3f9290f33U, 0xf3df7fce30c6f88aU, 0xcdc645b628c60410U,
  0x21e7f52235f3fb30U, 0x8c9049acc2bf917U, 0xbfc8e12c28117fe1U, 0x6b425875cba1260aU,
  0xf2a49d408d50f09U, 0x2febdaf4f96e17cbU, 0x6a24d319ede19a8cU, 0xffeefae30f130d2fU,
  0x9cc11f82021ead6U, 0x304d81555f5c4289U, 0xe17f0023c9ed81e5U, 0x461af9e507033fd4U,
  0x19f8600c2f67afecU, 0xf15e0314d0760681U, 0xfd69fcfefe170817U, 0xb9f3c6ebd52a1c13U,
  0xfaf70fd909ea0207U, 0x30ce2f30c3d066d4U, 0x7eb7f4c0e2405e8U, 0x694bd13f7811169U,
  0x9fccb96e253f313fU, 0x32d60447a7fa3681U, 0xf0008944e8d6cce7U, 0xd0438b3afb7e3616U,
  0x6f25a5fe95aa3e42U, 0x42ebe653eecd53c3U, 0xb4142c3d1819dfe9U, 0xfff13e5081f404feU,
  0xec48ec8ca5f781efU, 0x427f29fb04b322f6U, 0xe3431d4e31f89281U, 0x5001d1b3f6efff8U,
  0x2e240fe6f38d5U, 0xe5207786ed10f357U, 0xfee1111857b2dbf9U, 0xdf17d7d5e811282eU,
  0xab912240db2c11dU, 0x2f5e81375d032b02U, 0x177f7f322fdd6ef5U, 0x4ed1035ab7380612U,
  0x160408bc4f23121bU, 0xdd0a21214305e5b1U, 0xd73b24e96b31da0eU, 0xd5feebf366401a14U,
  0x4ff53d9655de4632U, 0x1b083001fe32fb40U, 0xf757003b267087ffU, 0xc90b8cbc7fa5f396U,
  0xce0c481dbcec7c46U, 0x81c56eb57b6b79bU, 0x1fdd04100fd4de46U, 0x37f410844fbd7ff3U,
  0xd113ec769f0ae94fU, 0x4c2afccbcbda11afU, 0x810fef27ac2ed327U, 0x5bce15dd1c22a862U,
  0x2e034cdd31b815d3U, 0xa62a1a0203f7e348U, 0xf68f12c9a8de1f0aU, 0xaa036fe51d18022cU,
  0x36e334bc1c41bbcdU, 0x3f0e5d11b20ac674U, 0xa4f9371203431cccU, 0x5b17e9ff16dc2001U,
  0x7f0239371a040febU, 0xe65a232117dcff08U, 0xb8ba54dd81f0c5d2U, 0x9141edb4be02077fU,
  0x8fd05e649242ec2U, 0x313a14f2c47f292dU, 0x93d3cf41afff2d8U, 0x9f7fae23228b781U,
  0x16d81035047f20fdU, 0x5b17ba2af481b19fU, 0xecfd46e33209e903U, 0xf37f0fa5dc5ae926U,
  0xf02d082903b249e5U, 0xa9150b1f090e0dd8U, 0xc5c6e5240b08e204U, 0xee0e07e9ee2a3d24U,
  0xb67fcc48972e5273U, 0x33fb8520a521f76fU, 0xdaf3b5b70b8d1eebU, 0x18139bbec713ded9U,
  0x497f7ff051f2c8bbU, 0xcc7fd8456ba6e3d8U, 0xeb3cfd23ffacbf10U, 0x1da72131f8fb091cU,
  0xd5f6e55cacc704a3U, 0xfbd23dfc0819b70aU, 0x1181d2f0f00b02ddU, 0x6fd120202c083b3fU,
  0xf3261b819244322fU, 0xd3bf0fc1bff462eU, 0x25210faa33d6efd3U, 0xb4f32729f76acf0aU,
  0x817b08654b45142dU, 0xcdcc06d840b48f6cU, 0xf320103c2209211aU, 0x2a97138cd888e141U,
  0x92d4072645d3002aU, 0x3ae0d723dc1e2bceU, 0xe64cffd0130124f4U, 0x815ddc3036d22effU,
  0x7fc91ae52d0681d9U, 0xb640ce10c9f1f0cbU, 0xf6f3ec81e08c87f3U, 0x18f6a381e8727f19U,
  0x2fd2ae815698d516U, 0xe7f3de347f66d738U, 0xf14a2cd0eac21f03U, 0x50f9afbf43d5e5feU,
  0xf62733c881104509U, 0x25138122eb85f1daU, 0xbe121af4e300f613U, 0x9664c10d7f9bcab6U,
  0xb52781d323fefd5aU, 0x1ed55c7ffaca8b04U, 0x20f8b9fee176ac7U, 0xedfc7f01ed4210efU,
  0x13470933cad2b61fU, 0x28cec2ba4ff7f402U, 0x2a0404fbddf95803U, 0xeb25fb5b2312f6fdU,
  0x3131637ba0204d4U, 0x42db20f51bf228fcU, 0x2e2c062b75f90c94U, 0x4d813f7622f9f02dU,
  0x601c12ec0ad34709U, 0xb20d17b1396fd4b9U, 0x30b673bdeeb1f7a4U, 0x5ae1a5e3d4595705U,
  0x2e4941f22f5522adU, 0x3c0100d691c9bdbU, 0x34f45a362803e8f4U, 0xfee67f19efb7f4e8U,
  0x50eb81aacaf6c47fU, 0xd8ec01304fe91615U, 0x7fca9255e060012U, 0x58410fca16ee3e4fU,
  0x140baae2261cd1ffU, 0xba15102ca508142U, 0x4c4ae6e41fc59d1dU, 0x25235003efc0c0eU,
  0x1714376d6ede692bU, 0x3642f39dfaec79d6U, 0x2335cc17f2d6f75dU, 0x33d5211c248d0af6U,
  0x2600c1b7701b07eeU, 0xd4dce006525dfde7U, 0xaa5d243b21e238a9U, 0xf6bed3d1fe24402dU,
  0xe2e3072e20f5e04aU, 0xbe5090eed8192efbU, 0x23a9420c5409510eU, 0x1dfdc7f80bb9d5d5U,
  0xfba5e114d48920b8U, 0xa1220ef4ef781ecU, 0x1fea85261ae4e23aU, 0x90d7f10dae2043fdU,
  0x2c128dc5fb3ff20eU, 0xd7293101b2cbb4edU, 0x9c0ecffb922c40ceU, 0xcddb20eecbee07f5U,
  0x23f8eee4da2af168U, 0x2f6343ab0acd75aU, 0xe1c6f0e3f53b4e6dU, 0x7c1ee1e05d4095bU,
  0xd361d5225b8cef42U, 0xa9becf02f59c1a14U, 0xd6f0eedb2101410fU, 0x10051f0d041f2bc6U,
  0x4b0036eeec07b911U, 0x21fee315cf11f57fU, 0xf0ee0910f817f42dU, 0xf8a508d6400c59feU,
  0x12c9e9fad2d20c30U, 0xefae93750351b5bU, 0xdaecefe930e3f5f3U, 0xbe2376fbbefcf9dbU,
  0x8ff8a01f39c7fd8U, 0x16f62fe772157e2dU, 0x43634e6e69cb914U, 0xe6ff4fda063ce9cbU,
  0x26e948c811fdef17U, 0x45ecb2ddfdad81ffU, 0x3cd44dc3dfa7fb3U, 0x1289bfd219181c7U,
  0xbe10c2d22d3ff9f7U, 0xe0f8ce0bfd0793d7U, 0xdb59355b2c4bdef7U, 0x1ffe3f28fc4df616U,
  0xf66dfb2a345859f3U, 0xaf0e033d1126bebfU, 0x4fcaef31f7dd4dfdU, 0xf044f1f910c20900U,
  0x212bfe83ae725f9U, 0xff4210fe198a14ffU, 0xb2e108e9abf6b650U, 0x943db3eb17f53709U,
  0xbb294d23e27f1e5bU, 0x7f07f7bd2b0cf243U, 0x7fb60078d3b51781U, 0x5325471a2ac31411U,
  0x690d6be307083cc2U, 0x26ecfd21e8dfa22cU, 0x2ecf77f46401881U, 0x2d1ec12ae86ce908U,
  0xf336bf19437f2838U, 0xfde4f3fe8119dfb0U, 0xd50f19d6f381ed6cU, 0xbbd9a97f1c38023eU,
  0x7f2015fc81e12bd5U, 0xdb21d7dcec1cf404U, 0x29033cbd04c203e3U, 0xdb7f0ee8b29c58e2U,
  0x2236bcfda707bc3U, 0x56b21e9ed9148cc5U, 0xedf64118cc192233U, 0x29ecf6ed5fd9040bU,
  0xacbd1aebdcaf0065U, 0xd367469107dcbf38U, 0x1d2caceb10ec2fd2U, 0xec01d7e9d0de4600U,
  0x2a2220a1f24c15ceU, 0xe37f08f2173c1a2fU, 0xe20c1ee06117140aU, 0xfdb8155e0dea2125U,
  0x184313c081dbdcb7U, 0x1e2d894ee14970aU, 0x181871447fd3cc15U, 0x7f0813a4be81d681U,
  0x1620f1fb2fd203eaU, 0x6e69e21935f61841U, 0xbadc8e06204e4141U, 0xa622d7270329cc21U,
  0xccfde4a4fd223304U, 0x360ff04dbf155c3U, 0xf027e0f63181f4f6U, 0xfae6974f098fae21U,
  0xecef34f54bb837d4U, 0x321bd82b1261a0f9U, 0xfd2b50fe1915ea5eU, 0x92907066b222ff8U,
  0x3c0331f6abc937c2U, 0xb8f6e88106cb2aefU, 0x3cac4f4121ccd900U, 0x2d4cb60b1c57a22cU,
  0x532ede06ebc14c65U, 0x3cb4d223813331e2U, 0x1a4f3dfff7dfebf6U, 0x360a9de2aef614d0U,
  0xe239262a325dd104U, 0x81c41fe10307046eU, 0xde14f0ff3afca71aU, 0x43959167d77fe2fU,
  0x406aed1193f0f1f8U, 0x81f931bcaa81ddacU, 0xf40d5d1ced60091fU, 0x46f0fc40dbe1de0bU,
  0xe5fa9efec4b7cd41U, 0x101e390e5fa6ecedU, 0xd0223426dddedf2aU, 0xc2fde6df0781f8c5U,
  0xee1c4337e602e7f7U, 0xc108dde2075beb00U, 0x1334e6c7032c070fU, 0xf2362126f13f310dU,
  0x2709308138f510edU, 0xbcb20c0d5ee7bfd6U, 0xac3a06133be1011aU, 0xbb0d173a07f603c5U,
  0xe6071bfa000c1b81U, 0x141b659811cf2b2fU, 0x1340c40fbd0649e4U, 0x3904cab6da060524U,
  0x18db3f24d76fcedaU, 0xa023be81fb1846e2U, 0xda1f1903200acc07U, 0xaddaffef0bdc12feU,
  0x1be50432d3e6e9e5U, 0x6b0b0fff0b51d731U, 0xb9fd14c627d315f1U, 0x3347031bf8daa2e3U,
  0x642f4839105de0beU, 0xf50fa3de9c31980eU, 0xb74258067fe0d739U, 0x7fb3ff4527430c60U,
  0xd6622d3d9ba3b581U, 0xb9ab16b83093ae13U, 0x81bd27f6f27f6017U, 0xd7370e81c1cf1e1fU,
  0xd81cb48b5da200eU, 0x17ee32f4f209e27fU, 0x1cde2f68U, 0x0U,
  0x0U, 0x0U, 0x0U, 0x0U,
  0x0U, 0x0U, 0x0U, 0x0U,
  0x0U, 0x0U, 0x0U, 0x0U,
  0x0U, 0x0U, 0x0U, 0x0U,
  0x0U, 0x0U, 0x0U, 0x0U,
  0x0U, 0x0U, 0x0U, 0x0U,
  0x0U, 0x0U, 0x0U, 0x0U,
  0x0U, 0x0U, 0x0U, 0x0U,
  0x0U, 0x0U, 0x0U, 0x0U,
  0x0U, 0x0U, 0x0U, 0x0U,
  0x0U, 0x0U, 0x0U, 0x0U,
  0x0U, 0x0U, 0xe5811d0a00000000U, 0xc3308e6f4e627ddU,
  0x1022ebecbd495dceU, 0x1b2b50eec230eef2U, 0xe31612d20cfe53eeU, 0x2612fb13dffde629U,
  0xcb1da04ef43c91cU, 0xfc0f17042ae6a2b7U, 0xcd303dfa411cc6faU, 0x37e2025d5f19db62U,
  0x2d0de1d8ddc936f6U, 0x20d35633110bdc0aU, 0xfcfa5681f229d63aU, 0x817e418dd112de7U,
  0xefd6f401322ff404U, 0x5434d0ebd9d7fbcdU, 0xde1dc8d11ed6e6ceU, 0x34190c4cdef90afbU,
  0xda61cfcdcfe125ffU, 0x248ef705c912128cU, 0x15350fd0f335d526U, 0x3607a1ccc33e0aeeU,
  0x2831f1ced4da09f7U, 0x17204121dfe3f64bU, 0x2bdfccb93d0f1b13U, 0xa90f2f4018cad4eeU,
  0x96eb1d38ab08f2efU, 0xcabfddc9ebec05ffU, 0x22130de227e4044dU, 0x96194a5fefb40a37U,
  0x17e67f03a135f0f9U, 0x521708bf0ddde8d8U, 0x6158b0d940e0f53U, 0xf9d1dfe5152ceb28U,
  0xbe1ceee84e32e65cU, 0xf458df692058ff63U, 0x6afc011d0ea5d73bU, 0x9a19d9242606b2ffU,
  0x19fc0bf0216a4cbaU, 0x3daf76b01ccceb02U, 0xc15cc64f799f736U, 0xbdd5a7df4602d622U,
  0xc71df2f29120da1eU, 0xfbac46f5fa395dfeU, 0xd2655420267f37f6U, 0x2e2bf51c05e5b240U,
  0xf7922526f7b39bdbU, 0xe112012f7524a02U, 0x53ece171218e0f5U, 0xecc5d838c6030b24U,
  0xe8d79dbfd71115fdU, 0xdff817faf0b6cc18U, 0x60ed6e75fa34f5ceU, 0xeeede9dc0f0e10e7U,
  0xb9f91120e5512d27U, 0x182abd21f7e408f1U, 0xdbf3273516e1e9eeU, 0x6162a0337b4ed32U,
  0x17094b810e3ab296U, 0xcbcd11da02e60246U, 0xfd3eb110beccafeU, 0xf1fff4111b19ad33U,
  0x1ed5420cc8d2e4e7U, 0x1d12f83d041b81deU, 0x2308c6f4f3eb0a2cU, 0xef1d15d9380008efU,
  0xe2317e0fdcc013fU, 0xa034ee1dd48bdd4U, 0x12d10902f304c0efU, 0xc3c1d1de43690dc0U,
  0xc33a57283df90716U, 0x1b3efa4155170ad5U, 0xea66140c04b9faedU, 0xc4f8300d2d06e30fU,
  0xed1428f7361e1ffeU, 0x12e31e2cc6e91c04U, 0xde3fd2e3f14dff2eU, 0x8dc0c467fdff1e9U,
  0xbe120906ebefbc26U, 0x12b8f61be5fa4812U, 0xd3874efb65cfc1aU, 0xbe301cded7f4ccd9U,
  0xc5e206e3c8ca99d3U, 0xf832c1e3162c2db1U, 0xd54a06c553abe719U, 0xe9b59b0fea2cf10dU,
  0xe477d875e3c21c39U, 0x3e243d3f65133d4U, 0x39b1f1fffeea0f43U, 0xe62b0de9bbd47fefU,
  0xbbfdfea8fd1af5feU, 0xf21cc2052ccf3385U, 0xee1324e6fbfdeb96U, 0x336a2ac330202113U,
  0x20e3f52a700e8d1U, 0xf6121b35e4bf6422U, 0xf60103c0f8eb01aaU, 0x24036c9b30602fcU,
  0x309af8043f1057bcU, 0xd80bed7f0ff727U, 0x5709e5f5ceacf8eeU, 0xe224f1f76e1ac201U,
  0x24e4f1e527d6e02cU, 0xe4b3e652d5271db9U, 0xf9ce4f3c3044d36U, 0xf30e6230f4a3e0dU,
  0xb1c27c5b35cc5fcU, 0xfe1fc2bef7aa9acU, 0x10f5f5133d04cbefU, 0x67e655281fe3d50dU,
  0xe915022ddaff1021U, 0x3afbdefefc815c0fU, 0x17e0ad05bc24dfecU, 0xe5f9d8da1af830f3U,
  0xde15dd08ee19032fU, 0x3109a13804e922d1U, 0xc081afeee31b072U, 0xe107c2faf1faebf3U,
  0xeb0ade22cbf9e2e2U, 0xeb1827a9b8161d3aU, 0x40ed0002d5c81745U, 0xfd2f1f4742ebce3aU,
  0xcd448551f62d2dfeU, 0x45081c1b052ad70dU, 0x2c96f82dbb0378ecU, 0x2bf43ffc2f3341a9U,
  0x1d4a96a0cc0caafU, 0xe6061df403bb61cfU, 0x2e46e8e004ce3d81U, 0xeccffeab2bd01d62U,
  0xe00cd911f1965935U, 0x15f7c8d028601af4U, 0x5eff0eec53ecf654U, 0x19edcd44cd4cf3d6U,
  0xeb3df008d5040edaU, 0xaa2c33e6f90e1dceU, 0xf52409df12bce6d8U, 0xedf1144bbb81c9e5U,
  0x26de1de80fe22edeU, 0xf2ad1f22de1c290bU, 0xd5ec16f532de3f1bU, 0xbb1a061edfefccf9U,
  0xd8165e1f4c101705U, 0xe69df8ef5414dfc4U, 0xf1c5174b1fe0012dU, 0x90f551e13c8c313U,
  0xbdf6191fb5021924U, 0xd3245c35b1b5172fU, 0x25b0f2b21d66ff59U, 0x640765fbfbf8a2a8U,
  0xe257cadf422813f9U, 0xd645e5be10e5d534U, 0xdfdca2ffe1ee20fU, 0x180ed31881ca2c28U,
  0x91b21c299f47dabaU, 0xe8130822f3d9012cU, 0xcc3afef639c9c1eeU, 0xe313c30705122a13U,
  0x1eed1cc315b5ca28U, 0xdb27cbf4e3e428e9U, 0x319211ce0c8f027U, 0xef1c3900f4ecf1f6U,
  0xef0411da1e1a4c23U, 0xe541bd57f062620U, 0xf21309e91503c448U, 0x2ef13e1ee0508f4U,
  0x3beff5f22074f1ceU, 0xf4f6150d1bf708ceU, 0x48f330d706e7f1e1U, 0xdfbbc9b70afc2f65U,
  0xaa47c7f28a1b7fceU, 0xa6fdea441b2edeU, 0xb0ea3adeef10bc34U, 0x38caf4c7f213f551U,
  0xff220d243c14601cU, 0x2539c631e4eb1e10U, 0xf7a821ea11113bfaU, 0xbb11ec61152bfe07U,
  0xfbcafce1f6efe326U, 0x6e5a4deed65f676U, 0xce4f2aedd3ea4dcbU, 0xd63895e8072618f0U,
  0x56042c40e9e217ceU, 0x3bd5d005f0e5221eU, 0xf828ff2ff914f9bcU, 0x3f1715fb17e20f04U,
  0x1a7febc40aebcdd3U, 0x46f2fe39fcdee4b6U, 0x1d11d21c460fa783U, 0x17fd3bd6451cff3aU,
  0xa8cb3d22c369ed14U, 0x24652c0ff713eef3U, 0xeeeb18c9371de912U, 0xfeb63b290aea2ff1U,
  0x6883341ae42a27d5U, 0xd61201a0e8fde968U, 0x3968f34bfe3becf3U, 0xf4f8bc02e6245903U,
  0x498c237200fac801U, 0xd9ff0034d26ee82fU, 0xcbf3d6dea6513bd5U, 0x3fcf7eb032ba390U,
  0xe9f522050ef7f3c4U, 0xc0f50fe032f32c31U, 0x18a306c8e2f7814cU, 0xffe2074037e68feaU,
  0xbd7f511ccb625067U, 0x4ff7fa0b1d06d41fU, 0x2cf2e8a5c3f617e5U, 0x2ac5bde8e2cd21f9U,
  0xd63f5ec906f2b0e1U, 0x5af8bd1be601d006U, 0xe714c84ac35d1748U, 0xed3bcf18161eef4dU,
  0x33f3e50067b91b15U, 0x171fe01edab01522U, 0xd28c6edd5376cd4U, 0xb8b9e4ba11dff347U,
  0xdcf4e797d8314a04U, 0x4ca094dd8145fb50U, 0xe693ffcb0fde94e4U, 0x17081726d8d5e402U,
  0xec63b7fef9af7933U, 0xd740d9d5ecf71346U, 0x152c1331380f2dddU, 0x4d70931ec05c906U,
  0xc3780abde4fadcf3U, 0xef0000efa11dfbfeU, 0xf109791ef637dfd9U, 0xf5df59ec2e001512U,
  0xe5d8f4b40cae36d1U, 0xe8fb24ed000c7900U, 0xce23b3e938793d08U, 0xe6192ce0c1f38109U,
  0xba2be5d6fe5d2810U, 0x6a02073af1e214faU, 0x4e70b13f8cee1U, 0xdec9ac0060cd7efU,
  0xc315f1f1f1111ae9U, 0xfff1e8e4d50d06e9U, 0xffc1f30af1c3fedaU, 0xe825e7b0e832e4efU,
  0x1d6f90313ef101fU, 0xeebb6bec3504efd1U, 0xf8ecfef71707efc7U, 0xec0dcfaacfd2918U,
  0x2023f0dae8f8f5faU, 0xffe83910e62611ebU, 0x181c2a221f211decU, 0xd619fed01ed7a831U,
  0x3ae01be0d839640dU, 0xeb3e0d337ffbfe08U, 0xd6bd4bfbf101e800U, 0x332cece615c4d62bU,
  0xf7f8a12b6b00b0b2U, 0xe00ec936d41825baU, 0xfac4b723063ed22cU, 0xdecfeb1cdbf7c70U,
  0xe377d998f60c2025U, 0xf0e001ff398acb32U, 0x1f282dd522e6bbb6U, 0x2e3ecb96fe09709aU,
  0xc1e4383f57f82fe6U, 0xe9e9d804f981f522U, 0x114c0bce26f927fbU, 0xf7f8d7f0fbf7c5f8U,
  0xdfc61073fdd299d6U, 0xfeed2603dd2e01ecU, 0xe5d6f023cebcdfc5U, 0xcd31ffe5fc07dd1cU,
  0xf81330d3d90cda62U, 0x22dabc020eeeccbdU, 0x581438b6291d04f4U, 0x7fcdd1dd09c6010dU,
  0x9002ebe8c09c0ac5U, 0xa21de402fe1e5d6U, 0xbc99e6ef10a4b734U, 0xe439f0037f682964U,
  0xb003a8b61711bce6U, 0xe01dc21eccb107faU, 0xd4baf5d3ef20e0fbU, 0xa7bc94fc1c97572cU,
  0x3b4501ebff2bc7f5U, 0xdf0b0240ffd7e545U, 0xe3da09a5067b954aU, 0xdc24fec040f29ffdU,
  0x201d00dfb61a01c9U, 0x11d0d4ef33365bbfU, 0x24be330fU, 0x0U,
  0x0U, 0x0U, 0x0U, 0x0U,
  0x0U, 0x0U, 0x0U, 0x0U,
  0x0U, 0x0U, 0xfffc0000000000U, 0xff01ff01fe0102U,
  0xfe00fffbfd02fe04U, 0x101fefffffe0006U, 0x201ff000401f901U, 0x101fe00fe0003U,
  0xfb0402fd01fefe01U, 0x1fdfe01010102U, 0xff0100ff02fe0000U, 0x202fffffd0001ffU,
  0xfbfefe010100fcfcU, 0xff00050002fe0103U, 0x3fb0405fffe0801U, 0xff000703000005fdU,
  0x2fffe0006050000U, 0xff00fefe01010301U, 0x30101ff0403fe01U, 0xfd030301fb0201feU,
  0x1fd0001ff020302U, 0x102fffcfd040002U, 0x101ff01ff02ff00U, 0xfc03fdfd0000fe02U,
  0xff010100fd0404ffU, 0xfd01000300ff0203U, 0x4030101ffff01fbU, 0xfe0102fd01020006U,
  0x2fe01fffdff01ffU, 0x10301fffe0200fdU, 0xfdfffefa01ff0301U, 0x20201010101feU,
  0xfd03ff0101ffff03U, 0xfe05fefc0701fdfeU, 0x6fe010304fcff03U, 0xfe0104ffff02fffdU,
  0xfdfe0202ff02fc01U, 0xfeff020202020001U, 0x100fefe03030002U, 0x3fffe0200fffd00U,
  0xfc03fe02ffff01U, 0x2010402fb0002U, 0x3fefe03fdfd03U, 0xfefffe000202fe01U,
  0xff0000fe0302fa00U, 0xfe01fe0000010100U, 0xfffffcff03020002U, 0x1000101fc020002U,
  0x101ff010400ff01U, 0x10106020001fffeU, 0xfefefeff00fffefaU, 0xfffe02fdfd01fdU,
  0xfe01fe0206ff0101U, 0x1fc02ff00fe05U, 0xff00fb03ff030001U, 0x2f701fd00fe0000U,
  0xfdff0202ffff0104U, 0x205ffff04fe0303U, 0x3fcfe01fe0201fdU, 0xff0003fafffdfd02U,
  0xfffeff0202040001U, 0x102030102fffdffU, 0x301fc0401fd00ffU, 0xfdfe03ffff030202U,
  0xfe0401020004feffU, 0x30002000300fe01U, 0x102fe00010004ffU, 0xfdfdfe01fcfffdfeU,
  0x50002ff020004fdU, 0x102fdfefe0003U, 0xff00fffe010203feU, 0x1ff04fcfffe0103U,
  0x40300fe00020202U, 0x205ff00010406fdU, 0x4fe0100020401U, 0x5ff00ff01ffff00U,
  0xfe0003f801010105U, 0xfd03020102ff0100U, 0x3fe020100fd0200U, 0xfffe02fafdfb0403U,
  0x1ffff0002ff00ffU, 0x1030300ff020206U, 0x1feff0203fe02ffU, 0xfeffff010000fd02U,
  0x1fffe0002fe01U, 0xfffe000302fe02ffU, 0x2fdfd04ff0000ffU, 0x202feff0303ff06U,
  0x20101010201ffU, 0x400ff01020000feU, 0x302fdfe02fffd02U, 0x1fd020002ff0103U,
  0xfeff010203fd05ffU, 0x1fffffe020006fbU, 0xfd010200040100U, 0xff03fe01fbfefe05U,
  0x202fd01000103fcU, 0x3030101fdfeffffU, 0xfbfd010102010302U, 0xff0102020001fbffU,
  0x202ff0200ffff00U, 0xfe01fb040000fcffU, 0x1ff0002020100ffU, 0xfeff0000ff0302U,
  0x3fffffe0500fdU, 0xff01fcfb00030201U, 0xfffeff0203ff0203U, 0xfdff00ff0403ffffU,
  0x205fffbfdfd04ffU, 0xfffcff00fb01fe02U, 0xff000501fffe00fcU, 0xfe03fd01030500ffU,
  0xfffe02030400ff00U, 0xfffdfdfe03fcfdU, 0x2020103fbfe00U, 0x3000402fc00ff01U,
  0xff0001fd000205fdU, 0xfd0202fffffefd00U, 0xff02030201fefcfdU, 0xff0203ff05ffffU,
  0xff00fd0701ffff03U, 0x1000201fefe0002U, 0xfe00fe0000fc01feU, 0x102fd0104010102U,
  0x1fe0002fffc0603U, 0xfffefffefc00ffffU, 0x102010003fc0405U, 0x2feff02fa010402U,
  0xfd0201fdffffff05U, 0x5fffe01fefffe01U, 0xff00fd0202fc01feU, 0xfe01020101000001U,
  0x1050100fe0002U, 0xfe05fd010202fe01U, 0x20102040302fbfdU, 0x4ff01fcfffffd05U,
  0x100ff01fd0404U, 0x302fdfbfffdfcffU, 0xfc02fd0001ff03U, 0xff01030103fdfa03U,
  0xff0203ff02fffffeU, 0x2fefd03ff000006U, 0xff0102fd050002feU, 0x301020302fe00fdU,
  0xfdff01ff01fe0602U, 0xff010004ff00fefbU, 0xfd02fcfffefffe01U, 0x200000104fffeU,
  0x103010400000000U, 0xff04fc01ffff01fcU, 0xfefc0403fffbfe02U, 0x3fefe0101fffd02U,
  0x1fe0104fbff02fdU, 0x2ff00fcff0001U, 0xfefffefffffe00ffU, 0xfe01feff01fd01fdU,
  0xfefefbff01fc0003U, 0xfeff0200fd02fc00U, 0x2040202fcff01ffU, 0x1fffe0302ff0102U,
  0x2010101ff020204U, 0xfefefe000002fe03U, 0x2fffc01070103U, 0x20206fe04020202U,
  0xfffd0100fd03fefeU, 0x1fcffffffff01U, 0x400fdfe01fc06fbU, 0x4ff01fe02fbfc01U,
  0x3fefffe0301fc01U, 0x301ff0000fd00feU, 0xfc03fc03050002fdU, 0x4fc0101ff010204U,
  0x20003ff03fa0104U, 0xff0101fffcfb02feU, 0x1ff010200fdfe02U, 0xfc0101ff000000ffU,
  0x4020302fe00ff00U, 0xfefe030002fe00ffU, 0x102050200010102U, 0x10103fdfffe00fdU,
  0xfd010500ff02fb01U, 0xfc02fe04fd000002U, 0x102fdffffff0201U, 0x2000001ff01fd02U,
  0xfffafffe000202fdU, 0x6fe04fc0000ff03U, 0xffffff00fc000204U, 0x404020102fe04U,
  0xfe0004ff00fffcffU, 0xff0204fb03ff0000U, 0xff020501fe030101U, 0x3fd01ff01fffeU,
  0xfe0300010001ff01U, 0x60202ffff00fefcU, 0x20200fe01010300U, 0x3000301fefdfd00U,
  0x4ff0000f9fefdfeU, 0xfe00030203fc01fdU, 0x6fefdfc01fffd01U, 0x3020401fe0100U,
  0x1010101ff030200U, 0x10100ff010103feU, 0x101fb03000100feU, 0x1050103fefe03U,
  0xfdfe030100030101U, 0x103fe030201ffU, 0x101fffe00000000U, 0xfefffeffff03fe06U,
  0xffff0201ff02ff00U, 0xff00fe0103fffd00U, 0xfffffd04ff010201U, 0x3fe01fefdff0304U,
  0xfc02fe00fe04fd05U, 0xff020001050102ffU, 0x101fffd03fe0205U, 0x10501fe02000100U,
  0x2030203040103ffU, 0xfffc0001ff01f7ffU, 0x1ff00020102fefeU, 0x200fffd0201ff01U,
  0x20101fdfffb0100U, 0xfdff0200030100ffU, 0xfe02fd010501fcfdU, 0xfefd020001ff01ffU,
  0xfe0401fefbfe0101U, 0xff0001fdff010700U, 0xff01fcfeff040100U, 0x302fefafc030400U,
  0xfa0004fafefefc04U, 0x2ff02060103ff03U, 0x3feffff010202U, 0xfdfcfe01fd02fc04U,
  0xfffc00ff0301ffU, 0x104fcffff01ff03U, 0x101000001fe01U, 0xfd06feff020201ffU,
  0xfe0101fffd030100U, 0x1ff0301fffcfefdU, 0x1000000fffd03fdU, 0x401010001fd00U,
  0xfd02f9ff02fdfe01U, 0x20103fcff00ff06U, 0xff05fdff020301ffU, 0xfe06feff01feffU,
  0xfcfa01ff0006feffU, 0x500ff000000fefdU, 0x501fe04fffe0001U, 0x203000400fd05ffU,
  0xfdff02fd01fefc01U, 0xfe020001feff03U, 0x2fffefcfc0afe01U, 0x1fe00fdfeff0005U,
  0x1fcfdff00ff0300U, 0x30300fffffeU, 0x2fd00ff02fffa01U, 0x2fe0004fd0000feU,
  0x2fffffd0103fdU, 0xfffe02fe01fcfd01U, 0x2fdff010200fcU, 0x102ff020401fa00U,
  0xfdfe01ff02fffaf8U, 0x101fe0201000001U, 0xfefc0501fd02fefcU, 0x30101feff030200U,
  0xfcff000104000106U, 0x104ff03fffe0303U, 0x1fd000403fe0201U, 0xfefe000100fe00feU,
  0x3fdfffffd0100ffU, 0xfcfd0300fffdfeU, 0x301ff00fffffffdU, 0xfe0205fafb0104ffU,
  0xffff020002010200U, 0xfbfa020300ff03fdU, 0x1fefd01ff000003U, 0xfffe00fe0001feffU,
  0x200fc02fbff0203U, 0xfc00fcff00030004U, 0xff01020202000100U, 0xffff0200010100U,
  0xff0100030002fdffU, 0x10200feff03fbU, 0x1fefdfd04fe04U, 0x30302feff00feU,
  0x4fffd03000201feU, 0xffff000200fe0201U, 0x100ff0004fbfeU, 0xff01ff0104010102U,
  0xfe0101010102ffU, 0xfcf9ff01fffeffffU, 0x40000000fdff0101U, 0x4000000040000000U,
  0x4000000040000000U, 0x4000000040000000U, 0x4000000040000000U, 0x4000000040000000U,
  0x4000000040000000U, 0x4000000040000000U, 0x4000000040000000U, 0x4000000040000000U,
  0x4000000040000000U, 0x4000000040000000U, 0x4000000040000000U, 0x4000000040000000U,
  0x4000000040000000U, 0x4000000040000000U, 0x4000000040000000U, 0x4000000040000000U,
  0x4000000040000000U, 0x4000000040000000U, 0x4000000040000000U, 0x4000000040000000U,
  0x4000000040000000U, 0x4000000040000000U, 0x4000000040000000U, 0x4000000040000000U,
  0x4000000040000000U, 0x4000000040000000U, 0x4000000040000000U, 0x4000000040000000U,
  0x4000000040000000U, 0x4000000040000000U, 0x4000000040000000U, 0x4000000040000000U,
  0x4000000040000000U, 0x4000000040000000U, 0x4000000040000000U, 0x4000000040000000U,
  0x4000000040000000U, 0x4000000040000000U, 0x4000000040000000U, 0x4000000040000000U,
  0x4000000040000000U, 0x4000000040000000U, 0x4000000040000000U, 0x4000000040000000U,
  0x4000000040000000U, 0x4000000040000000U, 0x7fd0fe3540000000U, 0x45bf90e05bb3904U,
  0x36f2f102bd5113deU, 0xbd51cdf752bfea53U, 0x923d432f0eaf230U, 0x4097fe89620e09f0U,
  0x45fbc313a11af3f7U, 0x33f944d80aa4d3f0U, 0xb444cfebe0e90ad8U, 0xfeb118f137373b0fU,
  0x1b6fee630f5d0f8U, 0x272ec42c5d0ae9bfU, 0x28dac5dedd8b075eU, 0x260e3cf6dbb9e80bU,
  0xc1def015e400f302U, 0x181fd2017f5bd135U, 0x1120205ff145c40U, 0xaedfe904ded6e440U,
  0xfd33212911c0d1f4U, 0x5d50ef92af532fbU, 0xd31f13021e0c9020U, 0x242ecd2090e0cf3U,
  0xb98e80f0312b5e5U, 0x1928ee17ff22df42U, 0xdfbb0722e726f55dU, 0x33d8f552f4ea0828U,
  0x4106f51fe91bd4e6U, 0xe3040423e8b60807U, 0x170dec4bcaec06d0U, 0xb632fcddd7fb0ce1U,
  0x3401ece512051deaU, 0xbe0714f438d87f22U, 0xad11f3ded01d1325U, 0xad1008268c43daeaU,
  0x12c713ae54ff39d2U, 0xac24ea3c36a7d5feU, 0xfae10df2d73002a3U, 0x10eff73004fa0523U,
  0x61613e6f4f3e926U, 0x30e0015f109e0d1U, 0x16ede12917f82a35U, 0xc1e12919b0e436ddU,
  0xf91bfbf1fc2cf17fU, 0xf502d9cb053bdd20U, 0x1f18f519020405dfU, 0xd63104e63c17fefdU,
  0x40232ae2c90ee2faU, 0x42cdd9111923c019U, 0xd80be3f6a4f225efU, 0x49c81b193218bb2bU,
  0x432d1dd6028b1365U, 0x241f3e9621c1c0e0U, 0xeb07210eee2af70aU, 0xff8d9e681c0e9dfU,
  0xacfc283eee041c39U, 0x22eef1bc082cedf3U, 0xc0f0d23739c2be00U, 0xdddcf904519c2d0eU,
  0x14ce00da13c51dedU, 0xbcc4c6ad28171de6U, 0xec1a31ac401cdd19U, 0x3a7b13faecfde73aU,
  0xd17e3dc3301faf6U, 0x3cc9f9d4f57fcdb1U, 0x15e3c70518d4a931U, 0xbe105417207935fbU,
  0x162c8c7a6cd4db34U, 0xac204faaeb0fd8e2U, 0xec6109674f17f02fU, 0x1ff0e7e8c4462fddU,
  0xb1ef55f832c26dbU, 0xedd8250ce31c4a33U, 0xd505e6f528d9f107U, 0x1502fdec56c1e82eU,
  0x682af7ab12cc1cU, 0xd36ddc13e6dcf7ffU, 0xee36f8f5c7410792U, 0xe0e024e62e2bd209U,
  0x212f04e00cf63dd9U, 0xdaf878c4da1c0ee0U, 0x2a0a08571bf0dc07U, 0x2b0ebcf7fd08ad09U,
