/**
  ******************************************************************************
  * @file    network_data_params.c
  * @author  AST Embedded Analytics Research Platform
  * @date    Sat Nov 12 01:39:40 2022
  * @brief   AI Tool Automatic Code Generator for Embedded NN computing
  ******************************************************************************
  * Copyright (c) 2022 STMicroelectronics.
  * All rights reserved.
  *
  * This software is licensed under terms that can be found in the LICENSE file
  * in the root directory of this software component.
  * If no LICENSE file comes with this software, it is provided AS-IS.
  ******************************************************************************
  */

#include "network_data_params.h"


/**  Activations Section  ****************************************************/
ai_handle g_network_activations_table[1 + 2] = {
  AI_HANDLE_PTR(AI_MAGIC_MARKER),
  AI_HANDLE_PTR(NULL),
  AI_HANDLE_PTR(AI_MAGIC_MARKER),
};




/**  Weights Section  ********************************************************/
AI_ALIGNED(32)
const ai_u64 s_network_weights_array_u64[103531] = {
  0xf6f6d4290000007fU, 0xc0f807e8de53da04U, 0xc92f74fc0432d50dU, 0xf715fdeb13098103U,
  0xe8119ed71097c972U, 0x992037f2d57f0562U, 0xb40b289405c1d913U, 0xacfdf34cffd8bac0U,
  0x302fb53216dd17f6U, 0xf4a537b2be0df57fU, 0x23da19effebfe6d0U, 0xa6f0d5fbfc3df6d8U,
  0x1dd31cf381ee0b3eU, 0xd848eec69ef3d7e3U, 0x63f82e1afa37153aU, 0x342db7b4b4d4d582U,
  0xdc2ccf2d3df281dfU, 0x9c2b3404062ddb73U, 0xc1312451e7b50169U, 0x2e644faff990a6bU,
  0x4233c98107ca1228U, 0xb626c63118fc26afU, 0xc323a881670cd1beU, 0x2d9cee9a3f39df8U,
  0x43a3b565618b606U, 0xafec15ee81b7350aU, 0xd2eaa0a8830baf9U, 0x41c826d7e0e7a373U,
  0xdf3e020d63b4f9b1U, 0x28569845bc385047U, 0xe61f113ed08487fU, 0x5ebc92d47ffb79dU,
  0xaed2d307ebb528cfU, 0xe446ef2ea313e181U, 0xcfc9fbf0812a13dcU, 0xee2b35ed41e24e43U,
  0xad609cc15c7f7e2U, 0xa1d7e3d2eadbe80cU, 0x5b1e3feb123ad822U, 0x2728da1a78661654U,
  0xce197f9446f23a3bU, 0x1f5ad432fe0d3ce0U, 0xa91529212b4af524U, 0xe6447ff7ed0ff4e9U,
  0xa8e6aaaf532566d6U, 0x16630727b2629b81U, 0x97d3dd51f15f99dcU, 0x2fdcd9253274f7e6U,
  0x20d7070a7ffc00f3U, 0x42f621431a1ae072U, 0xe5221a08d17ecff8U, 0xf015cdcbf910a6daU,
  0x5bd50af55d7f9924U, 0xd3325c200c7c3cd8U, 0xe743e5e7U, 0x0U,
  0x0U, 0x0U, 0x0U, 0x0U,
  0x0U, 0x0U, 0xff7f36f600000000U, 0x192d1fc90af725c2U,
  0x15e2151c2096ebe7U, 0x1b811b813a4dc8e7U, 0xe5f1e153091ef281U, 0x81e9d8ff3b5c06abU,
  0x81ecad1dbeedc928U, 0xb503fafbc016035bU, 0xfc9dccb17f48b7fdU, 0xc2e4e117fb52238U,
  0xcd4b7f7f137f952bU, 0x1cb9af16e127243fU, 0xe87ad0fec7f811cU, 0x2df0c49b307ffcd1U,
  0x12f41d1dda1fc019U, 0xcddf81c411567f7fU, 0xba1a46b108ea1a29U, 0x8cfb06eee724ea28U,
  0x1bc0d8fbU, 0x0U, 0x0U, 0x0U,
  0x0U, 0x0U, 0x0U, 0x0U,
  0x9c2cb0e200000000U, 0xa7f005f3ddc20d62U, 0x89898bcbf5c1f87fU, 0x7c9cf3738e7c767U,
  0xc44ff51d23dfc47fU, 0x11a581604c8ae9f8U, 0xf6fd0b3154cc0bcbU, 0x92f462181a6a4ef9U,
  0x3193ed2e62dc7f52U, 0x2381bf222266ab3bU, 0xc4b78147790cfe12U, 0x261c9ff1a6893574U,
  0x19e5d9d608252807U, 0x2ee5dd380747a6d6U, 0x2ebc66148122faf8U, 0x142d0413a911ebd1U,
  0x5c64e46358139a8U, 0xf5cb373fd1fdde41U, 0x63a500ee13ba7fc3U, 0x49737f6f21e30b43U,
  0x681d92420399e616U, 0x1aceec0e44cf05beU, 0xd6017f160a81573fU, 0xf6f4ae330d0ace29U,
  0xc62d2b2bface0cbeU, 0xe3ff812ce2e6e935U, 0x69ad068126def3b9U, 0xab8f54f15907d7c1U,
  0xcfffe623b63977c8U, 0xaffda232c36222cU, 0xe1e4273220df810dU, 0x57283affe0c135a6U,
  0x7f12c029U, 0x0U, 0x0U, 0x0U,
  0x0U, 0x0U, 0x0U, 0x0U,
  0x7fd929aa00000000U, 0x2cc3e3ecafec8a7U, 0x1ea0b7124efa953U, 0xceabac93feeab923U,
  0x70902e7f437f7f81U, 0x7fbad74f14e1d3d3U, 0x227fbef07fce4b24U, 0x9a6c2e6d960f9a23U,
  0xd2da7f7736d1ca64U, 0x5b1a7b83b9c92ebU, 0x34302da5b81327faU, 0xd1d6fd7f89cc02b4U,
  0xd5480ad8a7048c2aU, 0xff7ff29181f33fa8U, 0x42153e5dc2f9d2ffU, 0xea1c0a62957f8157U,
  0x28bef3c6f7fb00eeU, 0xe62481c349b9f67fU, 0x2d74c3adU, 0x0U,
  0x0U, 0x0U, 0x0U, 0x0U,
  0x0U, 0x0U, 0xaa11d6cc00000000U, 0x5ed7ff3e7f4fde2U,
  0xf11063c23ffdb06U, 0x8e811e415ddbd01dU, 0x99ddc64f1a312cd6U, 0x55d9d129f2f50007U,
  0x321f15f57fbe5d6fU, 0x7f620f03c56afccfU, 0x8111275ce4ed18efU, 0xf0e62bfe5ebcb31fU,
  0xf9b867ddd70cfca0U, 0xf6f01060a8488895U, 0xf157fe9ef398151U, 0xe5f8203ef4de3108U,
  0x81e62e3cc025e534U, 0x150ac10126204e1U, 0x90f7b05210da1ee9U, 0xfd37407fd708c606U,
  0x33affcc230bcd31eU, 0x7f4216d2e1dbf71aU, 0xdeb44d2efdf5974dU, 0x5cbf37cc114b9fd7U,
  0x42067fe27ff8eee6U, 0x46c1000bdbe039feU, 0x47cb0884007d32d3U, 0xd281b7ad7812033dU,
  0x2a060c17e0af0236U, 0xd11b021204cd4136U, 0xfe032a6ee4811b1eU, 0x277f14ef3d1429bbU,
  0xeb07d95723ef3cdeU, 0x51b7fdbf835c01eU, 0xf2cbaf411e9f0cf1U, 0x5ddd7f33d0b91b47U,
  0x69358117c733d0d0U, 0xd32aee05c3e7dbfcU, 0xca7f0d2152f568c6U, 0xc619d6d5e71848e2U,
  0x50ca2f2611f7c83eU, 0xde2e17d448fbf6dfU, 0x50aada4ff7de81f2U, 0xa17f28a52497f1a5U,
  0xa82a11caeb890835U, 0x81efb916c7246b8eU, 0xd422214135224988U, 0xf4180e31fd2106e6U,
  0x2260c1dc467f2122U, 0x8b41c007f395c3fU, 0x1aef1fffcdc2a2f4U, 0x9d400e2c2a492feaU,
  0xd15d8126292881f0U, 0xcb30c13ca2bd0621U, 0x384d113af70908f1U, 0xa3f33c9eb2aca40bU,
  0x8f881b2d8128d35cU, 0x17b2073b92230244U, 0xb12d0bc2de07a581U, 0xdfebf9f56521cb0bU,
  0xe0c87144810fa4dbU, 0x9ec8c90267e0ed32U, 0x9ab216c0e813212U, 0xbedbcfb7bffab433U,
  0xc10781647f1d9dU, 0xeef2ac650f12b926U, 0xb444f72eU, 0x0U,
  0x0U, 0x0U, 0x0U, 0x0U,
  0x0U, 0x0U, 0x0U, 0x0U,
  0x0U, 0x0U, 0x0U, 0x0U,
  0x0U, 0x0U, 0xc30739df00000000U, 0xb6733e31ed42490eU,
  0x4846468ec93e2e1eU, 0x472865ee7fac91aeU, 0x7fcf9cb27f653b6fU, 0x5f8e62278154df4aU,
  0x7fcda89d50fe707fU, 0x7ffb297c6c817f2cU, 0xddca8156eb313581U, 0x7f816e81511aab01U,
  0xb059fbe06bf87fdbU, 0xd3f61e2e3a01fdb7U, 0xefe31f0b2c2c3971U, 0xf171a052d7818116U,
  0xfef513ec0f23fadbU, 0x947fb038fa556fcaU, 0x475fb0f3dd81db9aU, 0x362ae637fcebb361U,
  0x49e2f68112b22a9cU, 0xfdbf04c51c2c93e8U, 0x4813d16825ce81b3U, 0x5f81ca24d62dcc81U,
  0x23d302466e7fa74dU, 0xf0d24eee9e7227ccU, 0xe80c88bdf1f2acdfU, 0xe970313bf9040f13U,
  0xa87f81192ef6643dU, 0x6507bbde5df0f10U, 0x4909ee81fd4a2cbdU, 0x5daea016502e68dU,
  0x1e024cc7fd32103U, 0x1bc5f5cf552c1df8U, 0x57817413371f7387U, 0xeefc7f300b2e36bdU,
  0x2645927be5b4fcdeU, 0xf4f97f81f040cb81U, 0xf913d1aeU, 0x0U,
  0x0U, 0x0U, 0x0U, 0x0U,
  0x0U, 0x0U, 0x0U, 0x0U,
  0x0U, 0x0U, 0x0U, 0x0U,
  0x0U, 0x0U, 0x3d07812b00000000U, 0x5a3514daf6dba810U,
  0xdc5d49a2feee121dU, 0xea1ffce9d94b0908U, 0xff3bf0bd1b0a65edU, 0x30d795330359228U,
  0xc602094136db354bU, 0x491d6d3aa194b8U, 0xeeb126394b1a7f10U, 0xf7f31c3e0216e611U,
  0xc67f262409034c00U, 0xf20818390421e7a7U, 0x2f05eea6c434e304U, 0x2e112f0b0b07e481U,
  0x3ac55bb0dfb21665U, 0xfef404141baedbecU, 0x5ddfb2c807f1f498U, 0xea2d3bdfc0faca25U,
  0xd6bfd9135af738f2U, 0x114ee3cb122ee97fU, 0xcd0be5eecc468965U, 0xfae4f5ddbd0b0d42U,
  0xc3e6030afdc1f903U, 0xdc0914edf0d3f55bU, 0x9df14207fce01b1U, 0x170511fc211f31d8U,
  0x1b8120d6e8c9f60bU, 0x15e7fd131c1df2feU, 0xd9fd870409dffd38U, 0xec340ffc40e4e546U,
  0xdd3c2606e5682f06U, 0xe97fdf5b780ba7bfU, 0xe833cebfd196c9e7U, 0xfadef33b81d3c9c4U,
  0xe12e03ca0552faecU, 0x73f307b4e1f30f4bU, 0x12022fe04701ead1U, 0xf62f960d0107f835U,
  0x1bbaf6daaed2053bU, 0x7fc7a3333602370eU, 0x45b2d3b0be7c212U, 0xfff733f77f90aba2U,
  0xabf90e4702f63264U, 0x44c4c5cbe1bfd12eU, 0x13a23c57e6f7c4bfU, 0xd88828cf02361613U,
  0xd6f60eef32e6b9f6U, 0x20680938f9d0c4f0U, 0x151e4e2c814ca91dU, 0x67d407e0fbe4c4b6U,
  0xc9c76baa0bc52febU, 0xae32591f3ebbc7U, 0x2fe4db5e467f14dbU, 0x8f1efdec8203b09U,
  0xe681f3431ad30c2eU, 0xe6f7181dee941bd5U, 0xcef1ef3ccfc80606U, 0x27173909110e1e26U,
  0xbe0f33f603fdcddfU, 0xae08dae50e440be1U, 0xec32bf3e9dd81c9U, 0x16fc01358119c576U,
  0xaa2bc7f704f4c5f4U, 0xce2c60b2e3eef1f6U, 0x5df1a7b0f1c0fb24U, 0x482b8e1ffa86dbbcU,
  0xe9032afeb8e2745aU, 0xa58481edfa2b5d01U, 0x22efee50dec20a0bU, 0x29031dfdeada38dcU,
  0xc8270bf4c1f130dfU, 0x162804fad7cf1ce2U, 0x19c82a7fc57fa508U, 0x4172f05eeb68d6cU,
  0x1ea312cec8cd9bddU, 0x72e524c43d0e1072U, 0xe323cd4409482084U, 0x2a8113a2daf5a95dU,
  0x102e12dff3fbfef7U, 0x2dafcc4e5311ff9U, 0xf8f73391230c20b3U, 0xdc15d9083edf2feU,
  0xfd30f61416e37fd5U, 0x21482bcde90dce26U, 0x20f276fbfe160d30U, 0xf9b525e40ddf3f24U,
  0x7ffc0ef7413ef72eU, 0x3496543ce7c5f61eU, 0x1856e1b33801f903U, 0x18ac06f5c9012febU,
  0xfbd6ad06227fe3eeU, 0x68c61cfbf4070c0cU, 0xda4a2d81cdcde7d4U, 0x54cadf03c512f62aU,
  0xef8f42629d10a0aU, 0xf9f2fb1a1a1de4ccU, 0x223fa2b263035caU, 0x1a14f30af92d5e81U,
  0xf5dd4d3c0f37116dU, 0x391a0d69c31afdbcU, 0xfb21b2d768c5fefeU, 0x8130e1a1f1d7d608U,
  0xd4e2b2e9ee6b1820U, 0xaa18a6bf4da5d0b9U, 0x18dcccff9bb7b6f5U, 0x50ea10811f04ef27U,
  0x69e29b34fb13eb8fU, 0x211bfb2d0434cbeaU, 0x2843287fe0ed2522U, 0x6df60a209b1419f9U,
  0xeaf334f304134917U, 0xd574d1ce7d08822U, 0x4528d70de3e96e2bU, 0xb1ec2dde71f0af4U,
  0xd9c4ad061129eb25U, 0xef31ec14dd052ec6U, 0x3d01811c81fd77f8U, 0xb242eba2d494cb34U,
  0x418e2ebedaae317U, 0xf7dac840ce140e5bU, 0x38183808f3ede300U, 0xf61202812314d8ffU,
  0x291024d214c6781fU, 0xff091a15f0251f0eU, 0xcefc42aff18dbd8U, 0xfcceb30a24e516d4U,
  0x813c37fcd5023e1bU, 0xd7e0f745d8d22edeU, 0xad99a2eU, 0x0U,
  0x0U, 0x0U, 0x0U, 0x0U,
  0x0U, 0x0U, 0x0U, 0x0U,
  0x0U, 0x0U, 0x0U, 0x0U,
  0x0U, 0x0U, 0x31f95b0f00000000U, 0xcadf233618442f21U,
  0xaeded618c80cedb8U, 0xbb23817fdd22496eU, 0xa023a2ead42cdc7fU, 0x5b1bf87f7f101df3U,
  0xf5fbeed4545577beU, 0x3c00aa15ef4b59edU, 0x671430c0817181dfU, 0x817f1642e9f0d37fU,
  0xd93dea707fc6d4e7U, 0x6a81fe1fe97f033aU, 0x81ed2a46285207efU, 0x232870e507811eb2U,
  0xe48162e9b875815cU, 0xcd10d7bef40b813aU, 0xb1271a8127a527bbU, 0xc8ee7fafa52281c2U,
  0x20aae22d4cf8a316U, 0xa6a50b261a2baa81U, 0x2d400bb209fde6cfU, 0xb903c4f2ff604b1eU,
  0x3fb35cd36b0f705U, 0xa21b19a6d5b1c83cU, 0xf57f11dc1190e7e3U, 0xf605befd075247eeU,
  0xf619e781c5810f00U, 0x78f1fb0f01eb5bb9U, 0x32c11d2b021debf1U, 0xa4abcf440c0d0020U,
  0xe1077597e423f37fU, 0x7fa3eccd3716b1e3U, 0x713081eef53707f7U, 0xbb88a2fe2fe0a0caU,
  0x81fc7ff3fac61374U, 0x6f224db38169c4e5U, 0x1381281dU, 0x0U,
  0x0U, 0x0U, 0x0U, 0x0U,
  0x0U, 0x0U, 0x0U, 0x0U,
  0x0U, 0x0U, 0x0U, 0x0U,
  0x0U, 0x0U, 0x15e0da4300000000U, 0x1df981d6d10e2c24U,
  0xef2f4df1c2a21eeU, 0x2fed20274305f6ebU, 0x50a422e8fffde5f4U, 0xda0664c0e622f6f9U,
  0x1c0481fe3123e94aU, 0x210716e31d1ef42dU, 0x431d17111a3e4904U, 0xa42a5bf1120f06e6U,
  0xaddc2f0c423079edU, 0xd9f72807e0dd0cf8U, 0x12fab2ef81f8f82dU, 0x12267fc9fc09b1cfU,
  0x17f5cf26defa2436U, 0xbc0d54508dc9746U, 0xd1f534f7350341c8U, 0x1a178e9c81e921d7U,
  0x374fcc01dcf53133U, 0xc40408110122dbe4U, 0xf506fe70053b23d7U, 0xd1010e2ad0b9ff20U,
  0xf5a97ffad8fee4d7U, 0xf6d1d611e410f5ccU, 0xde5332009d4d2edaU, 0xcf284a07107fce28U,
  0xfaec51b60e0f3324U, 0x10bae5c9ac401799U, 0x1c11da6611f20f08U, 0xbcfdecbd1041a16U,
  0xebdbeb811706d3efU, 0xe8fde5fd2b0ee0e9U, 0xf5bb09d6U, 0x0U,
  0x0U, 0x0U, 0x8381f7da00000000U, 0x5c46e10fe2ef853bU,
  0x82a8287f0bf23481U, 0xbe071e1520e4a904U, 0x1a234e17573f81d4U, 0x7f3d24d6b66781e9U,
  0xe0a50121be09f911U, 0xff7ff5dd6823307fU, 0x6972de46f804fde1U, 0x812e4a78daee7f79U,
  0x9b2dd20e07d61a8aU, 0x7f96e4fb8115c866U, 0x1976814d9c83d747U, 0x2b81920ea2dab54bU,
  0xa6417fff0b3ae0efU, 0x1a3ecde01209f4c7U, 0x4d9caa707f87244eU, 0x604070b7a481dd4dU,
  0x2b814f352728a17fU, 0xff811d971b16a70bU, 0x7100997ffad74f2aU, 0x1a7f336d22dfadd3U,
  0x452d9781559ef065U, 0x7f4a0b1820b6338cU, 0xf27f7be5316212c8U, 0xc9b8dcf95dfff187U,
  0xad596fd82df67f19U, 0x1de25ecce272d281U, 0xb96781ed81040301U, 0x99a284e0d588ba6fU,
  0x9cd2f0699081d7f7U, 0xcef3da5181fab77dU, 0x7469080ef30277fU, 0x5e7a050036f816cU,
  0x733962005328210U, 0x6d872b00655db10U, 0x63ca7a00413c518U, 0x8b8004008fa1de0U,
  0x7d547180822dd50U, 0x628d9b80329ffc4U, 0x783907005c8b758U, 0x324e7e405142cb8U,
  0x47b762004daa478U, 0x6a1c1d009ae6c20U, 0x6192ee005e0bb68U, 0x3ed696c05f03a40U,
  0x8ccfb100435e9d0U, 0x962b45005d90c70U, 0x11f2afe8037fc8e0U, 0x7f0afe0322931f38U,
  0x1af311c7d7e7bf34U, 0x17eff3d0c30fea0bU, 0xdd4313921b020e4cU, 0x771be929dda7f014U,
  0x170a9228cd3502c6U, 0xeb12083ef755fe99U, 0xf7fd002ae85cad81U, 0x46d5f4f72eb2f527U,
  0x37ba35da21d4c3c8U, 0x147fba7ef90187d2U, 0xe90d458ff0272f0cU, 0x900b1d52a0c1dd9U,
  0x1537a4c540ed811aU, 0xf20161ddf00cbdbdU, 0xa27fce2fefbf28f4U, 0x2f62f154d6e3b2b3U,
  0x18ffd5cc4ea6eef7U, 0x3325d926d40e6217U, 0x81dc29e2ab36ff25U, 0x16fcd7a564c7e9f5U,
  0x3dd2d5f4ce26c723U, 0x160b143854fa3d4eU, 0x91bc3f04130ac539U, 0x37dcf9bcdd01aa07U,
  0x5cc114b3c50ddbf2U, 0x2131b715180381c2U, 0x1916fec10f040c64U, 0x13bebff11538d406U,
  0xf5cac5c3d2387ff6U, 0x142a17dee91751ddU, 0x35ecfae5f529cd07U, 0xd417e4e5330cdc0aU,
  0xdee3b4020f84201U, 0x160b13d0f51481f3U, 0x528d810201e8c13bU, 0x2f49d5e3e573f0e5U,
  0xc1f94655cebd1fdcU, 0x2f0a522e839c1be1U, 0x104a12f871edb5d5U, 0xffb3e4504606f009U,
  0xee467ffa1bf23008U, 0x5cf90e02d912eaf7U, 0xf3102944b9d7eaU, 0x81dcc00b6d1904f7U,
  0x31d31aa7b8253b96U, 0x4f69cf4f159a00eU, 0xa681e824fe77c1eeU, 0x47dd3e40f2fa0ce2U,
  0x29e91cee28b631f7U, 0x2a11fac233120600U, 0xeb2ff4441d14f6b2U, 0xe9305139300cf23bU,
  0x1d9b191b0bb92981U, 0xb6b7ef252ddfd6c2U, 0xd28ecb51e117c5eU, 0x2822b419489f5bbbU,
  0x491639d7e5da31d9U, 0xe9fae2e34a110ae4U, 0xd1b4145e81084ef8U, 0x351ce01c0f03ff20U,
  0xf2d6ab2705814df0U, 0x17ca41befaeb2b16U, 0x3fc4f32612faaae6U, 0xd7b1b2144b2328e2U,
  0xf6d538a09c304d81U, 0xfc93ec1a0719bb66U, 0x151b10cb1097f5f4U, 0xdd2b3aeaea7af0eeU,
  0xfaeb15f758e5e74fU, 0x25374b3f3cfdf2acU, 0xc3a70627105981e5U, 0xfdd8e8cd12e6cd20U,
  0xe0e20bc62fda7641U, 0xcb02cc5620fa14fdU, 0x3dd12011eb12f81U, 0xdf81590600392cdbU,
  0x2dd1be0e2d1fb3aU, 0xc7fedf11a5a30611U, 0xebfc05d9b2e1ebf7U, 0xd9006c1b290744c9U,
  0x67e862403409d388U, 0xb70fd92cc111eb37U, 0x9cf6d3ecaf81e7fcU, 0x67f1c3a5831e6c6U,
  0x2df7acfe4d07f616U, 0x3329106d7d252143U, 0x1181d7caeee30c0cU, 0xabd6ff091c311b21U,
  0x13fea03ecd0d882dU, 0xe2c33e50f6872aecU, 0xe2424dfbdefc2204U, 0x2f24d82b5e08140bU,
  0x24743e1c11e9071cU, 0x3c16f4110910dfd2U, 0x12fc08207f3810f9U, 0xd82d200cfbdbaefaU,
  0xfbfd4e1925be29f0U, 0xd3b781a3130910feU, 0x631a432be67c5daU, 0xcfd393c644d914b6U,
  0x8307fd6eef4ecc2U, 0xf2c0430bea362e0aU, 0x3b311934ef261a20U, 0xf37ffbe3aba83515U,
  0xfbe024ff33da4ae7U, 0xd0ae94572f52266U, 0xc4f32fcae3e936f2U, 0x3426238167ea0c4fU,
  0x1335fe1cc3d9130bU, 0xe93db2a9a7617de8U, 0x231a2d02ce439803U, 0xe1348231d4bd025U,
  0x2b03fce1ddcfd304U, 0x11e626e902b311fcU, 0xc83202ebf9ee81f7U, 0x13de07c206df114cU,
  0xfec1ddd407ed501eU, 0xcc1c1081e7da71ffU, 0x3def56de56efe9c5U, 0x79f6ba20311fb9b7U,
  0xe61c34074dfb1b7fU, 0xf81000e357fe3339U, 0xe0dbe9d4eeddde18U, 0x310ddd49e6c920bbU,
  0xfddea4cef719e581U, 0xe61803121b25e21fU, 0x214c5ba2a93df2cbU, 0xdee38b02d2fc26fdU,
  0x8b4d19c70b9ede5cU, 0xc8452a7f2805ed22U, 0xbc68bd810314fa06U, 0xddfedf6edaf9cc35U,
  0xc6cb04cbcdff12e5U, 0xffefc015f1d793e9U, 0xf937120b00d0fa96U, 0x2d0d0c81cfd0fb3cU,
  0x24e8fd3737da02baU, 0x5f3c3cc1a726c9edU, 0x20ecd214e8e01f37U, 0xbd23dd07596b26a7U,
  0x5a7916cc725a7fcbU, 0xf9d0dc57bfb0141aU, 0x7e5f19e6231d939U, 0x7fe62bfc4b35e00dU,
  0x1f0d2a920c13101aU, 0xfceb13e2de02e5f8U, 0x9b7f6b04c159cb38U, 0x3dd74aefddd203ccU,
  0xc0f15310ec04240dU, 0xb4062b235d292df3U, 0x5f490ff63a2e5c16U, 0xeb3defbc342111e4U,
  0xe9e5185dfe2fcfdfU, 0xf6dcfefb81f322fcU, 0x1c1227fbfa26f222U, 0xb6fc15b27f68cb01U,
  0xe9fdf1bc5e2c53bU, 0xe3082c05111dfe9bU, 0xb1ca09e701bde6e9U, 0xbdcb76411e38ebcU,
  0xe1a435c365920ec6U, 0xcd1843d20b3e090eU, 0x21dae50d8114c5e9U, 0x6226dc42e0fff930U,
  0xdb0bb7ff1ed425ebU, 0xef1d2b0b8132fa32U, 0x110fb4810fbad6baU, 0xfb40eccfb7c919bfU,
  0x6e0ee7192eb7a3U, 0xdbf9f4d8f3f94d11U, 0x512df10de91b2d69U, 0x9dcdfddb7fb12bc2U,
  0xd25c27099d31ecf8U, 0xc90d12ef1b160cd5U, 0x2eafb8fc129226d7U, 0x2652ef34a56bee30U,
  0x23adec62f11033fcU, 0x5bb91224f2b4f6e9U, 0x6ef3b177fffe25bU, 0xd204d810df04a27fU,
  0x7f0455dee15c7ad4U, 0x43d363fc0be033e1U, 0x213f040df1f361e7U, 0xc9692a990a38181eU,
  0x2f210332f7f1d11U, 0x4733d62fe939a4fcU, 0xe52dcde619d60be9U, 0x435eb052be78502U,
  0xdf929dafcffe503U, 0xfecdf3c25b7081f6U, 0xb44d541845b59f31U, 0xf8fd2ff3ac0775f2U,
  0xf6e5145021f27f5fU, 0xbbcb1048041e15f4U, 0x97138f5fb01f0fe0U, 0x6514e0fe71c26e30U,
  0x7f646011c4c60e0bU, 0x3f4719f2f639119U, 0xf7d1dcf6af566772U, 0xac46bfc30b2ad9f4U,
  0xcd2220d62f0b8100U, 0x55306e201313d09U, 0xdbec411cf21acaebU, 0x357f195517f1cedcU,
  0x614c4143faddba25U, 0xf0adf553e1580bd9U, 0xc0db9014ca42ab38U, 0xbe4c5026cfebf5f1U,
  0xfef3ef15eb48da69U, 0x7a23b08f7428119U, 0x3e1322252110d00dU, 0xf3e9301509d54a37U,
  0x4c48e9b81c142b25U, 0xef81373523b52edbU, 0xd7fb15f53e23eeU, 0x1c81c5d30ffe0d05U,
  0xcec9b5fb050c409eU, 0xf0b682472e0d0be8U, 0xf5db0bad0d039526U, 0xd714231cdc04dd2fU,
  0xd01c15ffe8bd03a4U, 0x62d812a0a151f03U, 0x2afb69d3adf917d7U, 0x201ec2033925c7e2U,
  0xbff3052ae0fd130cU, 0xebc31cc1e830f1dbU, 0x120c27d581ea1b10U, 0xab26e8e4f1013404U,
  0x3bf105e036e9c819U, 0x11d5f643f881b430U, 0x26cfc9b1f7d7ffb2U, 0xd7d2d1fc59ac0e81U,
  0x5ff84a16de2ef049U, 0xed1dda0f012fe724U, 0xd1ce03d219d553afU, 0x7f3256f01fe802f7U,
  0x611624cddf1dd1f8U, 0x51363df24880a2bU, 0xef1ce6a001d9e428U, 0x801d72617e604e1U,
  0xe3acf40e57f0350U, 0x3e54b416da69c9d5U, 0xf0208114c63a471aU, 0x10a101f129bdedfdU,
  0xd1db27e8d53d2d42U, 0xc1c6e301f60df105U, 0xe91354021636a8dbU, 0xdded81dbf420edddU,
  0x11012c09dfe9d313U, 0xed9e0ddacfed55cbU, 0x6c56b8c3d023c133U, 0xe3a8ac3578ee296cU,
  0x1e1bf3bee0425af4U, 0xfb21b48132cb22efU, 0xabb2512f811b0b0U, 0xefdfff550f2309f2U,
  0x8241200012be335U, 0x33b22e20b1e17f1eU, 0xcfee77e7d020fdb5U, 0xff14371f046749c5U,
  0x5217241a3181ef39U, 0xcf4aeec4c9a0defU, 0xc98ebb38cce6d524U, 0x26bc4bf40040a401U,
  0x1cf15a7f42134e2cU, 0x42749beb2050dd97U, 0x6df766cec94b0907U, 0x81d1402b281dcbf4U,
  0xc71d09e85ac40018U, 0xd0fb2bd5e1e1d1e2U, 0x32f413f6efd805c5U, 0x3730ba1931070b15U,
  0xc32ef181ded10f52U, 0xa1442d470406191fU, 0xde7654b0fa8aff9U, 0x8139dfc776bcdc08U,
  0xef002916581777ceU, 0x22e9e328e9da28ffU, 0xa01b013e11b6fbfbU, 0x77694cb306b41eefU,
  0xfd20281a04ea04dfU, 0xe4127fda0d2209d7U, 0xfe0cd23808a4d352U, 0xccd125c10cfc14d6U,
  0x1e7d20ed21083a0dU, 0xfef256ede14363aeU, 0x2ecfae95875f481U, 0xe819084cefe01b3bU,
  0x1d24fb07fcd162fU, 0xb222de12bd22a40aU, 0x4f0c3c2bacfb2c63U, 0x20e32ab5113e025U,
  0x970456dbc7a41249U, 0x2d81c1fadd293fa9U, 0x26c5f50e513845ceU, 0x1ce946f4da0842f3U,
  0x6ed480cfc0c0b33U, 0x5f71301f02aed81U, 0xf1d0d4dc1ce01ff9U, 0xaecba2aefec0619U,
  0xd8ff004d3336ed04U, 0xf0fe31115a160b81U, 0x12a11ead0dcffd1cU, 0xc8db2f970b8d37abU,
  0xaa01f6cf4bdda100U, 0x22e8b53181ef1902U, 0x6dfffd7fad1986e3U, 0x36041a4ae83fc0f2U,
  0x250f33141d2939f6U, 0xf502ca37e7c3def7U, 0x2929e141a9dbcc08U, 0xf6e108f721df3610U,
  0xe3c9311145d204dfU, 0x28db21810d0edbfbU, 0x89e451f41b02fd0cU, 0x481cc53064aaf91U,
  0x35f3a2470c32269fU, 0x55fc82d5fb03a2adU, 0xf90b36d006a9f31cU, 0x3954f417e522d441U,
  0x2ddd7fd5fbbce94cU, 0x13f618c1431a03f6U, 0x71e905f519cf032aU, 0x2d4f9ece3ecde12U,
  0xf8b5470be8eb3617U, 0xde7fd0ded714180fU, 0xdff1814c0a63e3d8U, 0xcb122ae31b6b36deU,
  0x3cc9bf6732af1e6U, 0x1cb52651ee10da31U, 0xa3e336f613e709f1U, 0x47c02bc99b233f0cU,
  0xdbfb5c6109229122U, 0xf1346d9c3c81c9d5U, 0x9c20ffddc2efb9afU, 0xaf7f1314effc1049U,
  0xb3a49f0a1427cd2cU, 0x745f6d6aa30f5f8U, 0xcf0023e7872f5aaaU, 0xd4e4382e05d2f7f7U,
  0x5c0f9ba2bd6df20U, 0x363d12fde87ad11dU, 0xd9f5500881352bd7U, 0x3514ecdc27c41dcdU,
  0x81a99dd113b32b29U, 0xdeadb0a373e0122U, 0xf0fdb10bddbfb29dU, 0x62cdff8cc1f8413U,
  0x4be949b181efda0dU, 0x130f8fdc8e7bcaeU, 0x1e2fcfb9b9f5241dU, 0x180e7f234c96f6ffU,
  0xbd04e2d3c382b1c7U, 0x3adb419ad3d7af08U, 0xd6290c0636fb7dd0U, 0x2c5d2f15fb7f2bd2U,
  0xf8e1b80723fcae0dU, 0x14ad57f3bdf1084eU, 0xcdfc43cf4e0fd439U, 0x33c0d14cf200fe0cU,
  0xe239ed5830d4241aU, 0x930a81c8b24b0332U, 0x69b171acc5a5804U, 0xd6a207fbeee9f211U,
  0x6bd9dbb5cb82b2e1U, 0x9ae47f35094bd7ceU, 0x841481fadede3e34U, 0xfb0fa6f90f344edcU,
  0x7b0058361994ece3U, 0xbf082afef8dcbbf0U, 0x1532122ecee395e7U, 0x18e3491bdd0516f0U,
  0xeafcef0edb16e5e3U, 0x407cae6021e4d11U, 0x2038654eef15f57fU, 0x1a05373b00277fd3U,
  0xb5fd0407d2af4b25U, 0x3ebaeb2be1af8ddU, 0xfc05f1190039d256U, 0x28e7c6fad14c93ffU,
  0x13dbc7120c26db48U, 0xc4d5057f0dfe02dbU, 0xbc32f735U, 0x0U,
  0x0U, 0x0U, 0x0U, 0x0U,
  0x0U, 0x0U, 0x0U, 0x0U,
  0x0U, 0x0U, 0x0U, 0x0U,
  0x0U, 0x0U, 0x0U, 0x0U,
  0x0U, 0x0U, 0x0U, 0x0U,
  0x0U, 0x0U, 0x0U, 0x0U,
  0x0U, 0x0U, 0x0U, 0x0U,
  0x0U, 0x0U, 0x0U, 0x0U,
  0x0U, 0x0U, 0x0U, 0x0U,
  0x0U, 0x0U, 0x0U, 0x0U,
  0x0U, 0x0U, 0x0U, 0x0U,
  0x0U, 0x0U, 0xcaa117e200000000U, 0x462b9607de0f270cU,
  0x30fb1f0ebdd802f5U, 0x6e2f2efe3f52470U, 0xf105ad184b22e7f9U, 0xdedfbe230de126b5U,
  0xeb11017ae4e2e9faU, 0xda3be60fdf81c004U, 0xc21edbf3461de916U, 0xfe0b47ec001414e9U,
  0xf6ef4b17f50639cbU, 0x501dbedf0faf342U, 0xca2c0e1815dc141cU, 0xef731cbb92e30fdU,
  0x131a1ce9ec484210U, 0x21d2981b0e1b2c0U, 0x2efa9bf10b3fea1fU, 0x25c0bcf04e0c8cfU,
  0x4829b03f38e1e90bU, 0xd1da2188d2d81a3dU, 0xdd01e5202509d61eU, 0x20c0ad22befef9f6U,
  0xe3291a2de5bbec03U, 0x57f4f3590a1322e0U, 0xf2c22206befb0bfbU, 0xebf72a145a15e4f8U,
  0x19c1061cc2f80b05U, 0xeef4f123d9d20717U, 0xc2113203ed096404U, 0xdda8f70be242df29U,
  0x61248d5ad558d923U, 0xd555a9b0403bbeU, 0x2106e6578100ba47U, 0x12e24237f0f0f7e6U,
  0xcf21450ad1350b27U, 0xe77e11edfd9cdd5dU, 0x96fe14a4d22722e4U, 0x50bac20d2fcedde0U,
  0xee172c3971420493U, 0xc526c307d90cfee3U, 0x55df2609aef501d6U, 0xdef781f5f33c2018U,
  0x22fbf011f209e2d0U, 0x9fa61f3aeefad32U, 0xf21930cf40f5c456U, 0xbd3fdbf0fd584225U,
  0x221b68a4df0b2bb7U, 0x227d603da2cf92cU, 0x18401dfe1ef1cfeeU, 0x4132c2e621b036cbU,
  0xb6cfb0ca06dd0506U, 0xd6eff3fcebfff2e8U, 0xdb15ae7162d1a3dU, 0xf2f0153af7ea20e3U,
  0xf653b028f8341bfcU, 0xebc4b214140213deU, 0xbf0bed42ff21d322U, 0x2f32e7d8df07c4e0U,
  0x60f400c6f6311029U, 0xd2702ea51812df1U, 0xdb9ce728f00afde1U, 0x19fffebb06ffc2ceU,
  0xe9d40cb50e2fc4e0U, 0x250029b64d18f4f0U, 0xe71e14b2d0d95ad0U, 0xd23f53f52b0e15f0U,
  0xb6f2922bfcfdf30bU, 0xe811ea1874a9180eU, 0xb010de0cca24bd43U, 0xd6be28f7ef3bb404U,
  0x1cf8126f78c7fdf9U, 0xe7238b5cc7e58123U, 0xff1e15bbc34fb761U, 0x4627f242d73e3c12U,
  0xa74c1541d3c00f10U, 0x3fed26ddbdb223c6U, 0xfab245d4aa26f5eeU, 0x3828e33f1f28e8fbU,
  0xe62ff248f223dab6U, 0xf819f63f0d2d1004U, 0xdace21d4d6dc57f2U, 0x77d256117e007f4U,
  0xcdeecafc42b057cbU, 0x11f48ba0e8f0d4ebU, 0x12f0b4f79f7ffc37U, 0xcdffe1ec1b10a7e1U,
  0x20e246e0dd3220cfU, 0xfb13d513e9e22505U, 0xd3eaf43b1d0b11caU, 0x225c0d1ff4e2d135U,
  0xc1e52ef5a41bf269U, 0xe9e7032f1dd18135U, 0x3d36e5ef18f1a02aU, 0xc4af1d14ebef01d3U,
  0xb5c3e006ceee39a8U, 0x51254406e1e41f77U, 0xe5f0de471c0608baU, 0xa45affe30bf7e82bU,
  0xbacaf6c1064106f5U, 0xf1d60ca630efe6e0U, 0xc90437c61a6bf84fU, 0xe7f324ed00d5170aU,
  0x180628230cd11105U, 0x1e0d123b5526b6ffU, 0xcf263d068143150fU, 0xe71d183225fb17d8U,
  0x340dc75f08c7eccdU, 0x36df16ca3bcdc012U, 0xd150b3302fe37afU, 0x2a42353f31f227ecU,
  0xd8ebe53e12d07ff0U, 0x20e232f1ce3903d5U, 0x2d4e4af30ff1d7f9U, 0xe712064507b1200aU,
  0x384cb4b6a2f2fcddU, 0xfedecf50a62ed8bfU, 0x445c32c8c1b446b7U, 0x4d394bfdff0706d5U,
  0x9e0f2941412c399U, 0x1e4705ed25e40e19U, 0x3528ddea0e1f41bcU, 0x17c30430cb11e530U,
  0x23c04a80df340b5U, 0xae32e6ef5d03f807U, 0x16ea33cbe2f9b9cdU, 0xe1d004031efe10eeU,
  0x2e5a00b71f911e4eU, 0xa12f0f036ff2cdcU, 0x160d814a4116050eU, 0xf8c3af5be3d7f8f1U,
  0xebedd3c871e29205U, 0xbb71ce510f7d1f5U, 0xdc26b11a1bc01a2dU, 0xea85482dfa401b0fU,
  0xfac5f91330e816ddU, 0x24d02bdb1321d8e6U, 0xfcf902fd19080df1U, 0xfad7bc13e60c14deU,
  0x1d3ba2244e0a1bf3U, 0x552509abde2d19e4U, 0xa381a40a0f09dae6U, 0xd43deb2637fed2cdU,
  0xed36d1d1e0f623e6U, 0xcf0d1315d546f3f9U, 0xe08090ec130c4d4U, 0xfa0b0c234435f1f9U,
  0x19163335d3fe1712U, 0xf6e51af3e9efb4f6U, 0xbb14134b11fd2ae1U, 0x28c008e0ff13dae6U,
  0x1ef8de1b9f09fdd8U, 0x28cdd77403f6d303U, 0x33b825dcc72af9d3U, 0xa51f25f616303115U,
  0xe4043929f559ee11U, 0xefe77fdef0d8e614U, 0xfc25ef0abe1cfc30U, 0x5401c297fef5018U,
  0x341df2f531051102U, 0x14291fe6e5261221U, 0xfb31f50236d1e4fcU, 0x1915e5df1ec718f3U,
  0x16cc04090f2c3a1aU, 0xfe4804f2f415e2d0U, 0xe3ebe00f3603c0f1U, 0xb608f8f9100fb5beU,
  0xf61637252e06ef1eU, 0xec07ea25e32939dbU, 0xc9781aeb091b2429U, 0x225437ebfa0d1220U,
  0x24bef7e7f2ea0142U, 0x212f6f15d2330f6U, 0x1ad51b0248f007c5U, 0x1449e6f8b2311b85U,
  0xd516172cf53bccceU, 0x4f2f214201ec07fU, 0x16d91a4b4bdaf7cdU, 0x4cca2156d3e918e7U,
  0xb72d10dc631ba3f2U, 0x3cc412e8d2143ce4U, 0x181b42baf6df47d4U, 0x38acf021bae65bc4U,
  0xe80e2617f0dddb81U, 0x2ee3fc55ec3ac1bfU, 0xbfbde0cb00edac02U, 0xf3ff3dbc12b82ce0U,
  0xb705fb112824f518U, 0xbfdedfce6fb01b1U, 0xf5d51e210c003a1cU, 0x9e6d74b33f808ccU,
  0xea153869cbd1e247U, 0xd9aa064610061d1dU, 0xe2defa19e32b2158U, 0x4b0eea9413f30719U,
  0x9a35f6e4ecb2d6e7U, 0x1251c2641101dfeU, 0x47140911030d26e7U, 0xe1e2cfd2fa1503eaU,
  0x2f821b030e0fee3U, 0x5e7ef29151b04f9U, 0xfdd2b9fc814cdf83U, 0xd4bcc31740e10e4bU,
  0x3d2ceaf4f33a221eU, 0xfad7e9c72aeded34U, 0x43ca1309e7fa2b17U, 0x5fe50faff2aded6U,
  0x940c11029ccfb1dU, 0xf454c40ea2d9ef1dU, 0x230f22bccbc2f3f8U, 0x311a8b07f7dd022dU,
  0xd823f4202921f80bU, 0xead30d070b3035ddU, 0xd112f1cfe42c4bddU, 0x7f0702fb114a30e1U,
  0x37e7c9f914e83be3U, 0x1847bcdcf1dd3158U, 0x3cdafff7e9d7e3dfU, 0xdd051d4f11efe53fU,
  0x34f8bea649fe08d2U, 0xf2e4303e45f5da09U, 0x60032506ee06d80bU, 0xf1230ed902d509f2U,
  0x3d3e33ef2c00620cU, 0xd1390b18d11ce1f0U, 0x1e1dbf301568181aU, 0x21bf81ccaebbf00U,
  0xfcea40f406bfbde8U, 0xe738f34dff14e42dU, 0x344cfc01068122cbU, 0xdbea3febfb10daf0U,
  0xf8caea06dbbc45eaU, 0xf6cd015d4bec3f3U, 0xa242bc806e8d49bU, 0xfeec12081d17e5d2U,
  0x7dff9241d08c136U, 0x197ffa2dfc3cadb9U, 0xe470d043ff4ab732U, 0x36d1c1ec0dc3d4e8U,
  0xd210e4fffad4523eU, 0xfc1dca51421ff5f5U, 0x1a3919f1f4bc0f42U, 0x3e421118faf128eeU,
  0xca61dc2ac404a900U, 0xb5030722aeb0080eU, 0x5784121917ed3b1aU, 0x43f5d53322d92ae3U,
  0x1910dc0bf208e1bbU, 0x214cce58e3c69d9U, 0x36cc39e2c1dd05bfU, 0xced8aaf6c5c6c5f3U,
  0x6d23aac609a45830U, 0x7f99cb173ae34300U, 0x2315064db5a3b916U, 0xa608ffcc1a132f0fU,
  0xe210e5011812021dU, 0x9faec09fef44214U, 0x8e082fddf929f405U, 0x2506515e3db80520U,
  0x7e418e02ce3fce2U, 0x132eacdff40335fbU, 0x8df00443be15604U, 0x32ffdffc08efda30U,
  0xcf6fb0bbf1c2f27U, 0xc87ff40ee50a1ed8U, 0x18e78a2dc1cf28f5U, 0xcfb956e4c0d8b51fU,
  0x2945eedcee30b6d9U, 0x3b28b8338a21e400U, 0x2a2f652d00073058U, 0xbe616e012f8a319U,
  0xffef03160f1ca127U, 0x8c322160f627fcfU, 0xe63755e9105602fbU, 0xeadefade03f2df0cU,
  0xaeef4ed7656fe12U, 0x6f2e20c4af6df49U, 0x84e60638f435b348U, 0xfae8e10a27ff48eeU,
  0x20267fec012ee641U, 0xe10a32c149c719d8U, 0xebc56652ea30f9dfU, 0xec01ef1dfdf5f118U,
  0xbd378d3c2fede903U, 0xfc07ddf40b28e4c5U, 0x131b4c26df04fdc0U, 0xd70712012a1d04c8U,
  0xf205edd9f62c1fccU, 0xe0eff917fa3df9d0U, 0x74d804dfdd1610f1U, 0xfd1bdcb812db00beU,
  0xaead0c1019c2e5faU, 0xc400efa6334a2348U, 0xc10bb81c0fd728f0U, 0xce4a060c1fcf27e9U,
  0x5cda1e24001bab0bU, 0x9ecfec4bc8ac770aU, 0xf525ea1caf620e19U, 0xc507c00463a7bf57U,
  0xede22f454101d127U, 0x97ec382c69bae01eU, 0xeb4f37c0227ff0eaU, 0x27debe0f08d4df17U,
  0x8c1e30b2dc0703f8U, 0xcddcc5e011592944U, 0x1029e912fe414b2cU, 0xfcf91913ba1c1a0cU,
  0x14573819f6feb42cU, 0xc49bea16f60df208U, 0x2d81c7d831f1f427U, 0xf601e50308c6bf02U,
  0x18d7450a03c333e6U, 0xf13b332f57e50cdaU, 0xff44bd1e2c209403U, 0x16fe08f85b518118U,
  0xb1f9ddf6eceb0cd0U, 0x18130a21310ff814U, 0xe716fdc9c7dbc03cU, 0xac1c00fce523e61cU,
  0xd7a509d116181814U, 0x51e10c44d64f15edU, 0xd8d5d8c815103236U, 0x1193e22d46e9011bU,
  0xba45ff172921c7f4U, 0xe527d5ca6c03cb0cU, 0xbbf903b409edfaefU, 0x24ffeed7f4177fe9U,
  0x13ced95e2f1bd02fU, 0xf61a074016e60801U, 0xf3fedc32e9ac31f7U, 0x62d957c6b445731bU,
  0x1b02b2fee969bf21U, 0xffe82eeffdc7c802U, 0x44d1f61e2698d9daU, 0x34ffd5b808ef90fcU,
  0xcdb0ea63db1fb7c3U, 0xdc0a31404784ec02U, 0xd1a218082300047eU, 0xdd624d0d5eae221U,
  0xafd101cf9f5eb21U, 0xcb23d406f0ffd0dbU, 0x31152204fa71d40bU, 0x3dd6d8c4020763dbU,
  0xeafecfde7a4afa01U, 0x41daeffa1c2d05f4U, 0x1e3ae51dfc0843f9U, 0x80fee9b0c230c58U,
  0x7ca12e209fee081U, 0xfbfaf6d818eef9f8U, 0x19172d2bc9131527U, 0xd0b83b42dcc19e07U,
  0x1b1fdbebe4271f3bU, 0x20a9b7e3cb26df1fU, 0xeb1e1464fefae9e1U, 0xf21c9e050afcb2d3U,
  0xd0dd3316f9271403U, 0x611ddffea0fa0cf5U, 0xf92800437f0f2a3eU, 0xfe08cbfa5a0dffdbU,
  0xcb20d0203b1c244aU, 0xe0c9d4a1dec81558U, 0xfbdb2847c1d10ff9U, 0x13be5a6bea35acf0U,
  0x95ffe526d451e1e7U, 0xe5c6ff99f0cbaaf6U, 0x71f5c5ecd6bdee1eU, 0xfd4f1efbe6c54b0eU,
  0x2b2f94caa8f1bd7fU, 0x4a3cfe523318efd1U, 0x91634b8e658c541U, 0x330321b09fe4f227U,
  0xedfde71bfddd14efU, 0xdf5efc6703e9ac18U, 0xf2c6e239edadc4f2U, 0xf823c4fcd2817f2aU,
  0xf7d415f70fcb47f2U, 0xc334bc2e3939dfe1U, 0xa3ee66366fe139fU, 0xf4cb87ff32fc073bU,
  0xe5d7d7d932e926f1U, 0x3fdc15e9f89dfdffU, 0xab5df3e534c34ab4U, 0xd82d112c61daf8fcU,
  0xb5cc47fcefdff92cU, 0x3e2aef0810348c04U, 0x370d1fa9dc05f5e1U, 0x5aa8fed170380b84U,
  0x8e92d1c4f9c50013U, 0xc05b01e9f763ce0bU, 0xe9ec36275dc527f4U, 0xe9e292cf1626f402U,
  0xe83cc0413788b51dU, 0x571ef8e6686c2d18U, 0x18f7070115f69df9U, 0xc658ab35e51c4211U,
  0xfd28ec05ee0ec218U, 0xf92b6bed2c3538f7U, 0x23f2f7f5e2de81deU, 0x77cfdc3f9c2a81d9U,
  0x2de2f29e02e8dbe0U, 0xe7e12a0bd40b16feU, 0xdaf71817d1c5bffcU, 0xed57f127a4c155c7U,
  0x54292315cd05f056U, 0x3505e41424e32bc2U, 0xeafc068aadabd614U, 0x1b0817f05e33da4cU,
  0xc81115eede2421edU, 0x17e6d3a7d30650d3U, 0x4c42ffbce3fd2becU, 0x22fbe2390fe706d6U,
  0xe3dacd1413e31917U, 0x7f2decdafb81c0eU, 0x9ffda24d323b9d9U, 0xb703ceefb9beeec1U,
  0xa4a81fb59091a4cU, 0x10e316b70b0e3e33U, 0x174331fbf502d324U, 0xc00d4212f11f324cU,
  0xdeb910eae8da1815U, 0x3c26ffb015beb50eU, 0x1ce9e6fa22fce2efU, 0x2cb9ebea0b075941U,
  0x63c52b33f2a01ac4U, 0x4c3ae6003d00e212U, 0xb0dbefbebb0e21a2U, 0x431c5ff3474d3b14U,
  0xa9e8e230445422edU, 0x316fdf063b1f02f8U, 0xb9f79cc8365606c4U, 0x15c7f8e31962b8c9U,
  0x3c0bae227f041b03U, 0xd50747fc1a400109U, 0x1dda3c170f064003U, 0x1e09cbf418461054U,
  0xbc2a0ef103f437c0U, 0xdcbddd44ddad063eU, 0xdf464ff382203ccU, 0x2b32fe1564bfea09U,
  0x572ddd3e0ebfff2U, 0xbf18fdf51a1ac3b9U, 0x832949277fbd44acU, 0x1719d2c9ce14d6eaU,
  0x47cf12082bddb7f3U, 0xe8fb3f21b77ff3e3U, 0x4522b627fb9ece38U, 0x17f1395529fff77fU,
  0x15c62554bf081ceaU, 0xcb1725d305e1ee54U, 0x3425aef1de23432cU, 0xc83244f9ee2c3a34U,
  0xf354f4f50b72f6fcU, 0x53e048353235d95bU, 0xece0342ef4e915ffU, 0x180efd433afd034aU,
  0xfc170b0916050dc6U, 0x31b041260bed3506U, 0xa025093ce8e93712U, 0xf07c54f3281152bU,
  0x6225ea3102590b18U, 0x45fddc00f6fb09c8U, 0xd6cecf2535ce0832U, 0x103c32d9c51c64bdU,
  0xf1dfcc02fd15dad8U, 0x2141d4f59daa9a20U, 0xe3060d3ade22ceeeU, 0xdbd92905023ab917U,
  0xf4d07906cdae0911U, 0xfdd651e0ab1ee40aU, 0xc138e2f05015cc0cU, 0x40c30a3151d07f9aU,
  0x931860a9202dd818U, 0x10df2e213b5c3f16U, 0x12c17de11456724U, 0xbf3d51d0eff41f0U,
  0xffde6409480fe9daU, 0x4fc6e9dad4ee05e0U, 0xf24232ae4e28babaU, 0x9e61f2732a4eabcU,
  0x64fb00d71a1f40d9U, 0xf542f03be10317dfU, 0xb21fba90fbe56ddU, 0xcb09e416ff051d0cU,
  0xcefa00e8032ffe2fU, 0xc7200ae8ff262a55U, 0x5d7aee4f4dcd80aU, 0x54db201821e9ec7fU,
  0x3fd7bf9c0a0231bcU, 0x2837fc26202c0d17U, 0x12db0bf418b80b16U, 0x1c3ade2d01de27ccU,
  0x4906b9eac5fa34baU, 0xfbf5363844c2fdd2U, 0xa111a060d27fb13U, 0x1ffac83b3602f1f7U,
  0xf7adf72191243750U, 0xf9214107253b34d9U, 0xe8effef1a9c91381U, 0xe65ee0bee728d6f4U,
  0x4c4092eca32dd1cU, 0x6fefbf8cf1a0328U, 0xd8e3674c12cb07dfU, 0x33cb95e1ce3b5c06U,
  0x24cefcc14e72edd2U, 0x19e2fadf21eed508U, 0x433e3503ffed9400U, 0x38e1d402db15e109U,
  0x414f7f4def70bfdU, 0xedf0fce601d3fe18U, 0x81faf6cde82fe47fU, 0x291fbfdbd9fd26a1U,
  0xf93b253ad2c51f09U, 0xeef99e1b42a3f3faU, 0xf0105442f7ea2deeU, 0x3f9feef2e16cd0dU,
  0xc631f893fd393b1eU, 0xeff9efd311b1f9f6U, 0x3710a7f6e36d5f05U, 0xe2ed70f3e3e203fdU,
  0xef2525fd100fc80dU, 0xd75f8af903f0bde4U, 0xc2d7e22efdf8c981U, 0xd7ffb81810022426U,
  0xd031be9f0261724U, 0xd8b5490e125302d7U, 0x60ad909392ededbU, 0xcf05f804f12d4015U,
  0x33090ef2c41ffae1U, 0x18b827dc22e5a5d4U, 0xefdce617b8be0c1cU, 0xf4bdf22922fc00e4U,
  0x3052f090100e5feU, 0x731ded7ef31f7f7U, 0xe503d3f3f927b9fdU, 0x5f80aeff3f32619U,
  0x23c60116dac303e6U, 0xc0ee1bf30d02de0fU, 0x2de34681ef2be3efU, 0x182dd0c9b8b81d00U,
  0xfe31250feccee7f9U, 0x1621f230f4e112fcU, 0x173f7fd1f1042405U, 0xf3d52b303343c001U,
  0xdfdde9051ee0ebe5U, 0x8d59000ee8cca5f6U, 0x18b0d6b6142a3c31U, 0xda2ac2d0cef8021bU,
  0x512e47da17d7bd17U, 0xc58684946f343e3U, 0x1e00efd7def8313bU, 0xdef5d83f2bc80a1dU,
  0x35f032400beaefceU, 0x28f324cb551c70f1U, 0xd62ac1d00f05632dU, 0xe55812a41514dfb8U,
  0xcfbc1606fa25f526U, 0x2d4c01f8f20e022fU, 0xbca71768c146a88bU, 0xee413b6d4ea1bf1U,
  0x34de0711339818f6U, 0xc7a35baf004a030U, 0xa2fcf5eff31e06c6U, 0x31f6ec11d7081c0bU,
  0xe1e53ac7ff5003eU, 0x6e64529a2fd3b0eU, 0x810dfc041ee5cf0dU, 0xfe715b3ec596723U,
  0xcf3d18fdc12b4318U, 0xf35106f0bc46d7ccU, 0xb31a0eaeed2e0cf4U, 0x1d1c4ecc18eb02fcU,
  0xf5d7dfdaa80104f3U, 0xc437f359db3f313dU, 0x56b708090dd25f0cU, 0xd0bea98af1f9044aU,
  0x940b19f2173e2103U, 0x39ee70e14f09def8U, 0x1fddc711eb07b93fU, 0x455fefd2b38e148U,
  0xf259e0ee0c03ee23U, 0x5c2f6284ef6ec43U, 0x913fc2ff3312bf0U, 0x81ff6e125bec918U,
  0x1ae7ff25ea04d7f8U, 0xecd611d43107ed27U, 0xd339ff3119f28101U, 0x1e9e1ae4460f15d3U,
  0xd527ffc3e7ede604U, 0xdcaf82fe908e7c3U, 0xfb2aeb00cdd5c5e5U, 0xdae017d215fbdfe3U,
  0xc5f0111de01807f6U, 0xf59bc5dd3dea1826U, 0xe5df07f00d425214U, 0x3c5deb643bdfa0eU,
  0x4f2121c81c6ea34U, 0xbe2a05dec4041fdbU, 0x340416cfffe14e15U, 0x2fd150e071cb249U,
  0xe01b15040d08430aU, 0xd81d1ae103da27fdU, 0x2bfddcff2725b80dU, 0xf20c1e7a17b3e947U,
  0x99361d102c1fa6f8U, 0xda09da2dca9cfd38U, 0x1410f27fd0d2bbe5U, 0xfb728dda8e60a50U,
  0xd0e9024c32e9e0e5U, 0xf1454102add115ddU, 0x2200caff4b16e54eU, 0x70deaee924d71ed2U,
  0x2a24f9c0baf5c7afU, 0xcdc82cc228bb17d5U, 0xb00dfc2005f516cdU, 0xef114312ffcf311U,
  0xf30d00c0ee1d2929U, 0x4e28c835f83ea3U, 0xae3735201455e401U, 0x7fc6edc5b836cfc4U,
  0x373832b1f0fc1f36U, 0xadc4e8e168cc27c4U, 0x205d2bac1afbd1c1U, 0x35d6330e440a0638U,
  0x10b6e642eb53f5c9U, 0xa820e3c631d7eb18U, 0xeed8d6d10d020e1eU, 0xf406f4eadaf80708U,
  0xdb3ce8b3fc1bd908U, 0x561ded261b815bf6U, 0xf4dc0cda2e002eceU, 0xb5ecae0b151a0fdbU,
  0x25f31928d60f1435U, 0xef39cbe8ccef78f6U, 0x2c1de7171e0eaeedU, 0xe0fbcd3107f3e318U,
  0x48d6f6e6d1df31d9U, 0x32110407f807f036U, 0x442b0eb92113f8b4U, 0x2c38ce10ff72d755U,
  0x7ffb0509de8b22e4U, 0x27ce31901fe70c51U, 0x131747bd27e31de0U, 0x3ef7ffee2023104aU,
  0x4fcea0530dc17f6U, 0x32dfed52f3a69f2eU, 0x73f6e2f333233ce8U, 0x702a3c94bfea0ebU,
  0x51c351a82d12b249U, 0xffd51011f435e5c4U, 0xeebbf1e1b848ddfaU, 0xf9dd23b819e6be28U,
  0x608e917d3175c2fU, 0x1264f0215fc0b37U, 0x12fafa15f865cae3U, 0x29ed2e2331f0de29U,
  0x2ac316df4aff0be6U, 0x34cb09da322bdb02U, 0x11143adf0514d7f2U, 0xe6c3e129afaa3608U,
  0x39fa02d0e8e1e00bU, 0xd5f400e7edf442e7U, 0x3ef529ef3d7f06d1U, 0xb3344c26c9d2f972U,
  0x271425ea05ee0cd9U, 0xed0863a8d81b0af6U, 0x25467fc11eca335eU, 0x10eb02c7e90fe9dbU,
  0x3bf9230dfa46f2baU, 0xd22fc00b47e11becU, 0xc4c745485c251815U, 0x8c0f91cf2cb13ecU,
  0xd02fc0fce3f7b9baU, 0x6eeed02b31b81405U, 0x1c006339b97a8c7U, 0xe7a20de6de22e825U,
  0xa4edfbc7f92e16dbU, 0xd909d27fe717e700U, 0x24baedc6fd0507d7U, 0xc3de1f4b0d25050cU,
  0x8b9190515d6fb4eU, 0x1a26f34dba01f4U, 0xbced3e71571a14dfU, 0x192605feed16fc11U,
  0xdbf543fac2bd0aadU, 0x2ced48fdfc11c7caU, 0xdf1538a80d4dc725U, 0x6549c12415edab00U,
  0xfdf1f6521bb1efb2U, 0x954a430beca2c8c5U, 0x173231eb92d6050aU, 0xc1b83107192fd836U,
  0xf01cadefa700d3d1U, 0x1431480db82421d9U, 0xf7fb18160634f12aU, 0x2047a5c7cf4d08dcU,
  0x10d12ff2c4d4c26aU, 0xe154a381da0d052aU, 0xd74ac3d309d20adbU, 0xf5dab72702d32d0aU,
  0x83ef63ee76d15b29U, 0x4e30b4d0b1fb5f2fU, 0xe7cbbf3902277f3fU, 0x45dc87b1b6fee527U,
  0xd44745de49471273U, 0xf4d0c8b693fdb252U, 0x9f12d1ed1dcc2eaU, 0xabf4282e46102e00U,
  0xc920b7eef6100c3aU, 0x334d25174aa22145U, 0xbb024ae7f539a37aU, 0x2d98ee8adf623017U,
  0x133fd00003c031dU, 0xa370bb6056ef06e7U, 0xaee6d24639263bf8U, 0x9ff6ec0f040c2723U,
  0x6454f242e41739caU, 0x4d5b1f464b421a13U, 0xacff1e5bcadc39e9U, 0xa5d42b9019ee799cU,
  0xb0261c3bb32b0654U, 0xd0d7b37f036842d3U, 0x30607cf412b2ed0U, 0xeacb243c3bbaefe2U,
  0xd91cbafbf8e1e920U, 0xa1123b30bade54f8U, 0xa07d24310cf2ca3U, 0x2302f6fbe60cd6d8U,
  0xebba9ce15020e43dU, 0x5f52441b0ff10431U, 0xee20fbbfb31630eU, 0xbc0d1ae2cd15177fU,
  0xf0e60fbb1046c404U, 0xef15f63a323a26d7U, 0x160cdb3537c907dbU, 0xefe515e72dbf0a15U,
  0x6e1f3f90ebfc416U, 0x130d1919e9ca24fbU, 0xc1fcd67f1ae0e54dU, 0x1cfb5e0513dcdf01U,
  0xda3ccc0b0bf512ccU, 0xdef0f7fcc52008c5U, 0x2d16b4fb2cb7fddcU, 0x1b1f2527eff13fU,
  0x4231f443311ffd6U, 0x1ee21d0fd506e11cU, 0x4b4739fef51d1fccU, 0x870e32a2d04c1e1U,
  0x76fe2dfc23ecd84bU, 0xa9c9587f1dea24d6U, 0xbacdc49a17aa080eU, 0xf2612e29b283248U,
  0xc0e5f5b5e9f8a43bU, 0x1df5d65146f52defU, 0x3ec693b83abfd6c1U, 0xc621e23f2e2bf6d2U,
  0xfd22eafb0f5ebfffU, 0xa6cb652a84efb7e9U, 0xdce1e5013b2fc50bU, 0xe6b2e71dd419d6edU,
  0x7f0ddb0d1e0b1730U, 0x10e01c28d71f2d34U, 0x3518cb0233fce5efU, 0xff2c2602fa310ce0U,
  0xfbebc6ddc01be2f0U, 0xd2347b1be0d04851U, 0x40020fc8072628f5U, 0x520dc17f93c1fb0U,
  0x100ad4252526f905U, 0xc50e2b06dd0ff58eU, 0x41ee2531U, 0x0U,
  0x0U, 0x0U, 0x0U, 0x0U,
  0x0U, 0x0U, 0x0U, 0x0U,
  0x0U, 0x0U, 0x0U, 0x0U,
  0x0U, 0x0U, 0x0U, 0x0U,
  0x0U, 0x0U, 0x0U, 0x0U,
  0x0U, 0x0U, 0x0U, 0x0U,
  0x0U, 0x0U, 0x0U, 0x0U,
  0x0U, 0x0U, 0xe4c33b8100000000U, 0xb5e6da2aa81c7f01U,
  0x99f6f15c1792547fU, 0x322ae72c4206c3f3U, 0xe193bd98d25d9a2U, 0x81177fe33d81819bU,
  0x632bff12f17135f5U, 0x9f26f6ef3bf335U, 0x7fb2eea3bbda65aaU, 0x70ca7fa694ffd87fU,
  0x9743e0a97fdf03d7U, 0x481efea2c581b8afU, 0x3aeb7f132e817faaU, 0x9958cac16bbb734U,
  0x81fbe3250aa27fc7U, 0x1172f63381dbea50U, 0x33963a2b0b9ec881U, 0x73aa6c903bebb547U,
  0xbaf6da04e83b34eaU, 0x9b1d81d2f777ee87U, 0x9f397ffe040713c9U, 0xe7811a7f3fa1b93bU,
  0x1e00bf431c812ce2U, 0x27fafeb38db021eU, 0xf06df99d3d7f10d7U, 0x61fcd904955a42a0U,
  0xe03a163f3bdbf13cU, 0x35ea4b7f1e142695U, 0x1be9b5a3ff255914U, 0xfecd37d15fcfc446U,
  0x6e337f0cce3bde02U, 0xe550e3dd0b54eb7fU, 0x1d53e5cb01f47ff1U, 0x5981e981d8d307d8U,
  0xfeb11c4a2708a7a6U, 0x7f7f5d2d09f6d1c6U, 0x81ed387f7fd03781U, 0x1a9497360e0c6b7fU,
  0xa80da61d0f40b47fU, 0x20ac20e66ef4def7U, 0x2cf281c5defecbf5U, 0xa5474f9381093012U,
  0xb1332e60d777e96U, 0xfd3d3dd6de1881a1U, 0x9bf0fc21a571bfcaU, 0x32f9f97858175449U,
  0x21a8c0b7cf3dffcU, 0x400e81816b06140bU, 0x370ad414154559f8U, 0x81390705c77f5bfaU,
  0x7f55d73fc37fdddbU, 0x10971247b151386eU, 0xa17ffef1feaae85fU, 0x612b8dd132fc486bU,
  0xa113a3f081d5472fU, 0x1a3f214b96b981d3U, 0x29d43e87fc42234U, 0xe951957e31e987ddU,
  0x4d9e577f12478159U, 0xc1adc1afb7990581U, 0x8061efd63a71aa0U, 0xfae7c5057af36dc7U,
  0x9ec9e616eb2cd0e8U, 0xf13a01c4ed7fe8edU, 0xf37fdd3c23652cc3U, 0x1051a9f8da2759d9U,
  0xbd7f7f4b794ccbf8U, 0xf7093e087fd34120U, 0xe945e04e4ab69e7fU, 0x1c531f777f3130a9U,
  0x4a81ac7f5dd914ccU, 0x7f7326e0ba2710c7U, 0xb0d90bb5U, 0x0U,
  0x0U, 0x0U, 0x0U, 0x0U,
  0x0U, 0x0U, 0x0U, 0x0U,
  0x0U, 0x0U, 0x0U, 0x0U,
  0x0U, 0x0U, 0x0U, 0x0U,
  0x0U, 0x0U, 0x0U, 0x0U,
  0x0U, 0x0U, 0x0U, 0x0U,
  0x0U, 0x0U, 0x0U, 0x0U,
  0x0U, 0x0U, 0x1cf223d400000000U, 0x24f5e33cc8fedf47U,
  0x1119811dac1bf8c4U, 0xfde153282610e7e6U, 0x2fee02df90d8e11cU, 0x29d80c3c48024c21U,
  0x3be1ba72d2e04182U, 0x27baffe0630b24b2U, 0x1ab0e3f385b2efdU, 0xd7b88c1eec0f2d18U,
  0xd13aeb1202c415e5U, 0xfdffc4dc16b9e3edU, 0x7fe10b2912281928U, 0x27d920392a3310f9U,
  0xf92306b592fe0dd9U, 0x2c2042f9ccf2a713U, 0xe5df1b266622e1e3U, 0x811424bb17f63ee4U,
  0xdc38f6138ad2d2b9U, 0x2b2de1e2e6c524dcU, 0xa6b6c6f9ed17f6aeU, 0x63323d911fff9e0U,
  0xc92e3c99ded5280eU, 0xfdf1f6b10b145e2eU, 0x4a41992146eed727U, 0x37bcd57ffff627b8U,
  0x1c50ae39118b310aU, 0xf6dc3cf42e0df5a1U, 0x8f3dc1de3edfce7U, 0xce00e9d01928f91fU,
  0xed01d501101641f1U, 0x9ea30b6ec022f0bU, 0x16aac039ba2edee7U, 0xf8ec13b6b6620fb1U,
  0x2e1b95ea4810d70fU, 0x7fef153944e72bb0U, 0x1116c1ea96e8b511U, 0x96c2a03d0f0e497fU,
  0xd7e0ab030ed5dee2U, 0x43f79c17fee6b95dU, 0x6a3bcfcc642dab9U, 0xe11015fcdd7f14adU,
  0x7f20fdc03f632e4U, 0x430fc13162520f5U, 0x91a1d1aed23f0fdU, 0x3309f71feee91719U,
  0x16dbf53601d5eb0dU, 0xbc8fe21ff2e34e7U, 0xe62c490afd1cde09U, 0xeaf7d152fa1e30d4U,
  0xf14af4d8dbe1ff11U, 0x1bddf97fd4ecf835U, 0x2ae617fdef43cd07U, 0x47f8c318fe111077U,
  0x10f2ddc6c4294ce5U, 0xbfdfae488855e5eeU, 0x102a11ebfefbe6e5U, 0x1541fdb9262d5704U,
  0x13da3ff5f0d3d50dU, 0xb5dc7f6618d7170aU, 0xf02bbed047d33b34U, 0x1d16dc51c4d9c5a4U,
  0x5dacfe31ab534f8U, 0x17f55713b5edec28U, 0x12daa140280cc63dU, 0xea37cccdc1e94e16U,
  0xb5efe4c742e903f5U, 0x1b08d6726f15f245U, 0x7506c5c5ffade6d3U, 0x530052fce8bec421U,
  0x495abb0ff297c8eeU, 0xae003139b706fcU, 0xcb23869debbc4481U, 0x9ca37d1ee1f12faU,
  0xef422856f55ac2c4U, 0x3c23cd489faf1b0bU, 0x3570f1eb001ec181U, 0xe6a4ee0690297fb8U,
  0x3235c518f62dffafU, 0xf4b2b5f750dd9744U, 0x200c0a042725bc18U, 0x7420ce5b0ed02edU,
  0xf3e73326f3c604e3U, 0xdefef948f2e0fefdU, 0x81f70145c5fcf7b4U, 0x13d20405dd151a12U,
  0xdab51b07f633a21bU, 0x1947f80db91402adU, 0xe0c9f4fdeffe01dcU, 0x2a371623ef1d21efU,
  0x6341c3725d9cce4U, 0xecfcd5e3d0f5f023U, 0x12140028a54d811bU, 0xad243383e50118eaU,
  0x3bfbf5dc181ffc1dU, 0x43de2743d9253237U, 0xe8eb0d1291cb10e5U, 0x2018f026fc04ff54U,
  0xa41f0e1e292905U, 0x16b1f6eebf3b037fU, 0x1406271008f6edacU, 0xf53bb9fad41e35f0U,
  0xc2e5b71ff4d7dde6U, 0xe331309b2abe0205U, 0x2b520aec1e4143e6U, 0x35190eac2d06011fU,
  0xe9e3433fcdbe5202U, 0x2dd6f009c8141eedU, 0x445414e4d11059fdU, 0xb8c0caecd61d3cfcU,
  0x2956810033cddbb0U, 0xe00acbfc1af7f240U, 0xfb2dfabed0e6fcd4U, 0xe016c9deed66d540U,
  0xccdef30f29061effU, 0x5a08f6fee7343e42U, 0x33f8f200fc6ef902U, 0x34271ae3dafdc2f2U,
  0xf640232781eafcdfU, 0xf12d23cdf17fe27U, 0x65d9eae228d6a4e4U, 0x1bd308002a39cbU,
  0xccc5e300cdd7c51eU, 0x9e547e60b48323dU, 0x81d214e200cb0a16U, 0x82bf29fee46c6a7U,
  0xfe5915020510c7ebU, 0x290775452adeae7dU, 0x1471ce05U, 0x0U,
  0x0U, 0x0U, 0x0U, 0x0U,
  0x0U, 0x0U, 0x47a8ffaf00000000U, 0x26120bee0adfe8dcU,
  0x26546c78ff81daf6U, 0x1004c9684f7fec2eU, 0xaf7f1dda0803d9eaU, 0xf1bf09e7ee71fe3eU,
  0xe57ffed605ce2103U, 0xe9ddc5b9f9ee2115U, 0x6dc8872da22f0325U, 0x54b6ad02e2971803U,
  0xff2545060d38fd98U, 0x31a3fcf4083d7ffeU, 0x7fb5e00a14642ef5U, 0x26c8e43ebb570f3eU,
  0x1f2e3d0013e82ab0U, 0xcdcc2735cd47abcaU, 0xf6010ce23d7f2bddU, 0xd20a043e483ffcbbU,
  0xb0fb16fdad8104eaU, 0x98d8cf72dc9f01d0U, 0x500a552e81efcac9U, 0xf3238138100d0722U,
  0x39d07d2125d2b199U, 0xf47f21bedbbdc619U, 0xa32ef60dd038258dU, 0xfdc9112d2a2fb6acU,
  0x200bc3c3f4b4581U, 0x9019f72696811b05U, 0x1bc2e52e3a0d1706U, 0x57b2cefca99881abU,
  0x5b7f17ddbccd3362U, 0xdbca9b2c6ba076b0U, 0x140291ea23fcceaaU, 0x4008d4f315fd9348U,
  0x55f514d97f003cfeU, 0x3ab5bfb037def69eU, 0xf4769013fa6aa67fU, 0xe5cbcc81f7f305beU,
  0xb0b2f0196fade50U, 0xc8082f0a10a4317fU, 0xe86253d019f345a3U, 0xfef1404a051e06d2U,
  0x587fdfca2681dca0U, 0xfd2da931fe6a839U, 0xc91f99c415b839U, 0x2a1e48675f7fbe98U,
  0xfc92c2df6da0e0cU, 0xdf7ffe386df968e5U, 0xf39750b752084d4bU, 0x78b7532e6d478fb3U,
  0xf8e64a3b52ed4181U, 0x49d94c81f24ccb09U, 0x10dfdcc45f8b4562U, 0xb4e2c6377f0bf194U,
  0xe0fee6f404d9ad24U, 0xfdf7d8b2257f6565U, 0xe45b37e9c175f770U, 0x24cf40abb1e8104U,
  0xe11fd6f0c5b225e8U, 0x33f5c3b14b5fcaa9U, 0xf2779f8d7f028e64U, 0x6d7f1ba6f3522f1eU,
  0x99b9f94fca5d4e1cU, 0x4026f4d33af0117fU, 0x7de250d159822ffU, 0x16c22319df0e0891U,
  0x49d82a367ff7cde0U, 0xfd7f111e2b5edcc8U, 0xdebf03f5392006efU, 0x5197df1c543047fU,
  0x21bd8751713c1908U, 0xf00cfc72812415d3U, 0xe428e84b2c54e411U, 0xfad73d17dac67f03U,
  0x81f01de9fe1755d3U, 0xd5af2707bfdcf360U, 0xfbfaa0d94c45c822U, 0x212b18c11d81c527U,
  0x8c7801f5f8bfd948U, 0x1714dbd0bf23fa25U, 0x9bd8400dd481502fU, 0xbcb8058133215ae6U,
  0xeac3fc92422e502U, 0x44fcd34ef24d2242U, 0x9081a381f6fd8119U, 0x1a1ac8021eae1940U,
  0x519c63c1ce504550U, 0xde85bbf7f2fb6c0U, 0x1322344c309a29eaU, 0x509ae5fc5e3e2256U,
  0xa768dee4417fbaa2U, 0x4411f81a7feafd0fU, 0x8bec62ef90fee05U, 0xeed3cce9eb8126e1U,
  0x34cb3aebde1be2daU, 0x26ba3759a405a6afU, 0x7ebc57d913fd507fU, 0xe328f350fdbdf181U,
  0x2134e68213d71aU, 0xf9acca13c6b17f21U, 0xd38ecd56ca29e9e5U, 0x2ca9ddfdfce9d631U,
  0x8f87f5327c7ef12U, 0xf80db674eae96d18U, 0xf59604af49d1a1f5U, 0xe94d44f11fe625f8U,
  0xd21d3d1b8107eae9U, 0x67fefea73e61f26U, 0x53c0331e34fd59daU, 0xb43e722d872ab569U,
  0x711fda182f1cf7f2U, 0x3a7f5064e5184ae2U, 0xc63ce042023dde0eU, 0xf5cf245bdd410fffU,
  0xd1fc34fcad9f6f68U, 0x25d8e70bd37f11f1U, 0x4ee8d7c0fc622bf6U, 0x26b70608f5d67f62U,
  0xb6d3132ef463b062U, 0xf9f3f629ba573538U, 0x7e0337c7681e81bbU, 0x2e22b7f0426ba31U,
  0x81e80040f7da5ff0U, 0xb0d4e157cd16df3cU, 0x1d2b4327ba29ec41U, 0xef899a0d2faa5816U,
  0xe6eaf89881c2e623U, 0x29ac38c0ca03d546U, 0x249d76c0d6815d63U, 0x2226c80036ea9600U,
  0x400000002358df80U, 0x284394c02b14a400U, 0x29c084002e5b6c00U, 0x2a104fc022baf900U,
  0x234f3f802a734e80U, 0x2f5e62c0234bf940U, 0x297f4f803af68600U, 0x27c209802a5cc640U,
  0x32c98a00347bdf00U, 0x2ede8d002c572180U, 0x362f66802e02d400U, 0x28446440268b8e00U,
  0x2b4bf3c032cecec0U, 0x355a8d4033cd62c0U, 0x2903770026af3e80U, 0x2ab950002296d680U,
  0x202662803b2a0980U, 0x2828ce801e571da0U, 0x259b7e403bc1c240U, 0x3d141900243037c0U,
  0x3bd68b002ce2b1c0U, 0x28d18d803b9373c0U, 0x37edf380318ee740U, 0x4000000034acc400U,
  0x35071c0038fec2c0U, 0x4000000025835740U, 0x400000002b22ab40U, 0x2c0cff002314b9c0U,
  0x2087858035be2a80U, 0x30ad788023a6b780U, 0xceb23812b255980U, 0xce5a05dddcf1da12U,
  0x54d800091904d1fdU, 0x38da11da02c0dae5U, 0x65eae4da0229d1d2U, 0x50fcec74eedbf7d0U,
  0xf40eb5f9bff10aedU, 0x2cd00b0b0e923193U, 0xfe1acde7d8c5fe26U, 0x1c7d3fcd300fd2dU,
  0x191cb2c4de4a2f22U, 0xcbd1e61424ffce19U, 0x36106502d210e149U, 0xf3e339f341fc112eU,
  0xe280bf5c5811ce1U, 0xfff217da5c3f14e0U, 0xf33c046cf6170db9U, 0x420ebcde240006f1U,
  0x4e004443081a3e14U, 0x1cba2df4dbf0faeaU, 0x8fc24172b3b29e9U, 0xf207031b0e057fe2U,
  0x43ee4005dbe33619U, 0x36afee15dde1ecd4U, 0xffcc3df05d26bd17U, 0xf2082d74403d29a2U,
  0x345b25fe53ef00daU, 0xee48f4009fe720f4U, 0xed0fff09dd790a81U, 0x865cf42b0704bbf9U,
  0x50822de44c72e38U, 0xbc363e310b56d4a1U, 0xed51b025e034a825U, 0x5b029f51dff6fcdaU,
  0x95d18b6cd4f1e510U, 0x12e3d3c12d033bf0U, 0x981061026037021U, 0x907aec0affcedcdU,
  0xd21c09153511131fU, 0x4b2312f5cbf1e413U, 0x200e3e552ddbe436U, 0xe5fff6d70904eb41U,
  0x4004f20447d22320U, 0xedc905c8d85ccbf1U, 0xc701b92bf0fb7056U, 0x2c00e71d04f0b23aU,
  0x2a64458f081300fU, 0xb1f3b8ed18c608dfU, 0xb3ba8d6ff00da2bU, 0x286d0cbb2010fdf0U,
  0xf6150cbfeb1323b4U, 0xfd00115621e7def7U, 0x14ed35c9072b4c2fU, 0x7fd12a25dafcf9f0U,
  0xe2f01b2027d919e0U, 0xe6f926e7c0fdb1b4U, 0x582e23fcebd9e4f9U, 0xf8c0475844c0e85eU,
  0x4c2a0df5403f1205U, 0xad4cbffe9959e412U, 0x6cfee7e720723acfU, 0x61f31d43d4e13ca2U,
  0xa81d317f4de319d3U, 0xe52dc2134af2b1a5U, 0x37f0dfda2ab529a5U, 0xdea2dc061fd963U,
  0xd534e4c9d240b5d1U, 0xd30b1ad115f90e14U, 0x45c46cf2160027d6U, 0xb8937fc7cbd63f4fU,
  0xdcaad5bfd4591d25U, 0x212927d2f1401d0dU, 0xdca5e504b9d11cb5U, 0x23edfe4dda30d0cbU,
  0x5edb07f7b83ef2ccU, 0x473fd8f4392d0bf6U, 0xdda4e1adcb1b81U, 0xd0b9cad6064f000cU,
  0x3b1411f4cd03c710U, 0x1eeadb16a8eea33cU, 0xd2403fcf140af358U, 0xe8b0d9ea2f7faf37U,
  0x5074e1e80dea5309U, 0x96e305163a1052acU, 0x3c0e58ce0f9c43d1U, 0x305353ff0e6b43b8U,
  0x1f2931bc2690c83eU, 0x91561642b242f8e2U, 0xd4feb2010581ee02U, 0xc8f94638d034fe18U,
  0xbbd2f2d0b71530bcU, 0x733747e7ab35d24bU, 0x48fe3da011ed6be8U, 0xe578e1b44d008134U,
  0xf9d0c61a0821d354U, 0x94b6ed197bdade88U, 0xcf1ccc0b01eff858U, 0x9c4363ffe8e0bd42U,
  0x36c21728f7f581f4U, 0xe441f6f2dc21ffd1U, 0xe2f6f625356f4cedU, 0xef8ac2eb1f3c4ecfU,
  0xece71ea8c856bc0fU, 0x24c83e8629150b34U, 0xf736f15105ccaffdU, 0x3f0a57053ae1dfcfU,
  0xbf153128c6cc0062U, 0xb8dc2202eb3af425U, 0x4e0cf1cfcf25170fU, 0x39c87fb4fa08dc22U,
  0xc51214c1cde1ebf4U, 0xfc0d0fcbeec0d9acU, 0x2b04f48e0f06f70bU, 0xbe17e6ddf7c6f5deU,
  0x240dc307b5300405U, 0x180fe12562abe934U, 0xa19def74acdb804U, 0x806f2b3183ec9c5U,
  0xe17fe823cef1fc25U, 0xebdafa18ff3445faU, 0x4d231596e93fbb57U, 0xf4dec2e8da2321deU,
  0xf0d8d6f2fbdc15f5U, 0x4b9381c8b6ebd2d3U, 0xe030fcf9e5c8fd0aU, 0x1e30ef66561c4f30U,
  0x3103e1ef48052922U, 0x203fa0d701e53a1eU, 0xeb1901343335e2fdU, 0xf929052e091ff9eeU,
  0xe5eb81f31b0a391aU, 0x159202b2ba0e9c3cU, 0xda12f5f6e8253d07U, 0xe6ebffff0d0c61f0U,
  0xb91a2cec9bf22525U, 0x1638b6f8183ee6ebU, 0x412fbfff32f73b21U, 0xe11e10d62bcd06e0U,
  0xde41de6f4f31afeU, 0x1c0fe9cda9ee16e3U, 0x1906091d0d21400fU, 0x607fa100ee4c207U,
  0x433f4cdf9df15d5U, 0xe6132007e1e18105U, 0x2d7cdc500e206e4U, 0x4142db34fe8d9a6bU,
  0xd5b3121deadecbefU, 0x1c4df88fc7111c13U, 0xeb32e7180641351aU, 0x391f1a0428f4fe7fU,
  0xe4b302f3fb32939dU, 0xeb17391d131551feU, 0x5d6819d93115471eU, 0xbf29dbda3d1fe6f6U,
  0xcf1ba31cea4805feU, 0x5b0f228fe1e2ff03U, 0xcf94f5e9ff0586f9U, 0xcaff81e93b1f06e4U,
  0x4d60edbdd5603e2aU, 0xe0edbe20c60316daU, 0x52813a3b0bd80027U, 0xe2fa0fae2ae22affU,
  0xe9f72af73dd8f5d1U, 0x80deb5007fad4ecU, 0x43fce224f9e0f407U, 0x1b0808fce116e1ddU,
  0x3207e71dc548d202U, 0xff14ff0a2322d92aU, 0x2b10ff00ebdc0ed8U, 0x3410e7aed1f77f02U,
  0xbfd6f1fc30dae224U, 0xe0104e3c15d74e0eU, 0x29e9f0d9232c35U, 0x12f33cf20f3efbfeU,
  0x2b103ad024fab034U, 0x352bf1f4fe3544d4U, 0xf39a2f811772d956U, 0xdf43b2edfa063b4aU,
  0x2517bf37d9d10af9U, 0x16d2cb3eaf02e8faU, 0xe914064722f54d14U, 0x321b33b41756de5dU,
  0x221a14d1142b30f2U, 0x699dd5f124c3230dU, 0xe82314112422404fU, 0xdfc7df237f0b23dbU,
  0x1be5f3ff071d2a10U, 0x15fecaf8fcedc228U, 0xdb53d4f9dc17df01U, 0xbd1df4c427b0d3ecU,
  0x32f213dcbe1fdeebU, 0xf5281f93460dd025U, 0x2ee7c1001e27eb24U, 0xf2f80712ea333edbU,
  0x54a8e09202a1cfe1U, 0x1999272d97e2ea7fU, 0xe24ffa0d051d1367U, 0x5ef640c51ce52718U,
  0x1b00f1100855e3c5U, 0xcca89ae44aedbee9U, 0xc9e04d45330cd860U, 0x42fbbb05f9dfe8d9U,
  0xcbe30b28521efde3U, 0xe70f0b2301c0fc50U, 0xf80cf80a0d573eccU, 0xd0fa814f2418d518U,
  0xf4f6da0f53419c09U, 0x1213bfe8f6c4dc3bU, 0x3c6dee1e857ed44U, 0x12d208fb140f02fcU,
  0x270bf7fdd115dfe8U, 0x45072ae20ae7bdc5U, 0x3aed121815461cecU, 0x81f3e52edd23e4ecU,
  0xf608f70250e177b3U, 0xc00c0cfc49c7eefdU, 0x113c0e1a115f116U, 0xed1f1a49f724f200U,
  0x29e7f6ede6ee391dU, 0xf70cfde7e7f50522U, 0xb07f415e2fdf91bU, 0xb1bed0bd200f0c5U,
  0xdcb805dbee332004U, 0x4602f03c1e43ea16U, 0xd26da1d08f4d07fU, 0x2631e42dd5fcbafbU,
  0xe74cef2e2438fc08U, 0x15a01df1e2550d43U, 0x40a4caf1dddaeae5U, 0x6e8b1fa97f00c007U,
  0xf7a1311627e0c801U, 0xffc5351429c9cee7U, 0x14ef1129f0dcf1e0U, 0xc2e43aebeb17f20cU,
  0x18ecee14de3946f8U, 0x4964f3021309f30fU, 0xffb814eb1481d114U, 0xf90ffc09fee9db34U,
  0x38c9d20ff5180ce6U, 0x1fab4c4409162a0aU, 0xe402cfa90df5f4deU, 0x31d35a08bd453925U,
  0xf52604a3062ae818U, 0x3f6990254c0e1149U, 0x13f3b1f5d4c8ca5aU, 0xf06bb30f56a08c4U,
  0xdb0ec7f41aee5e12U, 0x310fe97a01efdb28U, 0xe8dc0edb0d7fb807U, 0x30befaccaaf1f610U,
  0x36f322b9d37f39f7U, 0x2d151019164611c7U, 0xf31a0dd5052a0e19U, 0xfd1c2f3ae7e6f4b4U,
  0xdbffd93a17d82915U, 0xe839d4d4b4f60221U, 0x2a1be34ddff8f81dU, 0xcd404f12229120c2U,
  0x19185003df4ae059U, 0xaafc05f9d2b3032bU, 0xf0e733dc7f5196e4U, 0xf7391be031bbf722U,
  0xd645d9f7c64eb602U, 0xaea0d20f1ff08f8U, 0x2a52c4b816f01027U, 0xe60081c253e16bd3U,
  0x58a2fd19f6791710U, 0x1b6a08f6a238169dU, 0xda3e36bb38165c45U, 0x81f030827012f24U,
  0x28b918dac71e1368U, 0x4058d72bdcc6f234U, 0x14eee6ba1af53710U, 0xabd9cb6e774200c8U,
  0xe5d01ec2f645e2faU, 0xfa812934fa0ee7fdU, 0x37e80045011ee412U, 0xced611c3ff3242f0U,
  0xa50001e2040aef41U, 0x609f24ffbde225f4U, 0x812b4b0321d11c97U, 0xcbfa0330f91acf11U,
  0xb3fc43e3e77218d6U, 0xe1112bf3000d1b1dU, 0xe8e9cf3d0d512815U, 0xd7f919c4070cd9eeU,
  0xeff990db9bf50511U, 0xe49dd5fc12096920U, 0xdbf4f12e26bd08e9U, 0x8ee132f845f02608U,
  0x13bf2125e22bf92dU, 0xf30f15eee29c2516U, 0xc5ee12cca401a55fU, 0xac3e70860277bd4U,
  0xfe463cd981623905U, 0xefe3f0d928f49b2aU, 0x197f3b1d65130e1dU, 0x2ee11322117eca53U,
  0x21d4e4fa3a3debe9U, 0x3d00ebf5dcd312e3U, 0x1f492436ff3b3a34U, 0x21292514f5ff0c22U,
  0x2937fed61843383bU, 0x3ecfdc70f1b0b4bU, 0xed2d03eec8cf43e6U, 0x7c1d9d5f9d8f8e4U,
  0xedbcb71bdb0ce0c3U, 0xf8ceead4102220faU, 0x23200d0caaf119eeU, 0xa70adcf67fa812feU,
  0xd6df1303f805e409U, 0x1016d036f3ccfdd4U, 0xe0810e0bbfc4ca0dU, 0xe80c2a2c2e22c42cU,
  0xd2f1f71ec0cee1f3U, 0x2f0763cfe3e78a1aU, 0x3725d3fd021ae9f4U, 0xedf20fdf28f2fff5U,
  0xef641e38fbf7f6deU, 0x5c07ee0dd90fb9d5U, 0xde10f8d3131320f7U, 0x239d0ce3a8fbe209U,
  0xce5701e1d6ddf523U, 0x8b285d56edfb4818U, 0xd6be06304cfde618U, 0x81d3d2f341012131U,
  0x944059917483ae7U, 0xf8ca11e0060accb8U, 0xeb57c75746e1edfeU, 0xd0911f615784e30dU,
  0xd162af22ec3a581U, 0x2906940f55bdd2cfU, 0x7d06c72830c3e7efU, 0xf705b514dcf7e5d0U,
  0x5b18d726dd54391fU, 0x204b47ef172135eeU, 0x272c11f95425f93dU, 0x24dc2b970ed40f8fU,
  0xa682b4eaab89b6c3U, 0x19b34cdb000c8e9aU, 0xfb74163f04f25e7aU, 0xcd7fb74fd420ed63U,
  0x553f181fbe43c86fU, 0xf28ed621d22e1f4U, 0x1aa0dcebc5a31d0fU, 0x57dec3f4f10ea632U,
  0xd3ea5116e1dcd8e1U, 0x2448ee2621fec540U, 0xabfd170c2b74f8b5U, 0xca21a1293a12235eU,
  0x78f52307fddc09c9U, 0xdeab2f81db0ac11fU, 0x15eeac2a0ae75d07U, 0xd0e907db81e5ee6cU,
  0x412c43c1310e4db6U, 0xdd5a231a1f4dd2feU, 0xf43fbbcfd81717edU, 0xe91ff811b7d1fa5dU,
  0xe7054d28c7aad1deU, 0xf2e020eb301800f4U, 0xeb3efbbacbe74800U, 0xf310e64be3f8056bU,
  0x553ff7a721ecdbc7U, 0x37c3363ea13a0308U, 0x46532e173015faaeU, 0x7f41cb450e2302d9U,
  0x1204033acfffe4f4U, 0xe12e2416c44313e0U, 0x40263dd4ff126456U, 0x959f91315352ddeU,
  0x33fb13df08f40d3eU, 0x4dbaef1bcdf8cf25U, 0xc6def60c0ecb045dU, 0x8c802def2fecbe8U,
  0x59e5de36bf0c2cecU, 0xbd113609e4137f10U, 0x15b4011eef0107fbU, 0xcbc6e8e0c8510d6cU,
  0xf7ade2f70c0f54d6U, 0x33e5daf9bb18e78aU, 0xa1c93fdfafa8ed46U, 0x312437d30b10f115U,
  0x7fbe5ef0e8333bb6U, 0xd2220bca0ce6d50dU, 0xb58c23fae5303d0eU, 0xccbbc9bd474f15U,
  0xe199c90c4019fbf9U, 0xfe69f205df4c1e13U, 0xece87f2339f0c614U, 0xd4d6fd32f321ceceU,
  0x649bfe771ced2610U, 0xdbe00fe5c9c83f46U, 0xf4b0f3d1d03302e5U, 0xc3d5f2eb5ae4efdeU,
  0x2bacd34f0ceec330U, 0xf032180517fd54f1U, 0x165c001e409dc903U, 0x5c51f8221530278dU,
  0x2e7fa94fd7efefd7U, 0x1297f8cee60e47b9U, 0xe3fd9613f1bafc00U, 0x2626a06b0cd1b8f2U,
  0xed1bf7c5fddb1735U, 0x23f2f7c820e50622U, 0x2453e80a19b3c16fU, 0x2407e90da97ffb3fU,
  0x13fa02b91d45062cU, 0xdf020fd95046b94fU, 0xe5092bd208c0da00U, 0xa4c9c6b7e600d2e2U,
  0x344ae7050233ea7fU, 0x34381f01471c393eU, 0x7deddd6d7e02be6U, 0x1602c7f723f4fa36U,
  0xbf290e15fffeecf3U, 0x354325ecfe25d72eU, 0x27cfef18a1e7dfe4U, 0xafdbd34f4e0b2d8U,
  0xf90d000f52d6e108U, 0x96b010a16fe1835U, 0x1425120aeadb318dU, 0xc43c1f27e306a1d4U,
  0xf1f26f04d481e6f8U, 0xe120f627f1e8b8edU, 0x3910185406151cbdU, 0x662c2fef129ed09U,
  0xfdf4e5c5260de007U, 0x4afe29fc0cc15ceeU, 0x42f3e7d1ec24ea15U, 0xcef49418ddd9d5c1U,
  0x29ed86d22946130aU, 0x2a08fbe20936813aU, 0xd714ebc5ff14f8fbU, 0xdf0494c818671220U,
  0x15371dedc16107bcU, 0xc4630413e42313b1U, 0xfad05fe3d81f23d7U, 0x140b27612b2f191bU,
  0x3630baa0e4e81ffdU, 0x71b3fc8130192526U, 0xf6c3dd173f04281eU, 0x1a67ed39d434007fU,
  0x394acb45da0d00d9U, 0xd92723e2221aafeaU, 0x21c72cedca0b620eU, 0x9541e232af59f03cU,
  0x4ad5b2dc5b3c3441U, 0x12cfd5cecf1a219fU, 0xd43851330fcae4c5U, 0x50dffd13129e6a5eU,
  0x460eed4d09e5f04fU, 0x5c21a754fc4e54ffU, 0xe917ee04230cf503U, 0xf8a07f331c06cc99U,
  0xe6bcfadc19f636e3U, 0x1e090525e0e33871U, 0x10f128fde2f0f82fU, 0x2fd32ac2a3e213bdU,
  0x765f6dcdd16fbaaU, 0xc1815f93fd21800U, 0xa1331e258ded02a8U, 0x400e7fc7c3f7fbc4U,
  0x48210e60e109ce0cU, 0x6e5def31329c207U, 0x12f4cc10c8d92bccU, 0xe42549f6f501d2e7U,
  0x8ce27fbb70e46fbU, 0xc220561ff13ceef3U, 0xc62af0f61be72d6aU, 0x2d5a425fd278a1aU,
  0x1cdf0b7f014529feU, 0xfe2a0cde02e51104U, 0x3d14257d0fd92a3bU, 0x1defec7ff9856304U,
  0x5e4835db4df4fde1U, 0x4067f2b0381cc0d1U, 0xef22fbbfba8f00dU, 0x47493370eeead0f6U,
  0x414bd81013fe105eU, 0xe2f11d2719b850d2U, 0x1530e609db11ff62U, 0xd2d0feedd547314bU,
  0xfedbd2fc26613daU, 0x8334113af1fe2bfU, 0x76b4bb32be1bdafaU, 0x18cce8f7c028faf2U,
  0x5dbfa9b211b083fU, 0xf702571a07f081e5U, 0x1a8e21edf90ca7d0U, 0xd8812920ef1cbcedU,
  0x223e328c60cd532U, 0xefff05b24620bef5U, 0x23fce128ce2c1b02U, 0x3f240b03b545eff3U,
  0x30cd3417cc3d21U, 0xdbdbbff40cfc008dU, 0x67ea52e8f3e74750U, 0xc31447fdee75ec21U,
  0x3453dc11f8efb204U, 0xe4329a20c4d0a707U, 0xc1150018b83ff638U, 0xbb8e1c0dfd321b7fU,
  0x18f5f5ed1c56c212U, 0x771031079147f1d9U, 0xfd311302bad93c04U, 0x549ee0078cadad5U,
  0x8ad9253ff8071bc1U, 0x9b506d7e50b0da2U, 0x4b03f3c3e51f1b3cU, 0x312bd81b18391fd9U,
  0x2a6633c637ec33c0U, 0xa6abdff1e19ff6abU, 0x3c183bcfe4b57f3bU, 0x8e0d4dc19cf16c7U,
  0xf71be722d1081404U, 0x26f114e2fd10431cU, 0xdda948d6f9cdfa48U, 0x2704e2eb26c4f866U,
  0xbd81fa0af3422319U, 0x916170e0810f4cdU, 0x14161ae9f814f82dU, 0x502f828f9fe1df8U,
  0xcd10d8ef7ff5ccedU, 0x4d92300e32af10cU, 0x5e8cb09efbbe7b4U, 0x1809e7ff3ef2edc4U,
  0xfb3456043bff3bccU, 0x35f360e439fd0adeU, 0xedeb222a52fa0200U, 0xf7e1059ae51ef810U,
  0xf5e5077fcff92d2bU, 0x70d26c8d9e4daf6U, 0xdbee0222d55959fcU, 0xbf0ed4504e59ead0U,
  0x12d805cbbae600c2U, 0xc0d9e52a1d29f400U, 0xe8fe1d2bc74e59c3U, 0xe70f062cfab2f80bU,
  0xbe0c0607dd048115U, 0xc402dadedfe54a2cU, 0xe0bf0df212e40b21U, 0xd7f8eebd161b0b0dU,
  0xe5d6f22f10fb1024U, 0x3631d60bf7511fa0U, 0xe21fcacf2fecd21dU, 0x7fdfd86feccaf968U,
  0xd819f5e5a944fce1U, 0xf89f26acd00b0527U, 0x2fe6eee311d42c36U, 0xf31648f40504e450U,
  0xeb0cbc54f5f8e650U, 0xd610da229fb20df8U, 0xdf2427dcdd0dde00U, 0xf2c008f801306a2bU,
  0xf7ad96e451c0d13dU, 0x1952d6e7e216f2f2U, 0x2e03dfb6bdadb3a9U, 0x11d250ceed14471aU,
  0x79fc35e00f1cf0b9U, 0xf545c8bdc9f04be2U, 0x28e5795181c3743cU, 0x441b09e0c0fcfa9dU,
  0xf6e1eb172edd14d5U, 0xcbcf061bf1d10f70U, 0x13af261bc906d844U, 0x410bca0f18e90febU,
  0x3b1f63d1eef1cbaU, 0x1010f19d925081a8U, 0xdf2cd51be6d2dd1aU, 0x64e805332748dcd3U,
  0xdc26adf60de5841dU, 0x25f31804db0d5936U, 0x9411290eaa28fc17U, 0x2e4030d24881093cU,
  0x45e600105e9f3f09U, 0xdcb821e410d6ac23U, 0xdcf426f1c7cc5f21U, 0x422da059c110922U,
  0x2dfe35ac0e18390eU, 0x1eadd817f7fb3b09U, 0x201fd9aadafb3104U, 0xaf8d2d37bcade3cU,
  0xece21ad5233cf3adU, 0x271af5e9811d0bdbU, 0x28fafb02d1ded6d3U, 0xf8022740d7c5220fU,
  0xd6ddacddef3328aaU, 0x172be547f90e2c00U, 0xfde0d44dccd7f2f3U, 0xeccccdf75609df48U,
  0x6d089ebce3eeb33U, 0xe7cdf2819b06f0d8U, 0xd9d8e83a2529fdffU, 0x12d9dfa7ec2134f8U,
  0xd2c03e90deae1f4U, 0xceaecfb190bfc89U, 0xc2532f1be62604b1U, 0xfaff7fe42eecc7e8U,
  0x45e4052e08c4f2c8U, 0xeb3d08d80edbcff6U, 0xf7c1fed41d21d6ccU, 0x2d32f3ecda34f305U,
  0xd7db190304b6f7e7U, 0xc1d2110cfcc20536U, 0x7f299b261c05d8c9U, 0xc5c02a16fb184bc5U,
  0xcbf81ec8f6b5fa47U, 0x2274d2d1d2d263aU, 0x9430e0c213e96bbU, 0xfb6b080a0a6fe412U,
  0xf112feff26ec3261U, 0x1e415bf5b209e3e7U, 0xe8b0c32d3fda131aU, 0x89f5f6df81e82820U,
  0xeec3362df31424f1U, 0xe1670a2ddf13c41bU, 0x1d0c2da72cfd0df0U, 0xb3520ec1097ffdcdU,
  0xe0cef492aff7f1b8U, 0xfd0bbfcc1afb9223U, 0x2aea3bc7bbfc29cdU, 0xd825d325b057e5eeU,
  0xe9e2f81012f057f0U, 0x28f2b0c8ebe465faU, 0x2386c3de2a15e503U, 0xf2133f091af25fafU,
  0xe420e035ee5dc962U, 0x32bf36ca6beedeb2U, 0x131bf41806e5f1d5U, 0xd8f922bf3391e2f7U,
  0xd338bd0dc15e268cU, 0xdde0be36f41f0051U, 0xda0719f8c2812fffU, 0x312120c8f1fb08feU,
  0x6323bfaddf7d314U, 0xf2dc2104c2021cU, 0xdd4e73ae6efde51U, 0x225ee7f35cbff1dU,
  0xf2042df22844ef47U, 0xe909cac12d1063feU, 0x2281d4e72ff0e9bcU, 0xf00108fffbede50fU,
  0xf418de0804c327U, 0xb3cdebcef9eaf1dcU, 0xa60ee4e7d0deeb13U, 0xdb0b1a0ae9fcd5bcU,
  0xf3e74d10fa07fec7U, 0x2c1e04d2ffd12f25U, 0xc0abe4122bfee415U, 0xb1d92f22e91004fcU,
  0xd298efbe74124dcU, 0xc12d59db4424caf0U, 0x1f26c1e0f036ec0cU, 0xa3f9003637f90652U,
  0x1be53ca222592f05U, 0xfc1ce40772228143U, 0xf8f856bf010b07c1U, 0xf31fc8fb17e7fad9U,
  0xf5d0f0f7dbfc9723U, 0xf5816f49e22321dbU, 0x20b2ed47e40ce1d7U, 0xb197de090c065f03U,
  0xf123f726d10ce408U, 0xe715cd742c382eecU, 0xdcfa2026fd1fd90eU, 0xf52441f5c4f8430aU,
  0x351142ed58e122e6U, 0x37142fe6d1bae3f0U, 0xc40837e4ba02f113U, 0x81fca950382e1cefU,
  0x34a331eec8e7215eU, 0x12d4e2368cdf0533U, 0xe0c1e4e3f7f4480fU, 0xaa0efc43bbdf7fe7U,
  0xc8e9094df701f612U, 0x3cecee1b1d3e32a4U, 0x36f416adc72fe634U, 0x1c24de2dbce35219U,
  0x8cca3e7ee13b04e9U, 0x1791f6e41505a34bU, 0xe209fed74115c622U, 0x2e31811dd11ce213U,
  0x39f43cd5fdc93c78U, 0x204fda0f22c8eeeeU, 0xf7f409e112d303b0U, 0xe5a3e6f62ef91dccU,
  0xefd11b01d9fbef21U, 0xbdcf2fec682ef4c1U, 0xee4f361537e301ddU, 0x7f0961d6921305acU,
  0x7b05bdc43aa9fa55U, 0x14dc5b18e09c2851U, 0x852aee4c66baab28U, 0xd8b6315d5827270cU,
  0xf4180b310e3628ccU, 0xb428813295efa8edU, 0xe00e0bd1e994ad1aU, 0xe3bf7ff8c2e15ec9U,
  0x3d3dd213d9f4c74dU, 0xd5dcfbc6c7be984cU, 0x5dcbed109f510f1U, 0x5ac4c3cd1af3fa14U,
  0x2eba2b052df11d1aU, 0xda42ff241732e61eU, 0x2003cdc79a9b0dd2U, 0xefeb07e0f117e6U,
  0x26f0c8c31c2c06U, 0xbc27810de5f306e1U, 0xf80630b0f8fa18dbU, 0xd9f8f6e3f818b1eaU,
  0x6f00df5363cdefdU, 0x2f907f8f94b22dbU, 0xbca2d4ef5e7e440U, 0xde8de1a2ec23e2bU,
  0xbf204dbbb152dcfU, 0xe706c6a7d1e6051eU, 0x1621c5f00428fcccU, 0x29f6d4a8c31f7f1dU,
  0x58c2f806b56636bbU, 0x143ec24b172bb12fU, 0xc5e3051919fab3f8U, 0x2d61d3d2972000ffU,
  0x2ccd99c3ae82329U, 0xb9200418308152fcU, 0x3e203cf4e1140cb9U, 0xcc46cab66b0f32d5U,
  0xeb021dd0f6dee4bcU, 0xe4e1dc1d02f9d44cU, 0xeb44e4185ed71ac4U, 0x17472b4c091f1542U,
  0xcc07e309c604c629U, 0xf41ef70ec3cb3939U, 0x112618de32f405e4U, 0xf61ec200c5f52315U,
  0x17ee53a5e2057f05U, 0x9b9fdd32d113ff9U, 0xf04e283dc5162a39U, 0xc7b3f17fb428e5U,
  0x3c6d0512ebb6e806U, 0x2fb8fcaae51503c8U, 0x421f1120b04eff4U, 0xd11f9ee50e221a05U,
  0xf11e907fa4230c6U, 0xf5f1f827dc73d1dfU, 0xf3e1da1bd8e24332U, 0xb5f0b31ee31311cfU,
  0xe9f2100ff5307fffU, 0xe8f0dc0010082cd2U, 0xeefa1b190efc281bU, 0x170a050b261fc911U,
  0xed2b1f6d08facd32U, 0x373d371162fbd721U, 0x503655c804160820U, 0xeb0dc31b33f511fbU,
  0x231e6f226524c1fU, 0x2de3b74833f4dd00U, 0x2ae11e8b8d997deU, 0x1404b47fef0611e6U,
  0xbddc331721093eccU, 0xcee73c3adea7eaffU, 0xf1f2401cc815fbe8U, 0x38dbe5d2decbc5bbU,
  0xcda1c1c4f31ca310U, 0x126944eaef2dcbe9U, 0x1b11e9ca230afbb9U, 0x192a21f30dfbc87dU,
  0x2290e000e81c0dbU, 0x244bf9f1ca250be5U, 0x4908ecf9d416ec0aU, 0x200bf71414f54132U,
  0xe7453ce51a023ce8U, 0x141ac54eb6d20b64U, 0x20d77fdbdbf49533U, 0x6afe9d4f2dc4307U,
  0x416dea4abdaf5cbU, 0xfa5a0e0a3ff0dcd9U, 0xf51ec5ced3f9f3c9U, 0x18361605bb21b81bU,
  0xe3f4c8070c03fed8U, 0xd2172535f0e804e6U, 0xd471def5c3d505e5U, 0x1028ef4603191c0bU,
  0xfe317f0c19200f33U, 0x501c34ff2115ea03U, 0x2f32fbfa1e1af0e3U, 0x730300fcd0d8d238U,
  0xf8ec1f001a22ee2eU, 0x466506ea0038b8e4U, 0x142439cc1119e8fcU, 0xe102c84fb7810fd8U,
  0xb9056b1eedc12a21U, 0xd8dfeb3232ebce0dU, 0x7fb83a06fae3f503U, 0x2510fcf34a0907d9U,
  0xca030705e620e60cU, 0x1e1ed6ef15f40700U, 0xf224fa99330800ecU, 0x26d2f7e21736f74bU,
  0xf8c9d810055f07fbU, 0x2e0f20cb47501546U, 0x43fed5f2f5dcd6eaU, 0x1a2d2a3f23f31206U,
  0x28f6e710111dc13eU, 0xacc5cfdbb0f0db21U, 0xc809f1e81025d781U, 0xe80c0ae3d748dfddU,
  0x691f7bcd7e3c11fU, 0xdbcf3e1dee16fb0cU, 0xedc61681212a4734U, 0x2e0b2ac646b5ce37U,
  0xcd08e30f09bcebd8U, 0xf74516eae8c7fd96U, 0xc3ff39c8711fcc4dU, 0xc3e9be50e62f35b9U,
  0x10ed51001822aa36U, 0x2fbf0026edd12fc1U, 0xc6cc3a00c5f738f0U, 0xc31259cbe2eb14abU,
  0xc60df920fa160c81U, 0xf4fd9cd15cfbf4aU, 0xc518003626fa39c0U, 0x37cb010410f4e926U,
  0x1e25b64bdfdfc4e8U, 0x1555595808f73e0aU, 0xde12a1c33803d8e4U, 0xb111201e7fd845e4U,
  0x1f0c4c61f908f1ccU, 0xd8dafd472804b00fU, 0x20e4da2b290f1eecU, 0xbc07ca0810451e24U,
  0x3be4330530f4d003U, 0xff29ef23c04ce5e9U, 0xca688c2a5937f7d2U, 0x623acdf60242cf9U,
  0x3d19c9c8a31869e5U, 0x26cf7689c781ff65U, 0x2bc38a1d570e3f3bU, 0x3f21c76eaf22660eU,
  0x9ee01bf72ffcf62fU, 0x5eec8913c5f3311U, 0x954331471e05bac6U, 0xc13df6e488dce269U,
  0xda811542c3baa5f4U, 0xe45df4dfbc3a4419U, 0xe47dcd61c8c3ef1eU, 0xbd1ff55fba1c44e5U,
  0xa112a4f19054582U, 0xf6e7a2f821e2f9c1U, 0xc5cec81a19d9faf4U, 0x2251d3ef58113e6U,
  0x5ef33ede0e8efc0U, 0xe417d52bf8def05bU, 0xffa23403f807ab38U, 0x3cccfdf3180413c6U,
  0xf904f5ee4efbf7edU, 0xd8e1fefaf13cf609U, 0xf9a73917b60b44bcU, 0x39ef45cc115615a5U,
  0xdf9d20094a565c4eU, 0x45eadf0818fc733cU, 0xdcefdef37e7f0e36U, 0x14e6b3ffe408c2feU,
  0x1621465936c036e9U, 0xfd1806f705d3cc23U, 0x6d7e5c4af4e2b8ecU, 0xecfb07cceb1fd316U,
  0xff3b0f42fdda14f6U, 0xebeb3f10e03d8127U, 0xc12e103fe4ddedb5U, 0x5d61fddfe1cd20b1U,
  0xf1b32a07df353533U, 0x1e99e5f598c79abcU, 0x3aa803f45e4fb748U, 0x34064be03404ea1dU,
  0xedf0f511d13f6b01U, 0xeffcfea1d0bf113U, 0x21f9991a07e0e00dU, 0x7f193a1e2c1f80bU,
  0xc149022cf22800dcU, 0xeb15f2fe187f3fU, 0x32fb33bddee6f7adU, 0xf1ec29c4120ef8feU,
  0xfff1a03072ffe04U, 0xef132c434a2bd0e0U, 0xf4b8bab9ede539bcU, 0xb929d7e6ca3721c5U,
  0x9e1cfc0e9dbfdffbU, 0x7f26d027fc15eb23U, 0x32c0f2091ae6f929U, 0x17eedc200da11739U,
  0x179e88feb4a533eeU, 0xd727ff402523e30eU, 0x12c4b8fbf0d35f4fU, 0xf19548e24160b200U,
  0xdb3cdfe693bfefc9U, 0x3ad9f0dc29e8fb25U, 0xb24d3ee8117f1812U, 0x6a1c3df3cf196a11U,
  0x9cf73afceb8b477fU, 0x2f05d3a4fc3031efU, 0xe0e8295e2299bfdaU, 0xe1acdbf944adeb41U,
  0x11d0ccf3ce44e820U, 0xea1bd1d573032f2bU, 0x5dce113bbf3448f4U, 0x298760f8d8e63213U,
  0x3913fb5822810ea9U, 0x15e52dcfeee52c17U, 0x1df9030ee9370b40U, 0x2134f1ea02b21be8U,
  0xf4dba3eef1f72de0U, 0x25c3c748f9b3b221U, 0x811ce6e613e6e6dbU, 0xee75c42001e51302U,
  0x34e70710072838faU, 0xa41071ac817e2f4U, 0x24efc3fcb8ac140bU, 0xf8c8d4dfd701071bU,
  0xff00136be0f7092aU, 0x2f1cedf92cf1ed51U, 0xda3470113d6e313U, 0xf2004a0224a24917U,
  0x4e1cb9de3d0415d7U, 0xe0e4c058ee046f10U, 0x129f1ad5fcc6e6fbU, 0xd69c87f91c1365bfU,
  0x2cf3110bea068eddU, 0x18fa16b7031ec965U, 0xed149ffae67f192bU, 0xe31e131acead09cbU,
  0x51e02935ee1e1436U, 0x2801011517b7efe3U, 0x9b1b0af142bc480cU, 0x7ffc34f811c619fdU,
  0xe313141278192817U, 0xdec9de2ec1f11200U, 0xf12afe0b30ee31eeU, 0xd1fefefc04398144U,
  0xc2f1dc0f27181533U, 0x116dfec23041eecU, 0x2d0d1637f628fe38U, 0xe3f1fd0dfcfef490U,
  0x202f11e1fafb0114U, 0xfa2813ee27f2192aU, 0x3ef611b2a11712e3U, 0xcb30efde693024U,
  0xc5f63fe3c509e7c1U, 0x2ddd2711f1fe5424U, 0x17c5edeba8b6dd14U, 0x5181f9e020f71ef5U,
  0xea272eb387b622f6U, 0x6d25e627f4e29f22U, 0x7f23f433452febf3U, 0xe300260c0cea1ed7U,
  0x120c3913dee022e8U, 0xbeb8a5ccca43f8efU, 0x145032f8f31211efU, 0x46fdcf1fdbe2e6d8U,
  0xc90ee2e8d811d42eU, 0x1e210d0e10c3cc16U, 0xedccdcb6d2b5cf3fU, 0xcf4f509ed5aac9U,
  0x21d09b2bd6df2687U, 0xb476e5eb45d3f8baU, 0x6d10e0b8b5f60615U, 0xe8057f40e368f80cU,
  0x18de2c374609f489U, 0xe194c868193cfebdU, 0x4b015e6d1401defU, 0xacac00fde3a327eU,
  0x2958ead10ab9dcb8U, 0x2f16565a2f4a0ce4U, 0x21ea6b101818fdU, 0xfd0be5f72b7fd12cU,
  0xbddaed130d2733d9U, 0x1120e5ebec010500U, 0x12a3fe36ee3598dfU, 0x1051151df82796f1U,
  0x6e09bc1f11c932dbU, 0xd8150322fa281d0aU, 0xb62e081d3c4430U, 0x53cf162bcb0bf8ebU,
  0xc72c32eb2e28e5b9U, 0xa9ed16f197060b81U, 0x2147c8ea0a3af0eaU, 0xd72010dbdef20b01U,
  0x1efe19d808d9d3bcU, 0x2cffcb50a93b1b4bU, 0x2a2716ffa1d51e1cU, 0xf30cef1ed10c7f05U,
  0x3a27edf8ff4151e9U, 0xd9d8bf0eba6926fcU, 0xec3568e4c5a55cf0U, 0xfbc92ddae10a7ff0U,
  0x28ee051fdf11fbdeU, 0xf1df0de61839d8ffU, 0xd323d91aa90e2c05U, 0x3606e2a838ee1222U,
  0x1307dbf8e5e9c743U, 0x18d01c2021ee1c22U, 0xfdb0158f60d5be8U, 0x4bd306b70a070ad3U,
  0xeaf6cc4834f501edU, 0x1adc037fc3052cfeU, 0x57bfeb6f98f523f7U, 0x366cf5d6e3413b9U,
  0xe0e0aa454bd9f95eU, 0xceb8a1330f05bef2U, 0xc736d1d606fed6feU, 0x3b2020661ac2df23U,
  0x2c320e0335d92dccU, 0x391dd4f9eff2c715U, 0x34142538063b8108U, 0x2827e7f32ef1e8f2U,
  0xf2c50fa9e1d9eacaU, 0x982134371ea4032eU, 0xe805b718e8b58e29U, 0x54d019252424f029U,
  0xa5fa14cf290fee30U, 0xcecbdebbc6c1cf63U, 0xcaf82ed41f13f0b7U, 0xf5ca6e3218f5e813U,
  0x3dedd013e2c03281U, 0xf8c42c1f22f9041aU, 0x8bb7b0c9cbfdce10U, 0x17400d7b0460d3d9U,
  0x10fd65c1d8151649U, 0x4225d8b8fab2e213U, 0xb069bd1c1214d28U, 0xd9f7e3dcf0962eeeU,
  0x6ebcef1a397f6348U, 0x4ca393605cbc7d1U, 0x1af04b542e30dde3U, 0xc491a9681ad2299U,
  0x2def16ccd43cf529U, 0x33bc080e350cf9e8U, 0xed5675f4d610cf94U, 0xf189b611b80adf5dU,
  0x1a1bf46c420c00ceU, 0x3787d0de0f69fdcfU, 0xf781fce9d5d3c8f5U, 0xe1eb12bbe92c1913U,
  0xc7fcc4fd3b0ed5ffU, 0xf300d7e0fddaccc0U, 0xff7f01b01c4e34bU, 0xf8d7e4f60bd50d1cU,
  0xf3ec1cde2c33f0e1U, 0xcff7b00146c22807U, 0xf727197f201afe17U, 0x2bf3edd207536417U,
  0xd80ad0e542b2d8f4U, 0xe40d1e4cbfe31b5U, 0x1ffaa3ded60a3c01U, 0xf10f3305432e0d2aU,
  0xe9fd8942df1cc091U, 0x9d44009210d6103U, 0x2181c1f0e7f8080eU, 0xdaf4d62b08d3c4a6U,
  0x10c6ffd16f1cd7e7U, 0xbfc90b14000dc41aU, 0x19fc1913f2defed6U, 0xd621dbf5d2a5f410U,
  0xebfc0e1406ce0bf8U, 0x33db0932f8ec16bcU, 0x2254e3edf7deea24U, 0xecfdec03fffd11feU,
  0xce12f1e203ec7fd7U, 0xc62e312c1f72bacU, 0x43bf9e4fee12d0fU, 0xf4e72831f8eafdeeU,
  0x408ab22e10ce715U, 0x422e185094df6cfU, 0x392e1f334506f767U, 0x12d8e235dae411f2U,
  0xb5cf2209ca10e5ebU, 0xc3490b140ef5f6e0U, 0x130b4af73d3ff6e6U, 0xe0107fe5d53ed3ddU,
  0x2a231a08d132e519U, 0x14e447fac7f0e302U, 0x6feeae2da1ed6f3U, 0x1f54e33f1dce3205U,
  0xc9d90514fb6f2810U, 0x381a2afaf90dfaf2U, 0xf5c607e2d4dbfc09U, 0xe40eda02152e527fU,
  0x12cadcfbfad33460U, 0xee113465e1101a05U, 0x4a14089d0304f8eeU, 0xe8ef3b1b12f9fd35U,
  0x56f339f03df410e0U, 0x2c1832c557e2e6d8U, 0x63b00643f4dddce4U, 0x4416c20ac0ffdea1U,
  0xfae6cbae0733edc0U, 0x2c2ade5d619ae69U, 0x63eb8fce7fb158a2U, 0x241d1b351b1212f0U,
  0xd32ca2df545de7adU, 0x1bdd0e6102182824U, 0xa1308615ebf03b55U, 0xf2bc33ad20cbb7ecU,
  0x3701cd0dfd08e60fU, 0x7c81ecb329ed72caU, 0xefc717e6d4303badU, 0x2f27302acd2d185fU,
  0x275f1331211515daU, 0x7ee0b3b18f4e81eU, 0x7fb9f5f742f9df0bU, 0x3811b1cd22390d25U,
  0xd7bd1ea0f219c939U, 0xef0f220e11d9f4dbU, 0x2ef20f1902fa2821U, 0xfc334ec62614a210U,
  0x233d7f34f11910c0U, 0xe9f60f18000a16d1U, 0xb20c9af1ecf61ad3U, 0xe595fc07f8db23f8U,
  0x1513c8fffcde2ad5U, 0xfc2fdad3f8191301U, 0xf691611ea1c030fU, 0x332c7f0ac40e98f5U,
  0x76ef74acc02f648U, 0x1f711d2f91113c9U, 0xffded7fffc7b42e7U, 0xdf4f18cd16ac2af7U,
  0xf023134904d4d6f8U, 0xc821441312101b3fU, 0xfb084e1f1df2ded6U, 0xeb801103be6eebeU,
  0x1f4b04036bc2d9d8U, 0x413031cf6717ff3cU, 0x32101c3844d0d820U, 0xb69fa766e881f4ebU,
  0xe7fc21084030d8c9U, 0xdc0314f543382028U, 0x38b95736c3dae9c7U, 0x7f6c18dd41c3c507U,
  0x46c8b919a3e41628U, 0x9aa203e44a0217feU, 0x3e9f131d13edd9a5U, 0x10a82ab87c1b2b47U,
  0xeafa34d64716d0bdU, 0xc8340d092c14a849U, 0x346501eca8135c8bU, 0x4ef22802dc27fd2fU,
  0xe69613533fff02dfU, 0x1b361be61746f3eeU, 0x23d409fbcdcf1ee6U, 0xdd00d42dc7e4e545U,
  0xf90781d404f701e3U, 0x2812fe09ff3acb1eU, 0x71bd694cefd5d7d9U, 0x28c6d2ced4d7fc2cU,
  0xfe9b52eeaaf4c1bU, 0x3cdbb3c9091e0b1cU, 0x283abf35fed3280dU, 0x246d81d2feb9daf5U,
  0x1cf3203c310300cfU, 0x9220402dbafd0f0U, 0x220ef8b5d2e260e4U, 0xe437f0d0b6224167U,
  0x2b402010fce4e35aU, 0x58fa23e9f8602c24U, 0xee0808afe026f11aU, 0xeef428fc38e6d146U,
  0xb92eccf22b0615f3U, 0x30d7fe2ba227eb1fU, 0xfa7f6dbf358139d8U, 0x13bfe3699d4d32cU,
  0xf0fa3b1700dffcc0U, 0xcdbe2133f1fe2555U, 0xf2afefae3ed26afU, 0xf904d5af3705003fU,
  0xa7ced65150c2ef11U, 0x1bfccf140b09bf17U, 0x13f66e0a074c41c6U, 0xe53b3e90fdd20ad9U,
  0x117175d3ed3c0bc9U, 0x35eefa36f508132fU, 0xbd4d25b8b72fcfdfU, 0x8d08f0d09a1a3833U,
  0xf5f47f0cbcef3d0cU, 0x48194194fee2fafeU, 0x331603ec1bcf2423U, 0x11440202d9104c19U,
  0xf8fa02d82ed53102U, 0xf3d283f254ff08feU, 0xb4c9d3f5091c2005U, 0x1106273ae04eb4f0U,
  0x25091e041ffbe8a5U, 0x23d00ffe231608f9U, 0x45142c041ec47fedU, 0x85adad7b21a1609U,
  0xb4b716148101e4c1U, 0x4223d80c2554cc1cU, 0x4307d5f92044e4d8U, 0x8d0a1c4f2cd614baU,
  0xd195843faf811caU, 0x12ccf7e3e83b920fU, 0xe3548a16c0b47592U, 0xbc14f2011eefecd8U,
  0x9f5ae8bbb127ee47U, 0xdae40cba815ebc23U, 0xdfd43df10f26c942U, 0x4f354729eb40b91eU,
  0xe155f31ad4bc29ddU, 0x3407d73b0fdbde02U, 0x169fff3037d42eU, 0x3d75ebf6f411e5e6U,
  0x23faadddcab9ec39U, 0xde84c6e6d78199a6U, 0xcfe40111a5d9971cU, 0x22b4a5fb11992608U,
  0xea5ffaba24500fd5U, 0xd735e7abedcbc281U, 0xe3d901f5faaeff44U, 0xf4fdd7e71119e008U,
  0xda35dada04c4e8ebU, 0x2e29ff12f1c21537U, 0x1fffebc3d81de23U, 0xfe2410d205ecf5d1U,
  0xf4062239ded425c4U, 0xd4dec2fef512131eU, 0x7402ae5ff1ce206U, 0xf6e156c3f9e013c6U,
  0xe43df930f03c1ed7U, 0x93ebaadf2110bf9U, 0x6cdcf81278205009U, 0xde6d8106f1ccbf1eU,
  0x2dfbef1f5201b27U, 0x162f0ede2cbe2e01U, 0xce5d2d2bed0dc4f0U, 0xfe05b4d5bbe1693dU,
  0xd212f951e1d222e9U, 0xfc700f5c5530818U, 0xb6244b302402e02U, 0xabe6bd5fdbebd3e7U,
  0xa591ee37f37000aU, 0xc9e9c1e6f928adeeU, 0xcc23d5f151b91fbbU, 0x5320e07e51cfd3bU,
  0xa6db2d291cf0f412U, 0x11d51d0181bef90eU, 0xe530f9f3b9041e4aU, 0x55eb8ec21e0f411eU,
  0xc414cee527260cf2U, 0xdaf2d0034906f817U, 0xea35f4f8b6e2bed2U, 0xd6320c6b141862ebU,
  0xdaec7ef7131c14c9U, 0xf2182ef8f517bb3cU, 0x1c2f021805c2e991U, 0x9fceeeed934f901U,
  0x25154bc6fb4394ecU, 0x1b0ecbcff5b67f1cU, 0xddf20d330500f509U, 0x2e9f71ce6c707f7U,
  0x124d2f101c25ff13U, 0x4eeb2fe12407e410U, 0x1d8ee27fee1a2861U, 0xbf01054fa829f713U,
  0xdef637f3cd4100fbU, 0xbfe24014f81ff8ccU, 0xc2062517c90ddfdbU, 0xad27f8b2bbbfdc6U,
  0x32101bf021f0e81eU, 0xc02526e20f03fbe8U, 0x29081d0a5ebff817U, 0x19e710a3b80dfcfdU,
  0xff06e615fb2bd046U, 0x41f1e1281320170fU, 0xfdddcf51ecd92af2U, 0xe2a40b85b0f83d0bU,
  0xc5fc14e9f10adc17U, 0xfc19dae0d72f3d9eU, 0x16b7a8aa64cfe10fU, 0xf4201bcacb6481d0U,
  0xdfda34fbedb623f6U, 0xfb2e21b06f2b9e5U, 0xc316ffb6f0070617U, 0x2f0d49204b1bd34dU,
  0x4ea1ec81462abfe5U, 0x33030b2c34d7dc2fU, 0xd4efa7271d343307U, 0xccf873f8ba185e0dU,
  0xff30fc6e675f449U, 0xce65f51b0c40d841U, 0xdee02b15d1179b1dU, 0xc52681ffc63efedfU,
  0x11d616f6e9f5ca1aU, 0xdf292f33f2b607c8U, 0x1fca0413e2fd1236U, 0x2d6eeee32d23b3aU,
  0x63e4534d2e5162aU, 0x8bfeb11e2900b08U, 0xe6470f0d1cdfe0efU, 0x89e6f01e1326ad26U,
  0x84ece3e8a95f1050U, 0xc0d8b9d96d2c530fU, 0x28e4b1153bc11f09U, 0xcf8d170625f55c3dU,
  0x73e6cfdfd88b342eU, 0xdbd373f32f2ae8e7U, 0xedc72d9e81312e04U, 0x510417ee28efe1d2U,
  0x4bc4bbdd3ec20839U, 0x2630901fd0f3faeeU, 0x52314ae2ec2c81dU, 0xaf04cbbcf7292a3aU,
  0x12c211e2f5550af2U, 0xd9ce3e2ff206810dU, 0x663e73db5e2f15daU, 0x31bf7dce90c0328U,
  0xe9f4abd2090b8190U, 0x3bddf6d053ec417aU, 0x33ca380af107050bU, 0x4ff57ab6e24f89feU,
  0xefbc3af34aa2f518U, 0x76511810de2dc954U, 0xd26e3269d40c7dfU, 0x2f80ccf35f30fb3U,
  0x9dd2f09d511edf5U, 0x4d1de1f4626d50eU, 0xd42938edee170df9U, 0x29ddfb31125181U,
  0x5050b2cfae1f31cU, 0xed3d201aef1bd4baU, 0x28da2bbce117e6eaU, 0x2401a1eadd22da31U,
  0xf9d8e915db1ae0d6U, 0x61d818de2b42eff8U, 0xa0238403db25afc3U, 0xecddcfb5dde9f323U,
  0x6d2fa819fa321ca3U, 0xdfe4ae1a05ec18c4U, 0xd747f8057f5013c3U, 0x262a2afcda05150aU,
  0x6fe1cdada50e0efU, 0xd30ee5e908e8ff30U, 0xf7ee0350e31c12ebU, 0x9e03ee10d1ad121U,
  0xace3e0f00be3191aU, 0x35b2fd217f27f704U, 0xe1006108172e014fU, 0x384f0fcff8f7e6adU,
  0x4e0a2da30274e16U, 0xf0e01f151718bb43U, 0x13942f0464d93c2dU, 0xd845e3f0001081edU,
  0x172612fadf38dc24U, 0x30ed4a36c6f915ecU, 0x3ba01128ca1a5df9U, 0xeface63fe7c6f16cU,
  0x2153bd47fadc2c05U, 0xf823dbbcd1f0b835U, 0xbfbdf4884251e6feU, 0x22c20cfa816f13f8U,
  0xe2c9d293d409aeebU, 0x43f2f43cebdaea30U, 0xf80f30f7be19132fU, 0x153c50ffedb30c3aU,
  0x7fe15e11dbe1110bU, 0xa7c4024800fee5f7U, 0x144707e406a2e9d8U, 0xae6d0fcdfcd805efU,
  0x31ecef33eeacf0f3U, 0x18c5e22259351a12U, 0xe8cd4e2428165131U, 0x73b1414d202f6b3U,
  0x29810c230502cf13U, 0x23afc613ff6f47U, 0x3afc693fe03f96c8U, 0x1d152ef8f2460b9dU,
  0x38f33e37efd11ab2U, 0xfa281de206bde85eU, 0xf50c1840af08b7dbU, 0x220f11f0f16f3adU,
  0xe0d429d57faee4ffU, 0xe3dbd3e6202a2eb7U, 0xe05defde31092ec6U, 0x1304edb8229ce603U,
  0x430600442f81eaacU, 0xa9c2331c022eedabU, 0xe71f0ae86e11219bU, 0xe00300bff6f057edU,
  0x390015b1e61cd1afU, 0x900aa453ff6df99U, 0xdc4b502ff06f2e0U, 0xe90ce92f104c1d09U,
  0x1e06ae26cc7f65fdU, 0xeff8c4f11b1124dbU, 0xf0dfc3fd70ef002U, 0xf1e7fa0a193e0eeaU,
  0xbd17eeca1d225be8U, 0xece558150400c9e5U, 0xeef102f81dd629dbU, 0x2f12ed050c0b19e6U,
  0xaa5dc8e410defcf6U, 0x12fd1c4af43f8e05U, 0xd31eae46dedbe981U, 0xd82594a212729e0U,
  0x26d73ef9ab9fe0f2U, 0x58c8fc16bec5112cU, 0xce46796628c07d51U, 0xdca7e3bc48d1282bU,
  0x10de09b1abd2e1e0U, 0x1ad89df3f2a3e2eaU, 0x2812c72f811905f3U, 0xce23bb4b83040dbeU,
  0x8c2658d20aba29f2U, 0x1e0c0ceb02f3e2feU, 0x82b3a28d5ff03ffU, 0x2abcbccf33cc31fU,
  0x267ff2c331e9c75eU, 0xc3319c57d31211b4U, 0x1b0ed81010c20834U, 0xd322a039b11326eeU,
  0xb254754c823b620U, 0x49f909e10c0047beU, 0x50f07d84425c98cU, 0xf6d8e0173e09b8faU,
  0x8c48115cd36fb26U, 0xbd310e0be9262c1eU, 0xda1227d2afd52b27U, 0x24c50df826f8fc4cU,
  0x2df15a8dd2cec81U, 0x31eec13250f9e4f6U, 0xcd2c372cd62b18adU, 0xe9d30f4928ea14ffU,
  0xcd0623f209fc44fdU, 0xf5e4dbdc021b1fc4U, 0xf9d12022c0f701d4U, 0xefe04cc3ddd9302fU,
  0x5adecfeb22e5f718U, 0xfb5a2a0a1c39e2d8U, 0xe927edfff5b4031eU, 0xe0eccbf41c1cf52fU,
  0xb1fbeb2f40a2dd1U, 0x5616cf05fcd9d8b7U, 0xdf0daffca812dd7U, 0x4e815df171a08ffU,
  0x341f22f4e345420dU, 0xce81b2282f172e4eU, 0xec10c1f314daf11bU, 0xe6c6210eec07ede6U,
  0x28f7b62104a9f845U, 0xf4f916d1230ef9e3U, 0xcc37dd19e9fe98fbU, 0x3eff0572beb10b2U,
  0xcda14cb203e8c4e5U, 0x12eece66ab0dc835U, 0xf50d2c0d1e3fe5baU, 0x3bff2db9e81ef39dU,
  0x1d2a7f2df023ef3dU, 0x494a13d4ffec3ae1U, 0x2bd3c9e744e7e6dcU, 0xfa2ff0f7811406fdU,
  0x409835e8e907f110U, 0xae72c1efafc2326U, 0x100ce3f6f2dcf82dU, 0x20dbf6273521cde4U,
  0x1e13f7e91412fc0fU, 0x310a1bff2cbc13efU, 0xc013e168b912edd3U, 0xf2d60fe94eee0b1bU,
  0xf1ff6e506270708U, 0xf406e82c43e2031cU, 0x291c43f9e42efff7U, 0xd2a210dd313f6ffU,
  0x1bed7f0bebf6090dU, 0xffd7521f96fadafbU, 0x980e1b2c123dcdddU, 0x231edd270ce33219U,
  0xc5d09edcef5b173bU, 0x4640cc00c3ba4010U, 0xec17e629384808efU, 0xe22e150702ea0244U,
  0x45f80d1e53a24908U, 0x9f6057ff6dde442U, 0x8147edf4e30c5b3fU, 0x310d0325f4d431ddU,
  0xcde5209ebf1eedc1U, 0x3303e60cf9dfc61dU, 0x21aa1325f9f2e239U, 0xdbed2cbd0aba2b06U,
  0xff1d402dade00cdU, 0x28314ef8964b25eeU, 0xb512f3e61c42bfd5U, 0x35b2c62aad1fa1d6U,
  0x53cf474d0cce26bfU, 0xe077262505d6f0ccU, 0xfc09d1279efa2d81U, 0xab52ddab3b1b10c8U,
  0xedb006f936a2e600U, 0x10d94305a8344520U, 0x6efff32b21c687ecU, 0xfef76806252849c0U,
  0xf46d16b421ddf506U, 0x2972acfcbba2a900U, 0x2ff4cfd5d63eb7daU, 0x217225ff6bd8a6bcU,
  0xb37fdf2f20084fb0U, 0x149e1b361843d79bU, 0x935d93d474fec03U, 0x2170fc85cac0bc9U,
  0x86fb0e52efa8f21aU, 0x45fa18e5025202ddU, 0xfcef20bcccd3b95aU, 0xa62cb80fc0d1d5dbU,
  0x6db2d7100c1cc1f6U, 0x73590528da81063bU, 0xfdf70e2eba05bdd1U, 0xf3ffe30a8113b230U,
  0xef3a93f112f81ee4U, 0xe31d17f6f2032229U, 0xcf9c1df3201ea22U, 0xf5d02cb51515340aU,
  0xd53d1d47092202ebU, 0x71a10d38d41ffe15U, 0x232bacf1d267252eU, 0x207f4e4730bd25d5U,
  0x3101ede0f1e00423U, 0xceefa3f3d13059aU, 0x15302f60ad2316feU, 0xb7b3f702c9071343U,
  0xcbe733b4ebf3ecedU, 0x2fcfffedda572cadU, 0x18f30ca5eb1ac42fU, 0x973703ec4b0b4500U,
  0xbfc4fff640e316a6U, 0xb8fdf0121ed5dee8U, 0xb7febdf908db201aU, 0x917db0a62cec6e8U,
  0x4cc75efff8cdffd1U, 0xca0b0bfbfe1a0ce8U, 0x517f2dd9U, 0x0U,
  0x0U, 0x0U, 0x0U, 0x0U,
  0x0U, 0x0U, 0x0U, 0x0U,
  0x0U, 0x0U, 0x0U, 0x0U,
  0x0U, 0x0U, 0x0U, 0x0U,
  0x0U, 0x0U, 0x0U, 0x0U,
  0x0U, 0x0U, 0x0U, 0x0U,
  0x0U, 0x0U, 0x0U, 0x0U,
  0x0U, 0x0U, 0x0U, 0x0U,
  0x0U, 0x0U, 0x0U, 0x0U,
  0x0U, 0x0U, 0x0U, 0x0U,
  0x0U, 0x0U, 0x0U, 0x0U,
  0x0U, 0x0U, 0x0U, 0x0U,
  0x0U, 0x0U, 0x0U, 0x0U,
  0x0U, 0x0U, 0x0U, 0x0U,
  0x0U, 0x0U, 0x0U, 0x0U,
  0x0U, 0x0U, 0x0U, 0x0U,
  0x0U, 0x0U, 0x0U, 0x0U,
  0x0U, 0x0U, 0x0U, 0x0U,
  0x0U, 0x0U, 0x0U, 0x0U,
  0x0U, 0x0U, 0x0U, 0x0U,
  0x0U, 0x0U, 0x0U, 0x0U,
  0x0U, 0x0U, 0x0U, 0x0U,
  0x0U, 0x0U, 0x0U, 0x0U,
  0x0U, 0x0U, 0xaec2d9cd00000000U, 0x44db2e0705d3e800U,
  0xff645d21b2cf5f6U, 0x243316ff150cdaU, 0xe005f5faefdbfa1bU, 0xc1f4f7f5bf2419efU,
  0xd1d3f5dce301cf19U, 0x3acfe3eff4f1d334U, 0x113e376dffe156edU, 0xbf2af61055fcc9faU,
  0xa4163b38d8283be7U, 0x35fb1bf327fd22ceU, 0x4039090113254417U, 0xff13adf329df3a20U,
  0x12ae24ea05fde20dU, 0x3f13d2b61ce3fee6U, 0xfe15f8c81fd629daU, 0x5ab8f219ed97f614U,
  0xf905f710d923c8f3U, 0x9fdfd90905d9ff20U, 0x82ee3250a3cf409U, 0x6a09fb36cd095cfcU,
  0x2c047f40f1dcc3e1U, 0xcbd71a2afa1efd50U, 0xc7dae11603005204U, 0xd139faf3da37f808U,
  0x3ee459f50d1d1c21U, 0xe33c4e6b2731130cU, 0x19d21f44d3c6122eU, 0x84d18e3e2efce62U,
  0xde1a1f1ea5cffce3U, 0x3c157f745b6f9e4U, 0xdfc2e4fbd5eaeeeaU, 0xe7fb22d24935c4d6U,
  0x4c32c11f2dda39cfU, 0xecf03eedd1f7fde5U, 0xf50c3d1e2af8da0dU, 0x432f81157a055d1cU,
  0x592f1cd805ed651dU, 0xc820ce30fe2dbf20U, 0x1ae826f921c01160U, 0xf2edeb23eff323f7U,
  0x2a44d81ba7ffd33aU, 0x5de30daf6127e941U, 0xce08f3ece3cfdceeU, 0x2536003b13d50c22U,
  0x618c715262f1a09U, 0x91c6d0113310dc09U, 0x1c1ff7090cf32af8U, 0xd8b4f319c30ed1U,
  0x6c0feef2c10ae5f9U, 0x15f81602e609d7fbU, 0xea04f50d10f7f9f7U, 0xf6ccd90a0c3106e8U,
  0x1811efdfdbe82500U, 0x1bee2010eb19ddbfU, 0x3d05db19caeae201U, 0xdcdc4fc3081ecd7U,
  0x11d4111c1cfde65bU, 0xf805f806eac4eafbU, 0xf0e2a41af8370329U, 0x19ec21f9fe18ef0eU,
  0xfb142c11f8e1b023U, 0xe917febd0a07eaf9U, 0x12fb033f01e0ea20U, 0x21f9d119d407e3faU,
  0x160a2d04eb34cd42U, 0xe4d41707a60a0fdcU, 0xea08d73b18f00d28U, 0xc9da04ea0f05150cU,
  0x240f02fdef6e871U, 0xf144f004c6e1e52fU, 0xf3e8dfe624d91514U, 0x251124f3d1e70807U,
  0x49c2e4f9c807f4ddU, 0x4226f8fcce053c1eU, 0x9a41d1c7f43f9ceU, 0xbeb7e9a4fa3db54fU,
  0xfb30070930483629U, 0xc530f7be1d1a0002U, 0x1ae6e7c027a1d222U, 0x6c2acdedfdf7e4f5U,
  0xf2c96931af1914d6U, 0x3a5de72eed234e09U, 0x3ffa0359c3cadd21U, 0x3a11e0e33e13ad4eU,
  0x3d23508609cdd9eeU, 0xdab716e49bcbcc04U, 0x2439c500febfc7c6U, 0xe33c1f8720f33cc2U,
  0x5510d102e5b6e328U, 0xf425efeb36c1f736U, 0x1a4b3cbe5d2d30afU, 0xe6b2b8e51a29df0aU,
  0x20311e25cefc3ee0U, 0x1a39f1fdf4210160U, 0x21eb50ed7d01e5bdU, 0x719debbd2edd30dU,
  0xdd00de4df409eb08U, 0xc20fe1eaee16ea1aU, 0xdca61b025c2539e8U, 0xd1b313b355b3fU,
  0xf6e00ed3ebf3ff3fU, 0xc1cbdedb19fbee1bU, 0xeef4d2ecd5040f27U, 0xc9fce37fe61d107fU,
  0xee12f7eecf503100U, 0xe2c0d6bbc9eb1b12U, 0x3925f84ed1ea1a0cU, 0xd9dc3aced91ad5efU,
  0x4ff8d61fbdeb6ecfU, 0x52ff18afe6c1e311U, 0xeb0dfa0df41a2721U, 0xdbae00f4e91e1715U,
  0xeab2d30517a5334eU, 0xf2ec28110c4ff3f1U, 0xd31c1df3fbeed9U, 0x34fdf9c5110ecf5bU,
  0xae425dafbe6dc54U, 0xf323d5331ff7d827U, 0x1b3fbc1cf436ec27U, 0xea003bffcd9d42fbU,
  0x2d141cebcef6ee07U, 0xd433e332e819f816U, 0x2547742d51030bc9U, 0xfdfaf8ea0ff8dbd8U,
  0x420c7c90604bdf7U, 0xc0f71f06e6d6f9d1U, 0x20ea5143f44e4f7U, 0x333ad7240d49de20U,
  0x2cb6ebcdaf4a6d28U, 0x28350ec4472c3ce0U, 0xfcd5ca3a15121607U, 0x17b8c8e321cdbdfeU,
  0xff19fa34375e0a1eU, 0xe26f31d1eac3fe6U, 0x220ebaed06d4ee1fU, 0x2ba5c2c7f6e8bb29U,
  0x5db52e5f1a4fdbfU, 0x210928d7effbec30U, 0xe52be9c80f21fa1fU, 0x29ed0a30bfde1e38U,
  0x209d11d16a70d18U, 0xd2acb352d03f9f7U, 0xc70bbbcf1a2cf681U, 0xf9e2fdf417a4e00aU,
  0xe6eff1f0fae5d6ccU, 0xa270039e9e91cd2U, 0xef1a27d2f1ba22ebU, 0xbe191bf7151ced0dU,
  0x26e8631f29f4f410U, 0xcc9ece4de20f013U, 0x29e1173bd50eeeebU, 0x1cbbdbf52d051705U,
  0xe2e3063c1839e607U, 0xdffb082503240d17U, 0xec1c0226dc0da434U, 0xdaf5e51b0c133116U,
  0xe3150ab54756f4f4U, 0x12161c3d217f1901U, 0xbcd2c1428f91c12U, 0x23020122fb24cc35U,
  0xddf123e5a32b4b04U, 0xe1cc1bcbfaf028faU, 0x34fffdbfe8f30003U, 0x98584c7c5eeefdbU,
  0xe6fc61effef207ddU, 0x1bd42239e7fdeadfU, 0xe414c3e3eac20fdaU, 0xfce034fd27ff05caU,
  0xd1e307cff03cfaefU, 0xe235c4e4f8f6cb0dU, 0x3848aef60ef3c306U, 0xd0b542ec4907cd08U,
  0x39cef108e4f281fbU, 0xfee4e12cde121ee9U, 0x1148133e12e9dcf1U, 0xe92d447d151e061fU,
  0xcc22fea3c3faf413U, 0x41e3eb3029e658feU, 0xacf2e24104f4e7feU, 0xe12fa9b8fa4d0fdbU,
  0x1c18da20f2ebc125U, 0x2d253200c70ceb00U, 0xa90df01e21cc141cU, 0xd809c2f614e704faU,
  0x2724eeefc52617d1U, 0x63f501dfe9063bfcU, 0x1107bee3ddd2f257U, 0xcd41fef712c1efeaU,
  0xe21103f5101a27c4U, 0x18f012d0f41706e6U, 0xef74b04374cf021U, 0xeb32337f0d05350bU,
  0xef1126344123b8e8U, 0xe51308c0cef3c14eU, 0xec2f190eefe70737U, 0xa340d48e4fb3616U,
  0x968e1fa2dbcc41bU, 0xc107f3f3281e4bf0U, 0x35cd4c1511fe2633U, 0x1817de112b4428dfU,
  0xc7d02f1601ca44f7U, 0xb511ebacd70707d3U, 0x122730c420f72a44U, 0x1c640414f9e35f21U,
  0xfbf8193917f80276U, 0xeaca45f1f12b1635U, 0x1ffcf8f8dc01fff8U, 0x28141ee1c1e72109U,
  0x1a3a33db3f02383eU, 0x53621e22d0edcf8U, 0x2dac2df815c6c61dU, 0xcfaeb0eeefe30ccU,
  0xf001ccfd1edc409aU, 0xfbc93b433d061f64U, 0xca20234500f911ebU, 0x16093405162801c0U,
  0x1e02fe510db3feffU, 0x4304f9c2f4c1000aU, 0xfcd7c0df3bdf1211U, 0x231fb42082ae307U,
  0xfdf41b31e50cf912U, 0x16e1fe490f09ff3dU, 0x27fa2fe2d8b538c8U, 0xd0571ff64df90067U,
  0xff21f5e95af9fbd8U, 0xe50af20bc6ebc32dU, 0xf51103e1abfeec45U, 0xfedc24c93c1e23edU,
  0x60338fb2c12201aU, 0xc7d9b4ef008115e4U, 0xbc271dfd43dbd3bfU, 0xe917d14fe8f42904U,
  0x4040027c7f510e3U, 0x2906c92ade2acdffU, 0xe713263804480004U, 0xc201fff3e13d02e4U,
  0xdcf3184701f52cdcU, 0xd27fb28d05b1c0cU, 0xc831f308a6b4ee11U, 0x1be5eb0b03821212U,
  0xaeffa1839e600eaU, 0x5a2606fddd2d0bc2U, 0xced206dd67270d3aU, 0x2132c8246fd227bfU,
  0x271af6000115d3c7U, 0xb80f33eedd6afff4U, 0x32f1de8bfe2e145U, 0xcad7ef2639d65cf6U,
  0xc004f9e212c36500U, 0xe93d3d23270cef03U, 0xac160e511716f5e2U, 0xff0b18f547fbc603U,
  0xd5fb1320fd0b0fe1U, 0xb200dcd81664e6f5U, 0x11060205430126feU, 0x2b0521dcce4a1223U,
  0xf401f743f4f0a162U, 0xacd5eb1efaed0df1U, 0x3207bbff12f01f5eU, 0xc1cb0bf6b5bcb225U,
  0x1a27eaeffaeb0fdaU, 0xde11f8070409f203U, 0xf1e2f7d1d1f57fbaU, 0xe3e9f02cfc9dcff4U,
  0xc921f4252e0306f8U, 0x20ab1e64d0f1cd8U, 0xdd0ac8cff7c30f4bU, 0xd8ef01a37fce0bf1U,
  0xdce7fc09daee49e6U, 0xb9b3c747d21f1217U, 0xf818f7a3ededf6ceU, 0xd627fef22311f5c7U,
  0xd4ee46eadf21e248U, 0x35d6f21b314a0381U, 0xe8f5d91b42f4062dU, 0x5107e905e3df51b9U,
  0x28da1f0309fb211bU, 0x2745d5552b0766ddU, 0x2810eee74299abd4U, 0xed990cc9e8fe0a32U,
  0xd538f3d53bcedb30U, 0xf1fb0eed43eb01e0U, 0x170bd228eedfea39U, 0x1be406352c5ee508U,
  0xfa1fdb0de90dca00U, 0x33c8ca2e04cffc0eU, 0xb710e60ce94b0ed5U, 0xfed4d4ed12003310U,
  0x72314bdfcf1d65aU, 0xc3a5ef1330e41e21U, 0x17f6a0f5dbfab716U, 0x32d60ce73544d6f6U,
  0xa06fc30dc0f0665U, 0xeef2f7ec5a2aeed2U, 0x42d0c1067b12c5ebU, 0x1813d7ffef0d3b1aU,
  0x53d5342ae41f1ed6U, 0x14dfe1f1f6bcd3e7U, 0x4cef0dc4244f113eU, 0x21bc1cdfe270f19U,
  0x8100f2e2e3f13e1fU, 0xe7c52219c5d5701eU, 0x4809b5fedb241bf6U, 0xe7022e3ac7eb41cdU,
  0x6c03cb20f43ffad1U, 0xb66ff4ea4ce91aa9U, 0xf516f8f0ddeb1133U, 0xd02cfb0d1c28f015U,
  0xe604ca3e1c25d4eeU, 0xe762c4fe45e4ee32U, 0xef2d0d583101e8baU, 0xcf220ae3e9f1ae1cU,
  0x1748365a5e1dc913U, 0xff08bf07961822b1U, 0x19e5dbfff2493123U, 0x10e1143ae808fb43U,
  0x203719b1fbd72eefU, 0x1b1c14eb91f3f0fdU, 0x3814ee2f250fbc20U, 0xe5d50afcd5490efaU,
  0xce12e832f91336adU, 0xe1dfab0c10d203feU, 0x5eeef5454acb3db7U, 0xed1a121d174ce6f1U,
  0x4522f1537e0d421U, 0x10f733101fc9cbdfU, 0xbd9ca51cbd31c7e9U, 0xe40fecf2fe34bd3eU,
  0xe92498c7036c4081U, 0xfe22180d0519e024U, 0xd246c7d7d5ba2bffU, 0x9bfefcfecebb3607U,
  0xfae9020c5c05e6fbU, 0xf5b8193df6e2f13cU, 0xeecaffe42f381319U, 0x1bf4e905ff1d4100U,
  0x11fdbe223c301203U, 0x30ebfef4d2070bf0U, 0xf0b913a929e626ecU, 0xebe0fda217c1da34U,
  0x1de70ae4ebc91b08U, 0x20cd17e5d5ec00d5U, 0xa4e81406e710e02cU, 0x3fd2b5fc2a100dbbU,
  0x28fc1efc2601e6e6U, 0xe1030606f4208af9U, 0x12709c647f81237U, 0x8411af618d6dee4U,
  0xceeff90826ce0a0dU, 0xe3e60720ec250727U, 0xd2d5cb0be8fcef4bU, 0x1d06bd303ed2f5ddU,
  0x751236e4ebfadf00U, 0x4e639c20ff57ffeU, 0xbf0273902fada23U, 0xaef110e932e0290fU,
  0x233b27dbdc20f5d5U, 0x44de02d2f82d05a8U, 0xe101eaf314ffe72dU, 0xdcf7220723e4addbU,
  0xfbdb5a0cf9eced4dU, 0xaee0deddfd0bd13U, 0xa00d1e03e4cd8f49U, 0xafe83c1f37daeb2aU,
  0xe30bfbfb066b6a0bU, 0xf4e711ce3101c2d6U, 0x1612d1fd4b572ecaU, 0x370a51f31af20ae3U,
  0x10fa2820ec3be507U, 0xb1325cc7e0f90fe8U, 0xfeeae5ecc9e70e0aU, 0x16bbd5e705bfe500U,
  0xec453ce20add0130U, 0xe50a2d0499de3822U, 0x3f18b2f4faa4f106U, 0xf133f71c10e80734U,
  0x1a0ae901591f3c3eU, 0xd30aefb013dfe0c6U, 0x4af5221700eaf3e9U, 0xa926aee1e849d758U,
  0xd0e4f1159a0b2b18U, 0x3a7f0924f5f2b601U, 0xe80d2a48c91ae8feU, 0x4a271722f3c9ca0bU,
  0x98109100ac82457U, 0x6810d32adb4dfae4U, 0xf418190aea4fcf2bU, 0x8ee1fa800f600d9U,
  0xc0c060ad2f8ff23U, 0x20fdf7eef2fe0d2cU, 0xf4f01728f107ebdfU, 0x1fc222ed8611f306U,
  0xf024272adfb2fafbU, 0x8bdef1df1722e423U, 0xec16320ebe290ee4U, 0xf5b40c12e42e2d22U,
  0xf4ceb5f8c9bc12a5U, 0x31c0fa67e0e7e101U, 0x4b08f637220d1a37U, 0x9c100b63392e852dU,
  0xfcff194d2910d51cU, 0x4fcd735fef8e6d1U, 0xd32a3efb09ffe612U, 0x42d8c6ef07d604e6U,
  0x28e3ceb10200ba09U, 0xeeed14c093211806U, 0x161bcc10d605efc4U, 0x27d6cb04c018ff31U,
  0xf03fe64af2b8cd2eU, 0x39e812a3ebf92611U, 0xe9d5bb163bdd0532U, 0x3d0fe7fe2628e0faU,
  0x58a51a33dd10c44cU, 0xf8d3cee50bebe5baU, 0xead7efe6f6ecbc14U, 0xd115ef25b7091f7bU,
  0xa938ba271bc40860U, 0xcd11e41fd774c147U, 0xd5ffe70dfee8560dU, 0xfa4c154f0efad2dfU,
  0xeb1f7ffe1f07cfd1U, 0xd3af4507ebcfd712U, 0xef30123862ec2601U, 0x25cb5540f7e610e5U,
  0x114807db3fefe7ecU, 0x211434220feef510U, 0x55e2014b0bfef8f3U, 0x1cd0f3f7c767d3dbU,
  0xf801057243d2a4e6U, 0xcc61dc3d1049ba1bU, 0xf73dfdc8cece4803U, 0xecd7dc07dcdedf0dU,
  0x65d720bf16dff80eU, 0xd69707b52034cbU, 0xf120f503cb2b0029U, 0x1eb1b135d11fbe3U,
  0xe4f4201cadf722aeU, 0x4d07dd356ff80ee0U, 0x409c70fb7405819U, 0x3f610bb1d1216abU,
  0x1600283de7130409U, 0xd5ec2daeca47dbe7U, 0xd512d9a51e1e7f3fU, 0xb82520031b0552d7U,
  0x193a1bd3e92787f0U, 0xf11e02284a0f30dU, 0x50dd9fd470251fdU, 0x16b6c33211e3d0f1U,
  0xd3f0d660b9e4e215U, 0xf82496d0c2072b09U, 0x5fdf6f711e307e6U, 0xe9192f2122f223c4U,
  0x3f8b0d5100bfdd1U, 0x6280f1c3ec7041fU, 0x2c00d4bf00aaffddU, 0xda215d02ff0248ffU,
  0xd09a1e39165ca0b6U, 0x432dc8eb30092426U, 0xaa07240426310350U, 0x26ec1cc52ae2fa36U,
  0x3b2ded210213f215U, 0xed450d00f5135411U, 0xed2100eb3f1fb730U, 0x5f901422dd251942U,
  0x1f4504cf5029d301U, 0x6d3eb2a81c61853U, 0x44e4f2f1d10f25dcU, 0xfc2614c9111505b9U,
  0x11f30e3e21403823U, 0x8f1e7621d06d9e4U, 0x2ab846f9359c1334U, 0x6154e254ed25273bU,
  0xf5383c220e0feeeeU, 0xecc01cfdccbdcbd2U, 0xd9c11206b8d81f0aU, 0x5d1e03e0e9dcc921U,
  0x320a2e9fd1d6fe08U, 0x95d7da28132bf115U, 0x15332b5f2b281ec8U, 0x7892ebd1eb2df5d4U,
  0xd9449606f0352e0fU, 0x6718dd28f4433b2cU, 0xfa09e72501eaf1e7U, 0x70043fcc31b312bU,
  0x38f8420fc5e8dec6U, 0x51b0b32bedb43fdU, 0xf4d5bb08ecf21796U, 0xc2fbe50d34e0141bU,
  0x5e3a24fcbf585608U, 0xfdc3e41505028bdeU, 0xe3bf05cb1d2c25d1U, 0xf1c9f859f5dbf6f0U,
  0x177f1a1d4117f9f6U, 0x140ae268002799f8U, 0x1817f7e0c8fdecd7U, 0xb9cdd4b9fd2203d9U,
  0xf5f423eae95add2aU, 0x4ae4c9dcc63cb9c5U, 0xb9312ae941cc0c2aU, 0xcd065f9d97f5240eU,
  0xb045addecebe73bU, 0x6e0d7dadfe443c3U, 0x27d4f913aadac605U, 0x222324fadd30ee12U,
  0xb1f0420b8012b36U, 0xdd0bcc02c5def767U, 0xf230b3ff1e280cefU, 0x17dd1039f61eef4fU,
  0xc533faf0e4391020U, 0xf4e8eeebf319feebU, 0xb3e52909fee326c3U, 0x3728e711dff97fcbU,
  0x143a4014e6f0f701U, 0xcd031233f61d301eU, 0xe633052ae8fccbf8U, 0xa4c11d4f9f138d8U,
  0x1e2b1cfc1deafc19U, 0xf813fb1e0af91de1U, 0x110f4d1c00372664U, 0x2d16cef0c802f73eU,
  0xc3290721da2cd9e5U, 0x44cde1d5d8f3c604U, 0xcc0d3400de82624U, 0xe1301b0221e048f6U,
  0xf613edee1d13c2fdU, 0xfff0145270b31eaU, 0x28e454d7f12535eeU, 0x360499ce26b13ed0U,
  0xffedbed6fee124ceU, 0x2c22e847bde81004U, 0x9fdbfe9d7f73a81U, 0xcf9ebf29e6e1cd52U,
  0xf3d1b82212e74e03U, 0x11d809f986d62af8U, 0xd41efbefc94bee01U, 0x8d413f5f09fe4beU,
  0x1458061d41de50b4U, 0x260e0bbecd28c7eaU, 0xdf780e17fde4e33bU, 0xabeaf94920f30318U,
  0xe7e8e932443c0beaU, 0xc820bbe7fc52b7b9U, 0x1e3d291225940afaU, 0xd184fc38e6e0e5f8U,
  0xc37102151848fa93U, 0x3cb407214a61cfeU, 0x14d5ee5edaa700d5U, 0xf1e907112b4ec8bfU,
  0xea2f5ab61be2ef09U, 0xfcf12be0b3bb1f85U, 0x615281b4eece3d2U, 0x330be20d35af264cU,
  0xed243ccff229aee3U, 0xf4e814baf411bcU, 0x5bf3d017fb3728f6U, 0x18d8aff4050c11fbU,
  0x835bc115f517c54bU, 0xaff4dc2de00136d8U, 0x46db58de04162911U, 0xc1caf6d3e5f9c1c0U,
  0xd6b3e381fcf20d96U, 0x1d1113ad0d26be3aU, 0xf1d0d60c300feb1bU, 0x27d617592e606801U,
  0xd6d7686ee238c521U, 0xd64ae7c29fdf0207U, 0xf7f7e90c291528ceU, 0x1a313fc92227df10U,
  0x27b5d431e225ee0aU, 0x330e940ebe32345U, 0xf00725e9d41b0831U, 0x2efddcf00b6711cbU,
  0x36ebeb0b2ae53429U, 0x5c379e004822fff1U, 0xcd1dda0807873b29U, 0xedfd0d0d40e3e924U,
  0x26febadc570fef04U, 0x72ef3cd3b1c2129U, 0xce48027ff732d3cfU, 0xe3cef9002ce7a830U,
  0xf60adaf7f39a24ebU, 0xeba043c0551e6faU, 0xd356ff44530f818U, 0x1ae21322090fedefU,
  0xb1e801f3f7dbecd5U, 0x251fcf3002120db0U, 0x332e062f2b41b3deU, 0xf2f5e6ea020423e8U,
  0x24003b42eed002f0U, 0xe0e3fbf414d612e1U, 0x27e20fe6192cfed3U, 0xf4ea2dfd0510ea22U,
  0xfe02cd581a0afa0bU, 0xcefe2229e22de62bU, 0xd3d6441c2faf2200U, 0xe4c3d017f70b0256U,
  0xe2042e021809f8e8U, 0xac4d5ebf416f1faU, 0xbb3b033302c8e3e2U, 0x855ee6ff47f16ebdU,
  0xe1ebec600cb5fbf1U, 0x3dc11e31e30bcdfcU, 0xb03ed91dc3f7d038U, 0xbf3437ecfe408bfbU,
  0xafbdeb23f6fadd41U, 0x22bb07e5fefe103aU, 0x28c8ba2f0bf449abU, 0x15a7fef203da242bU,
  0xbc27df2efbfe2637U, 0x2a3fc4dcd9380005U, 0x43dfd02f0c9709f2U, 0xa3fb0c1dfe01c42eU,
  0x202f472340adf2c0U, 0xe7893117f13e46ebU, 0x2e27d547afeaec0dU, 0x27debff1e5da9920U,
  0x4d8813d081ede839U, 0xf9f325bddd8cac18U, 0xb61bc1d6fe0453f5U, 0xf1cdf9300ed10ae1U,
  0xdfa72c2abc33404fU, 0xcc33dfebfb0614eeU, 0xd36e13d102f3864U, 0x182c241ad339e408U,
  0xe52f5a31a6ef09f4U, 0x46232d16fae1e900U, 0xf3c3f94d912abdcU, 0xf6b015e74b9a3228U,
  0xdff807df0c3b00b8U, 0xb30aeef3cd11f2b7U, 0x43234fade306bf05U, 0xdade06f630e0bc2fU,
  0x3ff847d6e4022e21U, 0xa0d073178f2ec29U, 0x2f19e4feaea66b54U, 0xe8e52502eadfdae3U,
  0x2c13ffeadbb9371eU, 0xee0cc7350d43e423U, 0x2747eb97d4d6ee15U, 0xe911f60370eff5deU,
  0x1d5736f40f2c3c14U, 0xa91e122efa10092eU, 0xefc62600ba81fac3U, 0xfc1ae7062a19a8d0U,
  0x4853241cc2e31a02U, 0xee08131df29e11c5U, 0x24081c01fd2fe9caU, 0xf0113d294824f937U,
  0xf72ffb090e02d1daU, 0x10fcff1f30f26fffU, 0xdf11ff0f54f61bdcU, 0x1cc26eae5171f53U,
  0x20d3450c1d0300feU, 0x59edb2cc25cd10a9U, 0x5624ee4419ffc402U, 0x371bf9c9eceb18e6U,
  0xff46ebfdef4306e4U, 0xf840f2f6e4102fdfU, 0xd5e7fadfc1d5f90fU, 0xd8e8edfa1c24e4ceU,
  0x3f18af04cbce2b20U, 0xf9ffd1ea0a0ede2eU, 0xec04ebdf202a15ffU, 0xd722cbfb48061b47U,
  0xfdc8f4e0f5a52bffU, 0x21463cedf5021ecdU, 0x12eb0416fcfe2ef1U, 0x30fdcc34f32df8c8U,
  0xf2240981201bd4ceU, 0x4d18e20feacd25c2U, 0xb145c016bbd3f017U, 0xdfecff214d26d17fU,
  0xc453e4103d424c9U, 0x60abda0df174598U, 0xe0e3dda81f292f49U, 0x10032af1e75a47c1U,
  0xb8252ce2ba09c1eeU, 0xecdfda2225ddd734U, 0x2f17b823cedbdfdaU, 0xe2c127a1d0f23fb0U,
  0xe20b120fbd6ca4ebU, 0xdd0f6af8e1ccf253U, 0x10e51b02cb36e21eU, 0xf081e3ba6effe23U,
  0xaf1a3cf493fb90f3U, 0x1222bc02df4ce1f6U, 0x35410cedfa41c5b7U, 0xcb19e654ee354d52U,
  0xcf6927fea5fb20e4U, 0x9a61dc13fc11c906U, 0xeb123136331617eaU, 0xddee29bbb0bfd4f9U,
  0xc7187d13cb4e5ef3U, 0x4518acea07ff2dbfU, 0xd7f8ecc6334d13c8U, 0x9d25bd0cf1f4fb17U,
  0x27e1e409c1ddf3ccU, 0xd9612cf7b56dd6f7U, 0xe3122309bbbd0308U, 0xa9fed3ecf1fbc324U,
  0xfecf442eefe00a22U, 0xe6340907f19e10e1U, 0xf9f8e8f5e8abf81eU, 0x5ae8dc37f81bd5e0U,
  0xaeee29ba19d3f2faU, 0xf628f617ec2c09f3U, 0x34e3db100af0d204U, 0xc2fdf21147d461d5U,
  0xc6f65a42f24c1167U, 0x2bc310fffb63fdf4U, 0x7effdf0f50f032fU, 0xc6fcd8d0f0e51622U,
  0xd9d9682a81b41e24U, 0xcbbcf2dce9b1c318U, 0xe6e2eee521f2ae1cU, 0xdfeb52c733e4de2aU,
  0x4300649daefeb05U, 0x648ecf204bbd8acU, 0xddfb7fffdbf0df87U, 0xece4facc0111b454U,
  0x36c1fed3ac480de5U, 0xfb21c29ef7e2cc2aU, 0xc7c9111bbcfd164fU, 0xee197241f259d1d5U,
  0x3ce30a40231831e0U, 0xb9c9f209f617081dU, 0x34f8f6dd0128f5e7U, 0xfe002bd607e85c05U,
  0x192e65dbf22dead5U, 0x201b2687e7e924f7U, 0xc3ff42d6e613fe50U, 0xc21f3fc12931e830U,
  0x3ecda51be6cc7725U, 0x15e2e7070e1ff92bU, 0xdc24fb963b072dc6U, 0xe333141b222620c5U,
  0x372e0a150c080ad3U, 0xf3c719d2f2e1171fU, 0x636aaf7300bfcecU, 0xfbeb10a8f2e22811U,
  0x15e811caf51215d6U, 0x1f3614c70fdc112cU, 0xde12f71013f1b3e9U, 0xb6c39e30052919e0U,
  0xb12f80b0e140501U, 0xc4f0dafe11ffcb32U, 0xf03c009cf1527e2U, 0xfdd75f41dba08c0aU,
  0xe3f822041ee220adU, 0x1e3e0a253a14ce11U, 0x21ffbef3ed1d5d0aU, 0xdefa48004f3fc110U,
  0xf3a317dbd6cef045U, 0xdb88d8cec86d2e0aU, 0x4f37020354e9d10cU, 0x1601f1e55634260fU,
  0xe335a9fee0f19f31U, 0xefe3e90f16ebdf15U, 0x2b0464c508f33cdeU, 0xd9ab0526c922e6f3U,
  0xbcd1df2dacf12fbU, 0xe11f113e8104e54bU, 0xccceb9f5febc2722U, 0xea0af01619e9f9f3U,
  0x231886ec4328f736U, 0x1f73e3ae00124eaU, 0xdd2a3eedfae6001fU, 0xa5faf218300dc1e2U,
  0x1904effcfd1c252cU, 0x2d0feee4ead4ebfdU, 0xa6f249ff00302812U, 0xbd4135fc24fce8e9U,
  0xac3518b5de05f70aU, 0x15effc320631bd06U, 0xedea48dd032ff4U, 0xad6f90f14fbc4dfU,
  0xd4174d352d0010eaU, 0xfcd111020adcf0eaU, 0xe5e70b0930d3dfefU, 0xcdf2ffecd6e54ac6U,
  0xd73edef9213d9ae2U, 0xd80d16ddc2446741U, 0x25e50a1022f2f8ceU, 0xfc24a10824eff706U,
  0xf5f1fc81fcc0e921U, 0xc85104e7f899fcd6U, 0x14e5d417e00e222bU, 0x21183132f2e4cdeaU,
  0xbdd80f40f5b1f8f2U, 0xd60dde110523d7c9U, 0xecd70a06d9ab0218U, 0xe60b1bf62c07def8U,
  0xf7a30e1045e5f13fU, 0xd544fb1cd34520e7U, 0x700c40b29e4fde4U, 0x271cc505f6060b08U,
  0xbfcfb2fd23b43234U, 0xf5dc0e0ec2a53011U, 0x17edf522c122abd4U, 0xccd50f62d9162ecaU,
  0xf6d51310e155d2a6U, 0x5e63115180cc9f2U, 0xfdf2c1f743ed1131U, 0x5e7bf2ce2340d0cU,
  0x1faf43b1bf3fac2U, 0x80ee52d77e42cecU, 0x16e4f7209856c719U, 0xf2ed1012f008be3cU,
  0xce7f04f5fdd0394dU, 0x1e282d180638dac2U, 0xef4ec3f0e7329ee6U, 0xf2f741ebebe6c6d9U,
  0xe80d43c80f371112U, 0xd42ec905171a15f1U, 0xe84e21f43907e3f1U, 0x13384e1a49cb084dU,
  0x144babbfd1104746U, 0x12b3f5702f7af15U, 0xdc18b449f6213e51U, 0xff1b4c05ed21d4f7U,
  0xf91f9f24ed5701eeU, 0xde5c1afb3dbb526bU, 0xd656451341223c3aU, 0xf47fce0e06d124dbU,
  0x912faf8fc10abe1U, 0x16d631d10421e005U, 0xe83b571dddf024ffU, 0xfa116aecddbdb3eU,
  0xfc273eb7e21229d7U, 0xa924e90322340601U, 0xdfffef2f18dab8dfU, 0xc6c8f0a3285aec24U,
  0xd107070841f7f6fbU, 0xc3135d243edad043U, 0xff9671bb6da43e2U, 0x35f83d79d030d0f2U,
  0x3f332442f6e90ebcU, 0x5c190e25ba171600U, 0xaa14bfb04e33f64cU, 0x54ce54eb8f0be4e5U,
  0xdb0b2af0ef084920U, 0x312c101debaa1919U, 0x2d2aea43fc0f1e44U, 0x14f4eedb8132b6e2U,
  0xa430b61d2df58820U, 0xee1f3050fac242aU, 0x425f318f1031a17U, 0x1c0a163e0fe1d56fU,
  0x9f4f0b11214c1afU, 0xdf02dce6d3032b2bU, 0xef17e073b0dce322U, 0x480406f61117deedU,
  0x25f9f4e547d3d8bbU, 0xfeb053c210919U, 0x1b20fd4e1bdfbfe4U, 0xddc1d22212f8db16U,
  0xd2e6c9e9abfb26f1U, 0xe8ebd7100deee6f5U, 0xfce8e2c11e02fef3U, 0xf4157515fa37cbc9U,
  0xca9d1dfff050d30U, 0x16e24330c11adc28U, 0xf71c18e72d4829f0U, 0x614fb0a0d010503U,
  0x1e22eefb7ff2edf0U, 0xe0f71ad01eb1e90bU, 0x132f093307f6f5faU, 0xfd0fff17ed1c2a0bU,
  0x350ff8191bd9d9dcU, 0xf7e007de1fd11a0eU, 0xbe0ff8002a11f9d5U, 0xe73514211fdb201fU,
  0xdbffeeed20f627e1U, 0x19ffeae31801f3e4U, 0x608ddc03004f628U, 0x21e7d607f62a1603U,
  0x1eec0a0df5f8d334U, 0x3000de03f4f7eaf1U, 0xca0e1304060d0615U, 0x13f4e522131eecbaU,
  0xf25f31f1df8faecU, 0xeed7fdd2031e052bU, 0x220efbdf0ae02bfaU, 0x35f614d44e0c28caU,
  0xad40ee4fdf80e06U, 0x14ed0f18cb0cfe08U, 0x1feef9e8110aee19U, 0xffe8e8132fe5282dU,
  0x303614cb07ece059U, 0x6e2b1d2e8051442U, 0x12e6312be4fd0d12U, 0xf027e9de161b12edU,
  0x53135fcd2fc01d9U, 0xe07a3f5ec101334U, 0x1f31aace7f40c234U, 0xfd17c6134bf85417U,
  0x69d3d2dff8c226e3U, 0x1cf31bba31da1c1bU, 0xa13e00b619c1efdU, 0x40d07f71238bf21U,
  0xf0fc5416f31ec4e6U, 0x6fe48e83021efbbU, 0x1af2df11fd41e442U, 0x12fa013a03e30bf5U,
  0xf13914fdfaec1d19U, 0x434fce10b12bc05U, 0x1fe5dcf5fdf70212U, 0x6e4e2ff501235ffU,
  0xc7d0ff04dfefb2edU, 0xea40f1dc1709a4c8U, 0x1532e30cd7f915d2U, 0x2b46d92914200325U,
  0x3026030ede22fc20U, 0xeb0cbce8390be6f4U, 0x16f6d834ec177fcaU, 0xf301180515fb3de2U,
  0x1931c441df21240eU, 0xddee3ece2b1ea716U, 0xe00d1b1acf2ae9c4U, 0xce2c1438f2e416ffU,
  0xe1d731100cd70a01U, 0xdc511909fb0e0634U, 0xf0e0eec1f1ddca16U, 0x22ebb4fcf6bb1388U,
  0x26e51b2544ff37dfU, 0x280d071633b41e32U, 0xf52fd31a14e91326U, 0x111cfad3161611fcU,
  0x39080426f8f6b0f3U, 0xd5141d00ebe24721U, 0x1d06f810000b1ad2U, 0x201511092d0b15fdU,
  0x37721b4fd31c1049U, 0x3d14ff1cd3251404U, 0xe2d33bd0fd1bf3b3U, 0x5b5b76a2adcd12cU,
  0x10dc17eb1bfed81fU, 0x3efc22225020741U, 0x68e5ed3d42c7f61bU, 0xe304e62a25ffdaefU,
  0xeb0c38f6d4e63e16U, 0x1cd02800f0d74221U, 0xdcfd6d0edbed3050U, 0x7c520f907065b05U,
  0xad0e140791c7e823U, 0x45ef08f229d8ef47U, 0x4606fe400e22df25U, 0x29e1fe11b208ded5U,
  0xe90c31eb40e606d9U, 0xe9c7d3072bdd23c3U, 0xe727e12f22fbffe5U, 0xef37a7ee01d859cdU,
  0xdb07d0f2ebf6fd06U, 0x363e7fd6e601f923U, 0x5401f6c43a1f412bU, 0xfd8c1985f40b17bcU,
  0x4511e6e029ae17d9U, 0x14e950a3ffdd47f3U, 0xdcbb2511f60c3a28U, 0x2ccedf5f14f4de13U,
  0x901414513afc61aU, 0x16c8e87a48dd3014U, 0x1acc20f1f1f5f5efU, 0xb90bc2e6054df30cU,
  0x261b4f1d04187bbbU, 0xa827111caca546e5U, 0xffe8debecadde6U, 0x3fcdd5d6faf5a3e4U,
  0x81602c97a4cb97fU, 0xeb1fec0bfd181f44U, 0x42f013fbd64bee90U, 0x35e405dc43ca45c1U,
  0x25c33cffb11b2f04U, 0xdbdf262af942ff0fU, 0xdcf8ab050eded4d3U, 0xfd1d0bd12ffbf7efU,
  0x1d4a2b511fc6f642U, 0x3b0f97259c1c0b34U, 0xfeddaf8dfe9e8f5U, 0xc018e717c4f2109fU,
  0x422ce135f14116U, 0x5e29de0bcaefd05eU, 0xe8021affd7111ff4U, 0x1e2adb12f5d802faU,
  0xed01fc02d11b144bU, 0x2301c0cde402f407U, 0x3afbf94901f1ceffU, 0x331e26b8d8fa140aU,
  0xef81460ce91ee1ffU, 0x3d03294138ee08edU, 0x1cea3d23ca11d111U, 0xcdec390eea032612U,
  0x221915f8201b2e05U, 0x27f6dbd3dce222e7U, 0xf5150b100f35f9b2U, 0xc11b536f5fdec04U,
  0xdfd3b36d18fffca6U, 0x16fa392321340636U, 0xd639fdcafdcc0620U, 0xb139a01bfe0f2c38U,
  0x4ad160643ec2effU, 0xf5a6f20c3614230bU, 0xfaece4e82eba16baU, 0x212d0405520b251fU,
  0x360ac628121fc93fU, 0xcf0d0bbf10091ff1U, 0x13f3d8341c1d12efU, 0x4cf61be8e025ee08U,
