/**
  ******************************************************************************
  * @file    network_data_params.c
  * @author  AST Embedded Analytics Research Platform
  * @date    Fri Nov 11 03:22:32 2022
  * @brief   AI Tool Automatic Code Generator for Embedded NN computing
  ******************************************************************************
  * Copyright (c) 2022 STMicroelectronics.
  * All rights reserved.
  *
  * This software is licensed under terms that can be found in the LICENSE file
  * in the root directory of this software component.
  * If no LICENSE file comes with this software, it is provided AS-IS.
  ******************************************************************************
  */

#include "network_data_params.h"


/**  Activations Section  ****************************************************/
ai_handle g_network_activations_table[1 + 2] = {
  AI_HANDLE_PTR(AI_MAGIC_MARKER),
  AI_HANDLE_PTR(NULL),
  AI_HANDLE_PTR(AI_MAGIC_MARKER),
};




/**  Weights Section  ********************************************************/
AI_ALIGNED(32)
const ai_u64 s_network_weights_array_u64[184307] = {
  0xc3c39b2c0000007fU, 0x2c06cf17ec9c8111U, 0x10e4f9b89208c215U, 0x81ced049e02ad296U,
  0xf91cc57c3418c71bU, 0xda27ef2ae91bb895U, 0xc6a32e17f11740e7U, 0x1dbb1dddf229edcaU,
  0x56f00f07e1fb16dfU, 0xef6dd57f37eb3422U, 0x7f16a68944d55b02U, 0xfda4defe01d6dd04U,
  0x3910b83eef1b402eU, 0x1a1adffa11c9e6e2U, 0x129f28a281a9b9b8U, 0xe6fead16b50b0a2eU,
  0xaf57bc20fec60ed2U, 0x321fdc1821c1afb5U, 0xb58b072e7fa5d0d6U, 0x2be3bb032fd05d6U,
  0x1cd28a1335f0ac68U, 0xc07103c9d4e5e9beU, 0xf7a505b7330f0ba2U, 0xefc79d1698ef7f4fU,
  0xc6f73533f01cfbf5U, 0xffe60c05d4c409b6U, 0x811ee11e21ae8910U, 0xc616dbf9e2348108U,
  0x95ce43cd04bde815U, 0xd57054ce4aa909f2U, 0x53032681cfd29114U, 0xd3e34fdf13203d01U,
  0xd716fc0df1d8912fU, 0x1af17f50e2c142f7U, 0x71c7ff34e41336b7U, 0x40b8412a251be684U,
  0x187f23341806fef7U, 0x170ffbf22b3016cbU, 0x265d07033ddee218U, 0xe60eb21b0de39f02U,
  0x599ccbd1681bb28U, 0x7f34d7b0b3f94158U, 0x4305eaf617e43e28U, 0x427f4741a3d3455cU,
  0xc6cc7fe3dcd93809U, 0x27f60b21f1db1bb1U, 0xdeccee4b19f50417U, 0x1b7e81adf192127U,
  0x7fd1cefdf6611903U, 0xf518200efb3931e5U, 0xcbf8b396f7bf2bacU, 0xfbf43dbc3c113aafU,
  0xf3062eda06f961e0U, 0x492602f23229d7fdU, 0xdc3f1c0f038119f0U, 0x3dcd7f42299d21fbU,
  0x125ad8f2c25ae225U, 0xfd28e100d05107beU, 0x8109fa3d1122f11bU, 0x1acc99e3f1f2f9eaU,
  0x40d6fa312ed22becU, 0x121f0d0a09dd29f0U, 0x37d627fbd9293a81U, 0xd2f7ef0c2c071f28U,
  0xf9e4b0a04162225U, 0xd54cd9f3bd04dbb3U, 0x7f3e7d2df5bf0485U, 0xb809f12626251f50U,
  0xf2be40411de1b08U, 0x25ddde24248d23ccU, 0xd8e81681f401ea0dU, 0xfd0e10bbe2d3e822U,
  0x10fd041f3d061bbdU, 0xe3f042e67fff6dc0U, 0xc80251e40a1c0e93U, 0xdb23c007e1fa16e8U,
  0xfa1263bc2dfd419U, 0x18bb002bb045d77fU, 0xaef7f1f21f20dcfU, 0x70c1a154b1ef9e4U,
  0xc61f0814d321f4e1U, 0xe7eb15ffU, 0x0U, 0x0U,
  0x0U, 0x0U, 0x0U, 0x0U,
  0x0U, 0x0U, 0x0U, 0x0U,
  0x0U, 0x810343f800000000U, 0x227ffb8508140b0aU, 0xecef04ea31ebaaf0U,
  0xc1e2dd033fef3fc9U, 0xf16a47373428117fU, 0x63fbd57fc0251210U, 0x62c8937f37246581U,
  0xcfde557f6a0e29f3U, 0xc0c7b537557f5d24U, 0xfc561faf3e67b2f4U, 0x41c67fb33f107f0eU,
  0xf081a6d200363f50U, 0x4a57210d5711b215U, 0xf7d3a01d29c0dd51U, 0xc3bc4a613f06de1cU,
  0x1f4219f6e7810616U, 0x2e2dee87ffa26ceU, 0xec5742c65332817fU, 0x79f4edaf0bc4ca3cU,
  0x7fd2e44b061908a5U, 0x21d37f82ae46e600U, 0x877f635be1333529U, 0xc18f9768b981284eU,
  0xe4c1dc149efbec21U, 0xa2c681f581dccecbU, 0xa52813ec3f298627U, 0x7f18141f7f0cd944U,
  0x53157f4cU, 0x0U, 0x0U, 0x0U,
  0x0U, 0x0U, 0x0U, 0x0U,
  0x0U, 0x0U, 0x0U, 0x0U,
  0xc404f4e800000000U, 0xf806b220e70481eaU, 0x19f1d663c2f1fe39U, 0xe5e7032fdfe736f0U,
  0xb45219b7d29f7081U, 0x55763fdf326a0e0bU, 0x727c5a51996330dU, 0x1b16dbc103e90dbfU,
  0xdfe57ff298ea1ecfU, 0xc727a212a01f1e02U, 0x4081bdf8f9dd368fU, 0x11c15134f1a59575U,
  0x14185181fd1634deU, 0xf2f31ccae422ed1eU, 0x30e4de04e14f0db3U, 0x8a1cde16efbf1bedU,
  0x5918ebf4ef3881faU, 0xaaf8e2e062e7f102U, 0xfd07d4b61e5b5823U, 0xf40f00d21cf6210bU,
  0x72eaecd6ecf77f39U, 0xcef56494e8d2d12cU, 0xc6b7c1ff81f619caU, 0xe9c9d53e81fb1706U,
  0x61c851f72c462e26U, 0xb48796f05925e670U, 0x1ceb812f6ff42b60U, 0xeb03021126e8e5e2U,
  0xc9047f050b152b48U, 0xefb3c0a301132decU, 0x6545b8cd04e1e7ecU, 0xfd686eba5522af36U,
  0x7f05d1cbd519cac0U, 0x29e3503c7cbd2bf3U, 0x1dc9afd50909d3f6U, 0xd60c4c335f81520dU,
  0xf620c3c097103bb2U, 0x9846249fff814214U, 0x42b1147e38182e47U, 0xf3ee6541aef281c4U,
  0xb3f16db580600e1U, 0xddfd81b012d6df2bU, 0xd5fb0027e7370337U, 0xa71f02f9d47f281eU,
  0x4016741acd410f40U, 0xc921b7e22a26caU, 0xebd1557b7f37f0cU, 0x18c8fffbe901ee37U,
  0xa6fd7ff95ef31dbdU, 0xe92bc6d20d0e96d8U, 0x8f963731d1f6c21cU, 0xdc02f8295b324f04U,
  0xf30439ae8151bc24U, 0xaeb3ab6040190f8U, 0xd0cf38e9c3a6d737U, 0x9f161f08fc3bfdc7U,
  0x18142fd203fc102eU, 0x23516cdf31b7f0dU, 0xc538631e07224c12U, 0xfad2e61aadf7f0a1U,
  0x2bee3f0aac7f03c6U, 0x9640120b81ff2858U, 0xde34d3171d26ec27U, 0x6c63c6ce071c93bdU,
  0x3cfbc6dc46150f13U, 0xf5ed7f300926f9b5U, 0x1e3ff9f21e113544U, 0x36f01ce2fcfaff35U,
  0xd38ddc1281f0271fU, 0x23ea1b580aedb43cU, 0x54cbed2637cf8188U, 0x1131c0b7fde909cfU,
  0xfc1a0bfeabf627ceU, 0xdf261023f4a2aa06U, 0xca7f13f7491c0dbeU, 0x981158262046cee9U,
  0x50c63be4f4bb10c8U, 0xf0c507d77f301d9eU, 0xc12ece9043ecc2bU, 0x5d98ead918d827c0U,
  0x1b3097fd4acf54aU, 0xfe1c2105a74d3022U, 0x81e814e32d3a1efdU, 0xe2c31cf32cbf3416U,
  0xefd529190ec8f401U, 0xd12018d6132238fcU, 0xf8f48111d14ce309U, 0xcdcca1229073527U,
  0x6ad3ed1c1ff04248U, 0x2c3166da3ba88139U, 0xa72b1ae4b2d2b6a2U, 0x3804dc07f02beb33U,
  0x26815fc2f20e2e1bU, 0x53fcd8fefdfb13e3U, 0xd2ece700eceed8ebU, 0x5124bd7c10ffbcd6U,
  0x7f18a9fdU, 0x0U, 0x0U, 0x0U,
  0x0U, 0x0U, 0x0U, 0x0U,
  0x0U, 0x0U, 0x0U, 0x0U,
  0x0U, 0x0U, 0x0U, 0x0U,
  0x890e32af00000000U, 0x9243b43f3439c681U, 0x727ff5dddfde9ae7U, 0x421ac61a14eb5bf8U,
  0x28121cc71a810b81U, 0x21e917f67f32f00bU, 0x2ce06413601d310U, 0x343551f5e227248bU,
  0xab0ef838e430082eU, 0xf5b47f7f53ea81e6U, 0xc1cfd909347c67fU, 0xe2b3dc8108f75c27U,
  0x7f1fb8d881bd03ebU, 0x3117dfdeda7fc8d6U, 0xaed6687f81e62df9U, 0x392521b5011fe354U,
  0xe1d7f35b635818fU, 0xe2af2eb5fef8b962U, 0x1ae58a71e1c24229U, 0xfeb0180a15aa2408U,
  0xf37f52815fb89e26U, 0x7ffe081d6ceb00ceU, 0xeb53813ae381caf5U, 0xcea6cfaa207fdf81U,
  0xfb0f03fbf41ef33dU, 0x217fb9ffca39e0e3U, 0xe7b99c7bb53c4fefU, 0x23ce7fc3cbcf2332U,
  0xfdc815bc48dfe6dfU, 0xd1fed5dec5870530U, 0xfaf781e7e6619906U, 0xc6811e7a812d4a21U,
  0x85c4172506fa70f6U, 0x19f21c0d9b0e16eeU, 0x8111a4ebdfd27fecU, 0x7f744c4e1f897f8dU,
  0x3ef80e15U, 0x0U, 0x0U, 0x0U,
  0x0U, 0x0U, 0x0U, 0x0U,
  0x0U, 0x0U, 0x0U, 0x0U,
  0x0U, 0x0U, 0x0U, 0x0U,
  0xd507d22000000000U, 0x900f3ca2eb0a1d9U, 0x3dc2c2c3e2e9f9dcU, 0x9d850bbb81baf11U,
  0x67ef32c76628d681U, 0xed1fa8924573f7c7U, 0x3dd5cf34dc814cd0U, 0xe1e5fdd008772523U,
  0x1c0d7f4a606076d9U, 0x3cf938332e4be8ccU, 0x3f4335dea503b66cU, 0x5f0b06f6b85fda2dU,
  0xde0a1df61a070b10U, 0xf47f0c1efaf8e599U, 0x4501fa1c24ed02a9U, 0xfa196e16d2a01eeaU,
  0xf8d523fdfc0fd773U, 0x251820580824057fU, 0xffe37f5192bc9f5U, 0xf35e11cddf8e911U,
  0xf2d279ae32ad6e5U, 0xf62c9bd2d4ea23caU, 0x3be348deea1cff81U, 0xf4cd33f80d2f4723U,
  0xcb0ce61b34de5cebU, 0x343503e10ec0f5bdU, 0xe97f0b0bebfaf60aU, 0x36bf3803090b2411U,
  0x131345a1ea15f049U, 0x1c0386c2810914e9U, 0xe1d9eb21223a3a74U, 0xc35ad2947a42211U,
  0x4fc90b8bf618f626U, 0xf1300bd581f90909U, 0xceef49fa00ccff03U, 0x526efff08ac9267U,
  0xfa21111511b9054fU, 0xf92f81e7a613fc0dU, 0x1bf21a3cdfb8ecedU, 0x2a23d8c0051224efU,
  0x12ca3c81150c3409U, 0xa69d621c1b29d219U, 0x1fcf90049e243e5U, 0x11d7dcb956fb0ee7U,
  0x5e267ff2c6fdf602U, 0x343a3906120b4cb0U, 0xe3ebb816c2e7eefeU, 0x6e2ab11f3d0ebbbU,
  0xd94604c5f43c41eeU, 0x2f7f193215fbc2fbU, 0x27f91285768d3bcU, 0xdef647bcb242f1f4U,
  0xb9f5dcde12df1efeU, 0x28f17ff72fe41b2bU, 0xdab2c62f4af5dc3dU, 0xfdad1f219bffe37U,
  0xf1b81427cf1af806U, 0x39c18121f0231424U, 0x1729fd106ff12d4bU, 0x50c5dde8000769U,
  0x50ff50bf4f04007U, 0xdd1f0d333aaeab3fU, 0xa86c1e2ece19b020U, 0x1cbbe242f6ee050eU,
  0xec2ee7060e812723U, 0xd3e3423a71a460f0U, 0x7bc515d51d202608U, 0x18fd32b03e72681U,
  0x81686e9813f90a1fU, 0x291df5d935263907U, 0x6f1c1269023e4c2aU, 0x1f3675e50ef6320cU,
  0x32a9f70337f20e04U, 0x1322b3fe9ec0130cU, 0xa516e1fc412f50edU, 0x17d8da7f131e0bc3U,
  0xfd006dfe03e7cf47U, 0xc31811ed52e613f1U, 0xee5d18161cd3909U, 0xc5b0d6fdee91d50fU,
  0x3ac33ce316c8d82dU, 0xca2bd4d004dc1307U, 0xd11aeaf9ddf02895U, 0xf6647fb7ffae24fbU,
  0xe8fcfdb8a9ed504fU, 0xbd30a8e7bf11af7fU, 0x7312224f7f6f00fU, 0x3afa0ae440260ef4U,
  0x72e02644cc30eabfU, 0xcad4d4aaca4ddf30U, 0x99d9d4af1df3bfa4U, 0xc5fb0a7fc462f9deU,
  0x2c5fbfe2d9cc3c4U, 0xdca0b9f881efe3ffU, 0x34b228de19e9c3c6U, 0x3dba103bec05301bU,
  0xd11f2b7ffb031bb4U, 0xe73dc532d3f3003bU, 0xab0d9d6e517e425U, 0xd1ffe34da639139aU,
  0xdfe862d0f6fb2803U, 0x1603511becf7fffcU, 0x44813c40031d751bU, 0x9028c586daf7646dU,
  0xb3530c824110f23U, 0xd30d40b3ddd25734U, 0x9bd9c231e0d3723U, 0xe481b840e881d71bU,
  0x9b1ea388a55d2b3U, 0xf80a321f00f6d302U, 0x7137e5e910eee831U, 0xba0adc09811016feU,
  0xddb909b20029e5d8U, 0x24811b362cea3942U, 0x503611ed52251708U, 0xc30dd725da32ab00U,
  0xd236c00e010ef0aU, 0x37a50f19b72c29d5U, 0xf7f2f4f4f9072b33U, 0x7fc6e209e20c200aU,
  0x89958daffb0d21fU, 0xc05695cb2f07ec09U, 0x709b1c8fc1cdd81U, 0xc02b0abf71f608dcU,
  0x140cc8f4971461c3U, 0xeb3552b7e5f10b48U, 0x3d267f9450e4c8f4U, 0xaf85e5f0eb1dc73bU,
  0x20220824fa3fcbf5U, 0x7fd325fcc95417ceU, 0xd7ee2eeed5ac24d3U, 0x22f0244b16f2f22eU,
  0xd4cde4f0bf0527faU, 0x4ff1dae229e52b1eU, 0xb47f4d908bcfe26U, 0xd4caf823baa7db0bU,
  0x8a3df3f781ed99fcU, 0x4a251854f256d43dU, 0x1434c9b7aea5d4f4U, 0xd7fecabd81def496U,
  0x81d5e3071c9bf8f3U, 0xed1a0cff16d70d1aU, 0xeb2e00170ee8fadeU, 0x13e23107fdfa1813U,
  0x31e96ec1210adde8U, 0x4d36260ae00bffc7U, 0x244426f902ff1dd1U, 0xd12124ed0be9197fU,
  0xce5b6fbec1f0af8U, 0x40f326b65bf065ebU, 0x2fa6e9e93303c391U, 0x827b17fd652cc1cU,
  0xe708abf83ad23748U, 0x6df17f1cd40a0ca0U, 0xa018d7d3e84aea19U, 0xaa2d0444efea2931U,
  0xc337bb47ad19f80eU, 0x4ded050ac3199e8bU, 0xc7013281dd69ee3fU, 0xfc54ead5e3133e8fU,
  0x4aa1b43e4c410eeU, 0x4ee1f1cbb64bb3aU, 0x3f37fdbe960d7f17U, 0xec8c06cdc9273572U,
  0x1acc259c6a44a204U, 0x803c058f80cfc0eU, 0xf532eb8164e8ea12U, 0xe42626637b1d0f00U,
  0x8c1000edddd9dce8U, 0x343097caeecc39a2U, 0xfd429d3f4f6d181U, 0xc0b9101736d80930U,
  0x4729bd810c53fff2U, 0x933717d32bc358c2U, 0x4ce511b61b99415U, 0x3ecc2e8acc4e995U,
  0xe7f30cc535f6ed4bU, 0xa5f68a016ca4b834U, 0x3916aa230af981eaU, 0x38be3cf0610b06a1U,
  0x592432f0f067ecaeU, 0x5aee90aa0e73f009U, 0x2fc1e3fea0f4e4d3U, 0xc57f073f09d400edU,
  0xca111fd1032faa44U, 0x9737e1c4810e0423U, 0xbfa54932452cc3fdU, 0xb136db11230bf70eU,
  0xf83c4407d9f473e9U, 0x2ff11cec4911d82aU, 0x30f0f5fe1c0a364cU, 0xfbfcf16a012e13caU,
  0xcb101dcdfb3a7fe8U, 0x220e1c2be07f180bU, 0x101f2e10735f4dcU, 0xe41bcd13fea820d4U,
  0x2eaafe7f01f000faU, 0x2818f7b021b930eaU, 0x9e11e1827b1c2845U, 0x32f5f67286efebceU,
  0x19f40aded7d7e5c0U, 0xeeba18d7e7e0ef43U, 0xd7fac0ed51705f2U, 0x35fcb22a2cd6e6d1U,
  0xdada7c7eac8fb79U, 0x2326034c6ff77442U, 0x46cd1615d5b9d575U, 0x22c691ecac678125U,
  0x101702163bfad962U, 0x312a1811ef4fb738U, 0xf814f32ce07ffca4U, 0x28c64d3d3be0b8eeU,
  0xdfe31135a7c4ce4bU, 0x17b923b202b50e12U, 0x56351fecc846d2feU, 0xd4894fb0272bc8f6U,
  0x153ee6439f81232bU, 0xebe5da0acf34e3d4U, 0x142ad811266023fU, 0x2a9824041f681b23U,
  0xb2b3e8e7f4061df9U, 0xe9fa81da5ac3b810U, 0x4ff670a80aa73ab2U, 0x7dbe003d21514d6U,
  0x37f1bae74396e2a8U, 0x198f02f5033781a9U, 0x672d33e7dd3bfdeeU, 0xc27ee03bb4e745cU,
  0xf3ee25fd6e7ebff2U, 0xdc36e40c0b7ff5f5U, 0x334f089e06ffe44dU, 0xcad8e24f00ee00e2U,
  0x18fed0dcfcf80d02U, 0x22d3ddf8f1120462U, 0xcc3de6f7a1f64b11U, 0xf03945f3f624b481U,
  0xe4a6003bfb3f0497U, 0xcdee147fe9531dfcU, 0xb072189d634d31cU, 0x4affd9b5f6050a01U,
  0x3270962cf1f02d07U, 0x22f12700e10b24f2U, 0x20fd00cbcee67fe8U, 0xe1c5d2d22b5537d2U,
  0x192dc8e7faa8211dU, 0x1c67db2e0ef2e510U, 0xea4310b9352e7f01U, 0xdbfcd9adfdd70701U,
  0x241e22e7e2022fd5U, 0x9f3b0dbd03ffe181U, 0x13250cbaaa049048U, 0xb12e5c096fa61df1U,
  0x32e83405fc4735f2U, 0xf9fc0df532f01a78U, 0x16fe6278f9d5147fU, 0x5e170268dd3730f2U,
  0xd678a502e2df5c06U, 0xe42af6c1e2eb5781U, 0xad3e16e4fff62238U, 0xb2f4b905df0b5a28U,
  0xfa742e0a183927ceU, 0xcfc8ca4c3d13aa6dU, 0xdfa32be349491e14U, 0xe779f63f0d18bbd5U,
  0xa303f227ceccc67fU, 0x2f00dc6c0699d945U, 0xbf7f26d6d3b5c501U, 0x6a30ce3c46d7d709U,
  0xab01fa81c12633dcU, 0x48c6f7bf3104d705U, 0xe819e1b8eee92de4U, 0x18a51c2722573db3U,
  0x8306e00462f79f39U, 0x11ee2b21cb906866U, 0xa22128d2d8087205U, 0x4fbf29f37f040cc1U,
  0xa320eca010dc425U, 0x1dce1a9e49aaebcaU, 0xfb3f160bf64904dfU, 0x4cf0ff1f09071ae8U,
  0xa5f40901f0810a93U, 0xf9c6828a21e7aca7U, 0xf9071bd2953a23d2U, 0xfa26b881d2dec25eU,
  0x255881004708f33fU, 0xfdf8e223f63387b4U, 0xd9e005fc205b34e3U, 0xc788f129fac0d2e6U,
  0x1dee2c0aefcfab1U, 0xaf0b377704adfcffU, 0xf728da68e0f1bb0cU, 0x37b2baeb81b4e2caU,
  0xd1f6c7dbe039034aU, 0xc5e220d839492181U, 0x60f4ae19ca161c1dU, 0x2006e3e80448c245U,
  0xb9dddc4a7106f2e8U, 0xb675c9e07f91f6f3U, 0x40d43fb2dd795303U, 0x1ffd54ac40614b6U,
  0x14fb1713f3f90f43U, 0xb911e0ee1013bdd8U, 0x1324d61707c9af25U, 0xddca7ffbebadd4U,
  0xdfdadcf7c910af4eU, 0xdddf4700c633f881U, 0xeb3a3ce21bcfe0c0U, 0xe01ffbe2ecca24fdU,
  0xe7c5eb53fbb40ddeU, 0x3f1ab31d25bcde1bU, 0x1cdf118e0ee3c46U, 0x201d0f4830df294fU,
  0xc33d45b0e604907fU, 0xfb07f39dbca18d57U, 0xc6b4ae7f4468b7f7U, 0x15e80ceeb9ac3a46U,
  0x57ddf3e5b0a707d5U, 0xcf5c4c6834ad5106U, 0x32ecfec2dd1281d7U, 0xd5ab4fd23c71cd9U,
  0xe32ddfbdd02813fbU, 0xe6ad58dbf9e9e8eeU, 0x361d10cb814108f2U, 0x333d53d90a17e7f0U,
  0xf41116cefb241bceU, 0xedb7f4b34963ab06U, 0xcca0e222ef2eed13U, 0x1774fa06ac14f0d7U,
  0x3f1050097f291113U, 0xfa7fd0f53f1dd2c9U, 0x460b09cf5110fcffU, 0xf0ec3d5ad2c8daf9U,
  0x54c039d9c8271639U, 0xd5d2270f4f5d01f9U, 0xfadbfbfeed3656fbU, 0x4ed1c9170b7fe7e2U,
  0xd929dc2952d87c55U, 0x3835bf0212fce653U, 0xf3d62fd4b6b38156U, 0x230ae3eac3e8be63U,
  0x3c31bd5be0670c4eU, 0x2531ae168e4df98U, 0xfa174ac6181a0e81U, 0x4417f500dd161b28U,
  0xcbd4f249d92fbb34U, 0xfab137287f1fedfcU, 0xe7efb6eb230ff68fU, 0x2043ff15ac1b1accU,
  0x491232430ed511e8U, 0xbdac782c47ff1cecU, 0x181e1dfe8fe2c08U, 0x38df302f24f0b301U,
  0x30ebc3771457d6c8U, 0x663241b9c227fec3U, 0x41c40b0b518184bbU, 0x46d16d2172d1b06U,
  0xe3edfdfacc2d9605U, 0xef0b1c0011d9092aU, 0x81f00bc5121fec07U, 0x1f81d3e1bcdf9b8U,
  0x3f8db2ddf6f1020fU, 0xeac6f5e62a8116cbU, 0x1907c0ab02064412U, 0xb9eacb252593e72dU,
  0xe66a3da65f1ac4f9U, 0xdeeff6e145eaf50fU, 0x2586eb299d28172U, 0x3338d01c1e22a886U,
  0x40a4191912096225U, 0xedb51de83efbcb4bU, 0x86b501c06d81400U, 0x9736d828ba7fbff8U,
  0xf4def9e8c5235aefU, 0xabe0bcef8cfbb32U, 0xda1a5fc8c4afeaecU, 0x81200f4b33dee44dU,
  0x8fc118f03cccf6a7U, 0x8159c124224c19e5U, 0xc5e719d42efaf1cbU, 0x6d2b99ecfbdf0a32U,
  0x511541e75e63306U, 0xe7e5e9f8e3e6ff7fU, 0x922f10305071217U, 0xf11905ddf2151f33U,
  0x1b901d0U, 0x0U, 0x0U, 0x0U,
  0x0U, 0x0U, 0x0U, 0x0U,
  0x0U, 0x0U, 0x0U, 0x0U,
  0x0U, 0x0U, 0x0U, 0x0U,
  0x0U, 0x0U, 0x0U, 0x0U,
  0x0U, 0x0U, 0x0U, 0x0U,
  0x0U, 0x0U, 0x0U, 0x0U,
  0x0U, 0x0U, 0x0U, 0x0U,
  0x0U, 0x0U, 0x0U, 0x0U,
  0x0U, 0x0U, 0x0U, 0x0U,
  0x0U, 0x0U, 0x0U, 0x0U,
  0x0U, 0x0U, 0x0U, 0x0U,
  0xe1e7ec4800000000U, 0xec04d74adbff2e49U, 0x250ed5d1c4143438U, 0x320e05473d3149e1U,
  0xe859b99abf089d0bU, 0x2abb34dd5dde1540U, 0x2ce3bfe6287faeddU, 0x32d830097cc10681U,
  0xbe3b7f05f8cc3118U, 0x147f0f44db7a226eU, 0x6f0a99cd811d3de0U, 0x77f0c6aa208f816U,
  0x23ee1481f4346d13U, 0x9d5ce0a7f7336e8U, 0x7ff2064481e27fceU, 0x3f334603da174859U,
  0xea0c2dd5ccc81f1U, 0x49c9b7e33b81144fU, 0x12167127a2cb7f26U, 0x25f2efc17fddba76U,
  0x2501101dfb01ea63U, 0xf0f41ef2045b6faaU, 0x5cfd0a8100dde56bU, 0x7fb23f7f1c810edaU,
  0x6ceb6f72d07f19faU, 0x814201b301c2a8efU, 0x2b811c7fd7f0163cU, 0x7f56ac53444e81acU,
  0x92fc120550e1881U, 0x9a6bdca9d826d7b5U, 0x27a0f2817fee06e5U, 0x3118812ec97f17edU,
  0x81142345398fa834U, 0x4f4cc8ee1e0d7f7eU, 0xbaeacc14e5a6d7caU, 0xd619f24e049ef97fU,
  0x917f3339e8bf407fU, 0xe3071aeedc8183ccU, 0x9eadffab0a0c7e3fU, 0xca5a6ddcd2fa123U,
  0x432df681a5e0e6ecU, 0x8d7f22e1b62f7fefU, 0x5807dbf90d36b91dU, 0xe4e3df13bb743e35U,
  0xe881ab14ef3ef76cU, 0x4c16add7f50ed283U, 0xe701e72c36adf2d6U, 0x25f6ee2012d70410U,
  0x41c155680c64f815U, 0xe4fb1fe3341eb524U, 0x2be7baf63c2a1ab6U, 0xbf27642e8181bc39U,
  0xb7fb8bebf40dffeU, 0x111c817fed352681U, 0x1c2e66c64bc0e7f2U, 0x7f1e314373650de0U,
  0x24ccef4b34e6f87fU, 0x81ea5f813f7f1630U, 0x23183b0d6f63f5f8U, 0xf118f35dfef4ee0dU,
  0xac00585ee1fed6c5U, 0xf9d40368df376581U, 0xcf18e78fc20fb03fU, 0x3b027f54ba84a14aU,
  0xbfffe050aa030eeU, 0x28de0a47d10214c6U, 0x49b1214025102581U, 0x1c7fd662bdc8ff50U,
  0xe2c64af0c87fe023U, 0x8107f18f052e612U, 0x7f1e7f100a8181e8U, 0xed01d31ff0b989ddU,
  0x1f4381e8045081a9U, 0x681d381e6e87f1cU, 0xc6ddff9ffed5a97fU, 0x14d4b5e66503eee7U,
  0x81f80ced0c96fa17U, 0x81b6aeb3b6f60d93U, 0x14b7220e3cac3307U, 0xffc217ccbcdd4bf0U,
  0xeded1c92489f8167U, 0xec05021b8192ea09U, 0x3d7fe9cbafced57fU, 0x7958eb29176081eeU,
  0x2eef414e7ff603c1U, 0x47227f282822c814U, 0xdcfa815ec87f03c5U, 0x467fe09413b6be4cU,
  0x511fecbe7fde3414U, 0x1546a593dec50775U, 0x21810ce6976e26d5U, 0xea0f10811cae1902U,
  0xc0baefc97fea0484U, 0x440c6db9ea00d3e6U, 0x49bd43687af9ecU, 0x54525a97f1a61e5U,
  0x8144cd4a50cf6da9U, 0x16ea5f33ce16dae2U, 0xd2efe7bca6071e37U, 0xc22fd981b3251c81U,
  0x65ce7f0f537f4818U, 0x58f7301d7f53131fU, 0x7f317f18ecf0f600U, 0x1a280f33f3a98102U,
  0x27cd097fef10fe85U, 0x31f32e992f905f81U, 0x27152c12c71de22eU, 0xdeee81500994e7e8U,
  0x2d65d106U, 0x0U, 0x0U, 0x0U,
  0x0U, 0x0U, 0x0U, 0x0U,
  0x0U, 0x0U, 0x0U, 0x0U,
  0x0U, 0x0U, 0x0U, 0x0U,
  0x0U, 0x0U, 0x0U, 0x0U,
  0x0U, 0x0U, 0x0U, 0x0U,
  0x0U, 0x0U, 0x0U, 0x0U,
  0x0U, 0x0U, 0x0U, 0x0U,
  0x0U, 0x0U, 0x0U, 0x0U,
  0x0U, 0x0U, 0x0U, 0x0U,
  0x0U, 0x0U, 0x0U, 0x0U,
  0x0U, 0x0U, 0x0U, 0x0U,
  0xdc684d8100000000U, 0x17d234ebb8d714d9U, 0xa5ca244ce306f520U, 0x1e03115c313831f2U,
  0xbbf449ec59b8b920U, 0x32e70818103d3bedU, 0x3ca0a5184edffaecU, 0xf5a120943184336U,
  0x23053abef2cd7002U, 0xea1c0fd8e9262ca6U, 0xc300e559566f15e3U, 0x70b5029f2339e1e6U,
  0x28013ee5dffa62feU, 0x2c300fd32b0110ffU, 0x73917ed507f0af6U, 0xd55b310df7481a28U,
  0xffd18e1bbe6fef0U, 0xff47c0e92924e80fU, 0x1b321ae8060c18fdU, 0xeed6ffdb06b8291dU,
  0xe30a09f7dff318f4U, 0xd9dafce09f0e0746U, 0x2e8a16f9931e703eU, 0x2a37f94dc10cc2dbU,
  0x10decc191eb9acebU, 0xf44fc6e1c2bb1584U, 0x69fcfdf6b8059811U, 0xdd1c4b1dc03afaceU,
  0xc2d5ff48fcc21b01U, 0x60cf23b4f6dd23feU, 0x14f120e80b574c87U, 0xdca8e92ab22ae3adU,
  0xbefae9ecc4032b13U, 0x2afffd36301043c3U, 0x74206371821a7f3U, 0x2509271d05427fd9U,
  0x1f11bfae91dfa09U, 0x9c10ecc5b13501e1U, 0x28d71cb598db140eU, 0xe1e172f6e76fa8f5U,
  0xb6287f010939d7e8U, 0xc6b9000d3a2e04c4U, 0xf8af3600f9ed280cU, 0x22421e2408e1134dU,
  0xe7041a5f1eea1901U, 0x463be2145b0e2aeeU, 0xf05aeb3b0043094aU, 0xd0a0cd13352a3258U,
  0xf0fff21d12090ccdU, 0x1dff0f09fdd7d73aU, 0xc73220d5fd2cd4f2U, 0x1f05f8e69dba08cfU,
  0x1928caf7380a15f5U, 0x10d3c3d20e262dbaU, 0x131627e6ed0f362cU, 0x1f2c28950bcff0f4U,
  0xf57f2fd113ea46e3U, 0x24fecd050e1be519U, 0xf10df3c12e7fff3U, 0x3be2ecf60205fbffU,
  0x122e01f72d12c90eU, 0x2628e11ce3f00c7fU, 0xfcfa04ff03104409U, 0xea01ee0a07fb1237U,
  0x19fb30e304f0dae8U, 0xdf5f500d7202101U, 0x1301d51cca070ae3U, 0xe810e2d5e61fc1e7U,
  0x1a11f2c62ecff6c0U, 0xb6fc0c0f2e0c28dfU, 0xc0d0f209e814c1f2U, 0xd5e74434eedd1624U,
  0xdef71331f70fd017U, 0xec0d27c4c11d02f5U, 0x160bfc0bfb2fd110U, 0x4622102c7fffd51dU,
  0xd9f8f6f2091770e0U, 0xae7f0c83c032af7U, 0x43e8290ac0dffa30U, 0x37fcebe4002cd941U,
  0xf302210fe43dfaeeU, 0x394aabe92133d401U, 0xc52ea11ce20f41ffU, 0x1e4dfbcd07262c27U,
  0xe105bd06df0be50fU, 0x16fe1711031ec7d0U, 0xfa0412ed1f2fffc3U, 0x4c2abf2731b51e04U,
  0x19c642e027fbd4d6U, 0x2bf2ab0b1c02fc19U, 0xbeee18fa32d6f7cdU, 0xb9e1142135f8f52dU,
  0x3700342fe01e160cU, 0x47d830f9161beee3U, 0xcdfcd401291c08f6U, 0xf281e7d6f0ea2ffeU,
  0xdf622050e142215U, 0x1c94150418c1f5e3U, 0xcd07fdc0a60c2419U, 0xfeeb6f2226c00294U,
  0xcc1d78e6f5d5e622U, 0x1b034b15f5c4092eU, 0xe72dfbcf23341addU, 0x26241a26b7f902fdU,
  0xff16ff302fd00187U, 0x14ea0f39c3080bf0U, 0x77f0733cd2bdae2U, 0xcfbc1f0de3fb4325U,
  0xe1060cf6fc47d502U, 0xdd21722c719ca0eU, 0x303f13080137fa39U, 0xfcbfe10ae8fe17e5U,
  0xfaed2a34fc14e2eeU, 0xd3292a22f5dfc0f0U, 0x24e8122fbdfe03f0U, 0xa8380510bb592be0U,
  0xaf1241f2419ff02U, 0x41d81002599e214U, 0xbf1fec0018dbf6f0U, 0x1a003fcb3af8ff1bU,
  0x4179909af7decfd1U, 0xbad21307db1e5ff2U, 0x953b053bc540e0e8U, 0x10ac0e4607e9d137U,
  0xd3023ce0f2ffd5fdU, 0xd01ba1e9f52ebe7fU, 0xd30d18ed4ec049ffU, 0x5b06530b0dd70adeU,
  0x369b13271c3beca4U, 0xc137c0e8cdff0cc6U, 0x184405072e18c8cdU, 0x2dbf7f277f7200cU,
  0x78dedc03a402f5eaU, 0x15469c076eb403faU, 0xd3317b24f8ee1121U, 0xced2db0cdbb061d4U,
  0xfe08f1e8225ce553U, 0xebd2ef27419c324bU, 0xe901d3c9f1f418ffU, 0x613016810e4ec4cdU,
  0xa331d40097d700f3U, 0xcb1eeec50de54423U, 0x293d49d4cbbcdd22U, 0xc65dcfc8091c0edcU,
  0xfd41b7fbc30cd937U, 0xf502fdfbb1e5cff3U, 0xe8eaebcb0e0aedafU, 0xef4e2ffb39dbe90aU,
  0xe126e65402f8db46U, 0x3be954eb1a20e321U, 0xe8ffff06f0c5e5d5U, 0x11e4c9e0bc81d8d3U,
  0x4244d105df0d15c4U, 0xd3ece625fa0a50caU, 0xf7d3f10460dce5deU, 0x415138c0c3fcd623U,
  0x163d4702faf22b20U, 0xafcb61af0eb14e8U, 0x18eaeb2194415251U, 0xe9122fe61d94193eU,
  0xe1e1e011fe10ff8U, 0x1e02f0c1200b08b8U, 0x111011caf301fcd1U, 0x1fe2eec2001b00f8U,
  0x81c6b11b171e2f06U, 0x173ed0fd00f830cfU, 0x545c6e1dafae4U, 0xfa67e1d3cf415639U,
  0x5cda6281e405240bU, 0xdaa11fda9de40ec6U, 0x10301bf15bf8a5c8U, 0x63604fcf53a4f3dU,
  0xf106fa608f47d72aU, 0x5e0ad7a7fbe2f4dbU, 0xc4f83afef14329ddU, 0xf2d64512230c123bU,
  0xec54254e73d74ef9U, 0xfedff110ae2ec8c1U, 0x34bdbe0648f83c2dU, 0x35e09fa7e717f8d5U,
  0x383803ddba0ce02dU, 0xe981f2ff480b13d5U, 0x3a54053cf48d3226U, 0xf170ef2f27af8d4aU,
  0xf0efc3dd5213a38U, 0xe1ffe5d2bd0d2aa1U, 0xf217ebd8f52c090aU, 0xcc321cf226ece61dU,
  0xe82e2b7003eeee03U, 0x5944f93b0514bcf2U, 0xcb36ce2c09ec951dU, 0xf4efe229f5e423a0U,
  0x3bcc14ceece8ee0aU, 0xa9f75b2c8ec7b6ffU, 0xb12f0c0cc320d020U, 0xa3fdd23c5446591aU,
  0x1f55cee87f9d0b29U, 0x1ccbe0d72329d1efU, 0xd9050032cef5ed1fU, 0x8e6f63356e90be3U,
  0x16d139fc36212421U, 0xcdfa520414c5d7edU, 0x27d56243312cc724U, 0xf809c6e2d1322dfbU,
  0x2300102d17e4f9fbU, 0x7902af1748f8241dU, 0xf00327ed0f90e9afU, 0x2f1459f767181243U,
  0xfab98b819fcf1410U, 0xdef9570742ead24dU, 0x281eaf52e46759b2U, 0x292a2311e190cd2U,
  0x525951b802076d16U, 0xf3393a4ab0b76bc6U, 0xd843253900d11bfdU, 0xf6011038ba82de94U,
  0x11e02bd29e06c2fcU, 0x60e07ef0d8108e9U, 0x2beb0b15bac9f01eU, 0xf6ff2f32112a04f0U,
  0x2d050222f148c131U, 0x90b6161ecbccfe2bU, 0x15e047280711f6dfU, 0x22b9bafdedd9f814U,
  0xa6aee9f4f03162c0U, 0xd0bdb2beef3f3a1U, 0xdca934d95251cc51U, 0x2e6529c71d290bd2U,
  0x12de1edf7d72adaU, 0x42f1d8327ea9242aU, 0x7f3b0bff871b1fbdU, 0xfe0b08d1101bb43dU,
  0xd918f9f90eff9f49U, 0xcef8f6fbf6d7b135U, 0x33afee41b083e17U, 0xfd33c3c7c74c35f8U,
  0xf51cbd11f9ddf203U, 0x3f22bcc9e2f1320bU, 0x432f40054ede06fdU, 0x350611971d01f7faU,
  0x3117e8ddcc27dfc5U, 0xfa05eb00e2ea4a2dU, 0x1f910491605bcd3U, 0x1410f631f9dced54U,
  0xff12b9c6d1cacbf5U, 0xb4f745d7281e0ae3U, 0x60efee3dfcf3d0c8U, 0xd0f62c1e06e90dd1U,
  0x4730fe04c605ffd3U, 0xff4e2aca03f4f921U, 0x5e2f1f8e9fd0ce8U, 0xdbe5e8c6f1f54381U,
  0xd0320fa308e6f034U, 0x81f91a191b3ef7e6U, 0xe3fe0616d1f74312U, 0x34fb021078bd101bU,
  0xe64f98b1cdbff61cU, 0x29471a2eb6e2bd1fU, 0x18f029b50e05f7fdU, 0x4e0102d50731784bU,
  0x2ba1c3e2c7efc33eU, 0x9c2a13dce92bfdU, 0xf4ff1dc519e5c2dfU, 0xd1f2a573fdfde111U,
  0xfadddd4f0f2b90e8U, 0x3d0612d5ebd2fb1bU, 0x27c31d2022fe0ce1U, 0x17db3de22a025f0dU,
  0xf90d1fda2ff01c3fU, 0x28dcd3f7e9161e0aU, 0xff330c231ff555e4U, 0x1c58e1e61d00226aU,
  0xe9e225d721c8cac9U, 0xf1d1538dce2df23U, 0x3801a0bf12f7f5f3U, 0x10d4fff30cf90ce2U,
  0xf90b1cd181140c24U, 0xfe1131b0de2e0bbU, 0x340f065d1034ede8U, 0xe5e83911e0da0bb7U,
  0x4431e2d30ae9f305U, 0x3306f10e4d091604U, 0x5ade0a29fa0cf1e7U, 0x353235c3191b2edfU,
  0xc36e415f8b3edf0U, 0xfd17d71e1f2a04d3U, 0xf20b0fdbec152e5aU, 0xc7d97f1ff6e70317U,
  0xe192cad91d1cfec7U, 0x46d6301ee8f20faaU, 0x191453fddc0795e6U, 0x30399e95fdd62c17U,
  0xb4eef4d6043b6a0dU, 0xfad13dabe0e437d8U, 0x23445d003c1fe7d6U, 0xd02927f15cc2e9fdU,
  0xf6343f0c110f39c2U, 0xc0f2c0508095598U, 0xff8ab8fd4bb637d1U, 0xc22eec26d53b811dU,
  0xcb15c2d406020813U, 0x2e0fae351acde825U, 0xf2f935014f25f110U, 0xf5d1e86dd0dc322aU,
  0x389dea427cae12dcU, 0x3015ba3e1c1e210bU, 0xe270ce91fee017e3U, 0xb5d82919bec22f1bU,
  0x42240c09fe1321caU, 0x250be1c3e20fa416U, 0xeedce381ec3adeU, 0x2bb9f1b1a7fc28c4U,
  0x9d70932231c06e5U, 0x4e6ecca152111fcU, 0xd4f2f2a20b07e3d9U, 0x40018071ce1fa16U,
  0xaec1109d61b0bf8U, 0xd714bd04f42837deU, 0xa6f6ff0b0aab2a0eU, 0x141cbc08f3d3e77fU,
  0xfb2d01e61ee8f619U, 0xb20afb12c821d8daU, 0x90cfcf5f8d40bdeU, 0xe2f4ea2e1e0730b6U,
  0xfd5f25c3c631e023U, 0x42ed0fff1ebe07f7U, 0xaeedb62c82c7619bU, 0xa934d1e8f64f56e6U,
  0xe70c7ffce4f0f819U, 0xddd1fa53dfee133bU, 0xc350c5fa04fd51eeU, 0xf1fbc5f809de42baU,
  0x2beb43cfd41b4ff2U, 0x1103f3a2d5063214U, 0xeccbf5d9373f032cU, 0x474e3c15d9d907f3U,
  0xf8d52bf8ed593db2U, 0x234b47f20b359018U, 0xabb5ce15170ce908U, 0x250a04f900eaeaf0U,
  0x4281fdd4beefee03U, 0x2ad5f4d4fcf7da11U, 0xebdd0c14c304f2eaU, 0x36e5f9a4f8fd13d4U,
  0x47e2cb08eecdd7daU, 0xfc170d11fa38ed46U, 0xf12d0332e5ccd1d8U, 0xf706da242c582aebU,
  0xef4e0d0eae8130eU, 0xd808280f27cabc39U, 0xf2e8d0baf5010725U, 0x342f0cccef161725U,
  0xfef41119ef09e766U, 0x4e1babe6b167ea01U, 0x279b36f1c902020fU, 0xc5d118d212a7af3fU,
  0xa9c4e61ce55ef3ffU, 0x94137fe02bf6e4d5U, 0xb412df01d5f236d0U, 0x1be6ed060816cc93U,
  0x7f3d12ec7306fadbU, 0xd7e20ff554e54fe5U, 0xf51b1887da2df4caU, 0xc4d81dfb3fd0c61bU,
  0x184aa9b8b0281731U, 0xd4212eebc6474900U, 0x111ef2621c0c236U, 0x38eaf906a2e5c995U,
  0x2532902c7032cc8U, 0xeda3d218e6fc5911U, 0x890e9e444ec620e0U, 0xef375fd5424cc6deU,
  0x2001ca04260934c8U, 0xceb92540916a4243U, 0x251df9afea26ef26U, 0xd83c030ead4accb9U,
  0xbc51310927fc4234U, 0xd7430310e015fb2cU, 0x32d711c13a38b85dU, 0x4bd1ba7d04a5c3cU,
  0xf30a3d20e90fcf08U, 0x17097e3c2bf616d7U, 0x20d66b0df22ec9baU, 0xfe902bab54f09f01U,
  0x3607187ffee97fc2U, 0xfefeb02af9f5da16U, 0xef431ade032c4433U, 0xd1d73610da13f3ecU,
  0xf8ff1ca82a2825edU, 0x7f4d71eb20300c7U, 0x1be03f2f640e21edU, 0xdb05b639cefed31eU,
  0xed044de809ce180cU, 0xbfc3dbefc925da0fU, 0xee30f084c025ce14U, 0x1f0907210622135eU,
  0x4218d214ede927f9U, 0xffc954f414e425fcU, 0xff33fd0f10d30fdaU, 0x1be4c4473b1dd3dbU,
  0x78128b41ae4ccadU, 0xe80f32382dd0011fU, 0x4d3fbdcf3171807U, 0x324a02f2e9121427U,
  0x222497d9c3db3442U, 0xe631272af561b7f1U, 0xddf3fa34f50bc9e0U, 0x18cdda48d51629f9U,
  0xfbf9d54b0cfcd325U, 0xbcdbd7dce6f2d0bcU, 0xf72412b6f649360dU, 0xacce0bbce0006e0U,
  0xf439f60000f0d1c1U, 0x2e01273b17eeeab8U, 0xf6d4fb07d413e30bU, 0xf1db06fee9eccf30U,
  0xc80dcad54e2e0211U, 0xaece7e4bf131ff9U, 0xe2bfe040fe1b0122U, 0x62e152ce87f4f06U,
  0x4e31f2d105012b13U, 0x24d00a81e12d271bU, 0xceec284563fbcd00U, 0x15ee10b7a7fb413bU,
  0x1b53aa850bc28f6U, 0xccefe2d111ed6fbU, 0x3f2f43f8dd2bd6e3U, 0xd1db17ef43f31ceaU,
  0x2a2cf401f53c0eU, 0xe51b1cc55308dfe5U, 0xd018e01d0fc4fd2eU, 0xbb08e009211ff4b2U,
  0xc356dd0cd234f7f0U, 0x21250ae73d013d03U, 0xe52ae307f2a224f7U, 0xdeb60df2f09e6ddU,
  0xd8e523531f0abc16U, 0x7fed22fcf2130847U, 0xc719d306cfaad04aU, 0xc3f1ed39fa0fcfd0U,
  0xc4b8aa441bbb8ce7U, 0xee2ff82da0f7052bU, 0x1352ed12181cf20bU, 0x2604111824f7df0fU,
  0xce190f05352ec18bU, 0x58fb18031e27b2ecU, 0xbf10b708ccd72a3eU, 0x8dcc3022f0361dfaU,
  0xf30c50ea2d5302d1U, 0x56dbd8f1f2a5cf22U, 0xefd23ed35efa3d69U, 0xaa044a59d413fbe7U,
  0x9d60076db81d3331U, 0x7d7c4e5a4e3b223U, 0x15ba2a73c23b420bU, 0x2809d42e7fda0208U,
  0xa5461be4d8f8fac1U, 0xef0f04e508e50cacU, 0x4ae6efdae62db2e8U, 0xd90d15efd601f72fU,
  0xf27b810cd7fe00c8U, 0xe326eb2b11aaf032U, 0x500bf62325ddfeeaU, 0x5f2ff1cf431fc10U,
  0x28b8fadee522e303U, 0xeb12208210171102U, 0xdc067a0c2e5a1606U, 0x21ec1914fe943adeU,
  0xc8d91d1720b7df30U, 0xe0113f1fe20202e5U, 0xd0d1ed411aeafb7fU, 0xddf7ed07fc1dbb16U,
  0x243e1ce4f9e9f4fcU, 0xf2071605eb1827daU, 0xd70f2520121af703U, 0x100524c9152830efU,
  0xfa05eb1cd62ef3e9U, 0x3744061ce24625edU, 0x212b320ff42307d3U, 0xf5ff2e00c331f6eeU,
  0x181cfb0311ec1315U, 0x5fb765dd007fd20dU, 0x2d1e29ec1f17061eU, 0xab53dbe21ae24ce2U,
  0xaf353e0e2409c714U, 0x21dd3b092045c7fbU, 0xe012f6ef1f45e417U, 0xda510b04ee2b1814U,
  0x2ae80625fef3c008U, 0xfc3535efe7291fcdU, 0x3c104bb948dee946U, 0xe4070334280b1de5U,
  0x1bfe38dff5adc614U, 0xfdf001ebf9241d21U, 0xc8e5c8f3bee330dbU, 0xf1db330d2403da5eU,
  0x1a7cf251f413d52fU, 0x1fdeb505360829d3U, 0xfc18d9d71a17b501U, 0x3504fbf7060c45fdU,
  0xf7dbed0909bdf790U, 0x273e20eac1fd28eaU, 0x38d834d7814d04d3U, 0xe5cee2f0a51dd8daU,
  0xd7dd0629e12bd13cU, 0x8132647ad2e140fU, 0xe7030cecdac1cc10U, 0x21ce27ecf608d91eU,
  0x415160a1cf8c9ddU, 0xdecfafefa0f3f81U, 0xf215f801171cf3e6U, 0x18fff1aae274f2c7U,
  0xca1537eb0bd2bd0cU, 0xbe0809e0ad0c711aU, 0xec1904103f2de935U, 0x220fb612fe130af6U,
  0xf29e8e22107c7f4U, 0x20e33b56f00f1460U, 0xee1503e735f6ddfcU, 0xe5e10230d610ef30U,
  0xde960ab11d1972eaU, 0x25b9b31cf16edcebU, 0x1e10f50e191eb158U, 0x6100f7355910cfb0U,
  0xbf920f9f62bc11dU, 0xe99ccf3e0b547ff7U, 0x105b410ed8fa2a39U, 0x6834fa19acf4f22cU,
  0xd415ef174efa3253U, 0x2e423510af724e1U, 0xe93f2ed41cdaccddU, 0xf53ae5f14cf6ffecU,
  0x30dcef012128deddU, 0x1a0af7071ffefcffU, 0xaeb1ce3706f13981U, 0x26e5eec3df50e9cfU,
  0x1d00efe80e1a0ae5U, 0xe8f819a6d924e839U, 0xdaefb14739e7b9b6U, 0x31f2a1111f62001eU,
  0xfdd05222411d140dU, 0xed71e09fbf0bb30U, 0x3cf2ebdd0100fcfcU, 0x13c83d020406d9feU,
  0xedf111f420cf2ae9U, 0x3f7fe922e5c3feefU, 0xf2ed12d7003405U, 0x6de221d1df4e218U,
  0xeee53afc05fe42feU, 0xd0e510c6e30ae6eeU, 0xe5f8e797f733ce18U, 0xdfe01af8ee0cefd8U,
  0x92b68f29d9fa0f36U, 0x1a1125ecd824132dU, 0xb4fa0fdbae05ea2fU, 0x40dfd758df2c8e22U,
  0xc3fbd9edfadb1c6aU, 0xdde424e0e115812cU, 0x441bfbf3851033b6U, 0x429ebcafee0239d2U,
  0xb59f241235d604dfU, 0xce1e28e7f01844e9U, 0xf2421444cfe82711U, 0xdb061b2ee542d008U,
  0xe8ccf31e1ecfb82bU, 0x2ddb00e2f3dedd07U, 0xc421620a01ef1622U, 0xd80f25d91bd3a8ebU,
  0xe603f423fbe266d3U, 0x3340c5cfd30006a4U, 0xb615dbb0cf1211f9U, 0x5fc1b242c14fd11U,
  0xfffa26f4361fd525U, 0xfcf3de81c13c1bc9U, 0xf7ded04c54ca0117U, 0xd50d17ff9ae10d9eU,
  0xf42a047fd7f505c2U, 0xfcb8de25e21f3e21U, 0x1d5f8fe07edd1fdU, 0x41c9f516f327a71bU,
  0x2bfe5ea0123e614U, 0xbd2f2210f825d2c9U, 0xf6b71956201aed40U, 0x31c2ce4fc0ce415U,
  0x451d3f9b406c6e8U, 0x41f10fe5fb40f6feU, 0x2020efe1a0c29e3U, 0x13e73eeb1fe31bd6U,
  0xae38f60402fe1f0bU, 0xd40d06d9cefd15caU, 0xe0cb325ebac2903U, 0xd129028707e9ef08U,
  0xecd90913ef5534e8U, 0xe723d50ecef430f7U, 0x13f1cb08402ed6d7U, 0x1a05d2f628ecf5f6U,
  0xfe3f781e9d1e8f1U, 0xf59b0407bdedd5d4U, 0xf522ebdd1209e2b6U, 0x38d3111cfff5080fU,
  0xdec3b5e32a0522ddU, 0xdbc12f02e50bb1deU, 0xaddfdabf21327d0U, 0x27e81cc501d9f0deU,
  0x819e0ed1fe2f510U, 0x9dfbc24f4efd0ccU, 0x31e581099a27fe1cU, 0x4bf61bcde847e006U,
  0xd1f8dffa08ad0909U, 0xfbce09d935d5324aU, 0xff044940d17e2e9U, 0xd6f30a1027540700U,
  0x2b04c129d7462f22U, 0xb4e61a30e946f511U, 0xe72dd94119000ae2U, 0x130eee0deb00ee15U,
  0xb60b1d0a02d70207U, 0x111400d5c3a5fd44U, 0xe2048ccfd8e24635U, 0xedd00602cbf50c1bU,
  0x1a2cf8f92b81c6beU, 0x3b8121312e514U, 0x5e0d34e0fce5dc17U, 0x2646eae20000e3faU,
  0xf406a721d1f5e300U, 0xa25bfdb161e16a9U, 0x37b7e3069d03deeeU, 0x16ec539c12d66a58U,
  0x82ffe1594bd0411eU, 0xe7241ced64cf280cU, 0xbe071fa907370b1fU, 0xc137b254e1844e8U,
  0x19d12c2115401433U, 0xb6a9f2b27fdb1100U, 0xc5d295c403d518d2U, 0x1ca3d60b233dfad3U,
  0xd49a240816db23c4U, 0xef8fb02d33b1114U, 0x32f1cc200313f3ccU, 0x301ef056d8f0f74eU,
  0xed10ffea00fd1575U, 0xeeaf361556d0f4dfU, 0xe2dba02fd312081bU, 0x3c08ffe3fbebae56U,
  0xc4f581f238011800U, 0xafbdcf3154c4ba3U, 0xfa0e1545cfeda2feU, 0xd02e311bf0b51f47U,
  0xdb173ecdd6e8c205U, 0xed18f522fee45849U, 0x15eb643ffce3dde7U, 0x3ec0637c87fb0U,
  0xbacda40d3b2fb583U, 0x450415f7de25f1ceU, 0x2b0f0c3d2b0e17dcU, 0xecb7f91aa3fa345aU,
  0xb1d8f3f50cf62337U, 0x570704220b1e0cfcU, 0xb12f1f4bbad2351fU, 0xa8b736ec17bb28feU,
  0x3e5f0fa01b322U, 0xe01ff4a914257e0cU, 0x8e6fac718dde834U, 0xf2223ac9e610fbeeU,
  0x3d11fd2940111c44U, 0x33143e48d031fbf4U, 0x3d4e2c2c1b1e07c7U, 0xc74f87d316f7e0faU,
  0x101bc1e805eefeb4U, 0xe9026ef025bdb6e4U, 0xe72c11e1ecfa81ecU, 0xc1fae11000081b16U,
  0x4535e019dfc507f2U, 0xc1d7cf21af24eb9eU, 0xee535b1502fedaf5U, 0x19ba199e81e316a8U,
  0xbdbb0db3280d021aU, 0x2e73a15061206c7U, 0xf40fa35ff15f7e0U, 0xcbc3f2ce07f00b13U,
  0xdee5ef2a2deaf405U, 0xfcbdd6279beea608U, 0x8c7f3e7fb3e24f9U, 0x16dd3427c13bfa39U,
  0xf40eebf9c01f25f0U, 0x2d2f22e6f5e31b00U, 0x34ef29de090935f0U, 0x262c0325f7f2dbd8U,
  0xddd20afbf51de2eeU, 0xe7dc40fcece4e581U, 0xf5d9f60bc2200453U, 0x261d1030e8091f08U,
  0xec06ca01291cabf9U, 0xf90a15fcd45d0bd1U, 0x1f60235e1f94ef8U, 0xc7fe0518d4d5d9fdU,
  0x6edc1f60e8200127U, 0xbb81e910ba26fecbU, 0xd5b4653104c836e2U, 0x1c3f251f05cfd9caU,
  0xdda21ff1fe1cd11U, 0x9cb7268e4f3c2b1aU, 0x142e1610cfa2efe9U, 0xd6101409d5cc11f7U,
  0xdb6dd4fc07261cedU, 0xfe124e1e1326ecbeU, 0x22c4eb573ff046f1U, 0xe423fff5b69164a5U,
  0xf20eee3c43d00538U, 0xea04ed45d6f3b0fdU, 0xa2112a02171e1d03U, 0x8fdd5e1dff30669U,
  0xd9ecc65f3fc87607U, 0x19110a083ca92140U, 0xbbf10715cd92ca86U, 0x3efc9b94f1c9bef7U,
  0xee08dcef0b074137U, 0xf115ff3fd57ef4f6U, 0x3b1b1decdab233a8U, 0xc44c9f39cfc570aU,
  0xb7dd17e0e481f9cfU, 0xc350ff32c1d50cbeU, 0xeb0f52f3a3fae4f1U, 0xc4fdc219cabd0d0fU,
  0x83d1e0bcc711bfbU, 0xefd1dddc26fe19ecU, 0x5463c6efd1081681U, 0x40d1f7cd1825d93cU,
  0xd5481673d22dd3b8U, 0x2e272ba0e6068ffaU, 0xafa2259742fcd71eU, 0xb03764a7e6ada2e6U,
  0xae4f0623d4efbecU, 0x22e9681b2fb0d34aU, 0x16c721f9aefd18b9U, 0xf228fa55c3bfd3b0U,
  0xfe99cd81e3e85a4bU, 0x112a3b15d91a683dU, 0x3500e7d9e2f1d0edU, 0xffd17268011a03faU,
  0x540498fb03ff1920U, 0xf500c24a0c0afa3bU, 0xf7c50b1d2b540441U, 0x13d71f3b1000011eU,
  0xf2d4dde812ccc7feU, 0xec24e14ed0f7e1deU, 0x3811f2120221d93bU, 0x33f8f7e7f98facf1U,
  0x2dcff05308e8ff15U, 0xc4def8bf0237327bU, 0xf19f0bedcef7f1eU, 0x160232effd0aeddeU,
  0xfcd1effe5a35dcccU, 0x9e27d04dcbbf4fd9U, 0x35c9f11b08d142f6U, 0xd32034e939eec92cU,
  0xc2dafaf7fcd61187U, 0xf11901d41a0c0220U, 0x12f90d2e55144802U, 0x534c52e4641bbdc9U,
  0x37c834e3ef2518cbU, 0xeb0e25a7dcf6f9eaU, 0xee3b1d03e0040a1aU, 0x3415c244cb2fd9U,
  0x17efffdbd9f2c212U, 0x22011835f4477169U, 0x14b933220efcbe3fU, 0xda7fc60b290cfa34U,
  0xcb0e05427c4721c1U, 0xea1b39167fdc31d8U, 0xf81345e2c4d7f7c0U, 0x4caecd51f105c15U,
  0xe4ef040eeb4420bdU, 0xb8b53d0e40fe28b3U, 0xf9c43b0c1ede1d10U, 0x130b0cfdbe0be8b6U,
  0xfd05010bf5f7bafaU, 0xd8b1a9dcbe1e0e22U, 0xda1c0e0c3ee0f7ddU, 0x110f2efbb800fd31U,
  0xe5d2d5eef7471312U, 0x41183cf52a81b5U, 0x1bceeeff2525a504U, 0xff17311e2bd2faedU,
  0xc022ded2deec291U, 0x1ea50b342ecb29ddU, 0xd9fcfce41c2df53eU, 0x1be8ff0d19fc000aU,
  0x2de1763b13ffe4e6U, 0x3345f3fbe436e3b5U, 0xb136e9ff57055310U, 0xd2baf113029bd40fU,
  0xd24c1423d027dcfeU, 0xd64d09520c408ad3U, 0x15462124c8041318U, 0xc8fca539e94ed173U,
  0xe5031316f71c9801U, 0xff04c61acae2ef24U, 0x911c5e1bc28ef47U, 0xe5fcc9e9d30648ecU,
  0xe23cfd0afb12c437U, 0x139ddee8e2c42148U, 0x3971cfcdd1fbf359U, 0x7f28126b3eb513bU,
  0xf34f3cbda00ed2eU, 0x2c06dde181f645ffU, 0xde141e3f5ef7f30fU, 0x1011b4eaf7e3a4f7U,
  0xb6bd7423191ded1dU, 0xd7db65ef1032d841U, 0x1289e3e320c91db0U, 0xa06c313d7021d04U,
  0x10f3f29ae5de08d3U, 0x3514360357e12efeU, 0x7bf16a16ec21ca35U, 0xc2e6ff644cf676deU,
  0xd8c4d6fc3408eb0eU, 0x45c9a282e6064ff3U, 0xfb00ed1bf8fa04afU, 0x96fe3af1e011cd35U,
  0x1b0bb80d3acacc02U, 0x201c1d044f13ea23U, 0x3707331c3cb3041cU, 0x5af9d529fac7283bU,
  0x8a639598eac4f3deU, 0xeae117bbc82a8125U, 0x1bec1110eee61b24U, 0x460833fd0672bc13U,
  0x2724ce30f12a17b5U, 0xccf5ff532a14b8caU, 0xbebdf7263dd40150U, 0xb803b165dd31aee7U,
  0xd5e1ce112fa2d9U, 0x34431851eb392be5U, 0x8bdbf39fbfb1accU, 0xfc2b26392efdb3adU,
  0x2ced29cd61edd9f3U, 0x17236949fa1301baU, 0x14f9d500187addf4U, 0xe66619f4ee1e8149U,
  0xf82524f813ff50feU, 0xe8d80b2bf9121fbdU, 0xf2ed0f07365a00d5U, 0x503d9f2d881fdf7U,
  0x7e3cfa5e25a2635U, 0xc202efee7cae9abU, 0x28fe1946dd379fe3U, 0x2c2bb810dc40c2f4U,
  0xc2070dccfcdae0f8U, 0x4a15d318dd1b062bU, 0xff49082dfdf5152dU, 0xc228ecf10d13bd08U,
  0x2d2a4c22f730de43U, 0xf448140bebd1fefbU, 0xe8c6d9b5e720ec0aU, 0x172eeaf083fca109U,
  0xecc372147443131U, 0x9beb894d3dd0957U, 0x49bd17060d242423U, 0x2b00050aef4ada1bU,
  0xc53389f7cfe00c9eU, 0x36596edfcbb2747fU, 0x1b3a5d31aa6320dU, 0xb33df1bdcd00f20U,
  0xe4f034f81f1acf00U, 0x1ead3e7edf3ec1fU, 0x16c90ff627defbe1U, 0x10311ef7f3f5151cU,
  0x15fa657ae014ceefU, 0xcb5904ef3381c64dU, 0x361123d00f233906U, 0xd1cacd3c91c3ecf3U,
  0x1160af2bc7932bb4U, 0x2ef246f315cb0cd6U, 0xdb08c4aa17e13cb5U, 0x473d34341ff3d0e6U,
  0xc8ed2bf93f10e627U, 0xece3e531ec25098aU, 0x4d460072946dd51U, 0x52a9bc1e0aaa51e8U,
  0xed13fee815e608d7U, 0x1c2eceebb4c3a4fcU, 0x1ef71827faf72527U, 0x19c0472815d3f5d8U,
  0xc30b1af0d877b022U, 0x11b516efb5360ed0U, 0x27ee05811e14e3f3U, 0xbb630cd801b7e425U,
  0xf5fb27d3e7e6f418U, 0xbf10df40fd927b0U, 0x10e92147bb4138f8U, 0xb42a23cfd8e614f2U,
  0x20b907a6a3f6e91dU, 0x729201fd045f716U, 0xf6282afd2715f832U, 0x4edf610e528b6bdU,
  0xef07d8022f1ceff8U, 0x2edd1827431ef134U, 0xd714f30ba398da3cU, 0xf5d0e408eed7ede1U,
  0xf7fa070c8145d8fbU, 0x3a59c4c800fe6148U, 0xf2ce343325d81af0U, 0x134323205cc0601U,
  0xe4e6bdf41e1be1b6U, 0xadf517dddb1cb8f3U, 0x4dbd0e1c66eca15U, 0x21080ff6f538dbf9U,
  0x3cde8124e9d50715U, 0x56f233c8ca684821U, 0xde36096925dbd20cU, 0x5beb373aee05c233U,
  0xf8d0e6ec17e8fac7U, 0xffb101e8b8842813U, 0xebf56ce62b1a015fU, 0xdf509c19afb5492cU,
  0x368829358323f495U, 0xea0ea9ac7f01791eU, 0xd3a3e53632b70c1cU, 0x113dcdebfff00233U,
  0x1fd3c7ec2ac7e3c0U, 0xbdb6217d121bf9eU, 0x90f550b60120c1b8U, 0x16fb12eaabed26f8U,
  0x450cec4e39df55e1U, 0x411336fcfba1ea01U, 0xf9ebf5f51becf6bcU, 0x5c8ed30af831f556U,
  0x83f2dc2f103d1f2U, 0xdd152f0b4fe2d481U, 0x1dcb012fc0e4f341U, 0xdcfbe34ab3980926U,
  0xe7ed1da6fe0f3fffU, 0x113c1ad246e710e2U, 0x17b81b2509fac118U, 0x2c08dbe6e61014e1U,
  0x17ef08e4ebfd0af9U, 0x27ba471201dd1305U, 0xd10705c703e9ebe0U, 0x1b0de79cdc1e1c22U,
  0xe6f5c510d20205e3U, 0x398f2712dbe6e731U, 0x14ce3be905ba1eaeU, 0x2bfaf4eee6f70026U,
  0x3af92ccedbc58155U, 0xdbeadd0cfd95e8dbU, 0xf3d9ede61c2c08e7U, 0x2001ee12ded3d8f5U,
  0xfaf497fe23f5f904U, 0xd05d915e64f09dfU, 0x6730f1ca5cadf07U, 0x39160bf0eee71b63U,
  0xe19efddfdaf0f834U, 0x1805f01f9645bf31U, 0xf87c07aa37d67808U, 0xe5e5b83fd23abee5U,
  0x13ccf1d2e4db19d3U, 0x29bc19f57ff00137U, 0x2e4736b644c22b51U, 0x38cd0320300ee422U,
  0x3dd31ddceae9d73cU, 0xa51956dbce0eed08U, 0x261ed0e909f11329U, 0x2061dffa392be833U,
  0xfb0dddcc0461d5e4U, 0x47bddfe505b0d055U, 0xc611e304e2b1eac4U, 0x9f24c6c810581dffU,
  0xaced03c952f13e1aU, 0x1418ee01e7d1d947U, 0xd981f5e6e428ce0bU, 0xe50eff1a10262710U,
  0x4cf02bd3cde90a27U, 0xf481b81a300d3b21U, 0xfbaed72add2ddccdU, 0x1dff294713741f9U,
  0x2df8fa2559da3aeaU, 0xd3eff22e02cdd9e1U, 0x2d1b32f929b11c28U, 0xf79bf58b3de21fe9U,
  0xebec21b35bee8fd2U, 0x2cedc835f42638ebU, 0x81f15bcd2f327feU, 0xe51e37ee05e9d525U,
  0xf5c6050ce52d5a79U, 0xcc144240ae220b7U, 0xc6e6f80b18f794eeU, 0xb90bf805af371542U,
  0x68b409f947e0a731U, 0xcf38d7e6df3fbd08U, 0xfc680cb425bee80bU, 0xb2264a12113a25c9U,
  0x5677f302377f5cd2U, 0xbf341a062326e7fcU, 0xfea237e6baf31c2bU, 0xdf21d6232d06668fU,
  0xa392c0bef0d0e4aU, 0x2f3b4ad1c744d7f1U, 0xfe24cda4e7959e21U, 0xe6173f25fff133f8U,
  0x1905fb7c33dafcdaU, 0x1c1c0eea4441fce7U, 0x38e00c1af5bfd205U, 0xb03d28d5ad05fbf4U,
  0x8c410dbfffad449U, 0xd2b721f4da10efdcU, 0xf6082009daf53906U, 0x1e4af731fc29f4e7U,
  0xd77a15ef7fad16c3U, 0xd6d5f6f49804ff19U, 0x2a04e30b340f2adaU, 0xbbdd0f2cf4a5c8dbU,
  0xfe02b2d8db4a0f13U, 0xf0d4d8ffb247c15dU, 0xf52fcf03db3cb6bdU, 0x65cecac8091dfef8U,
  0x52f5033dcf09e1daU, 0xcaec16fee0080707U, 0xc94a44bc360631e6U, 0x13f19f811cbb2158U,
  0xec16124256f50e14U, 0xbaff40e2ea73f437U, 0x4bf3fdfb39cbc7e8U, 0x17102a17f939d70fU,
  0xc70d2bbeedc4f32eU, 0xd71dc7f12d25eff0U, 0x546002ebf4dc1a09U, 0xb2fe14880af72e4aU,
  0x17c0a4cd10dace0aU, 0xde4c04e5317f23ebU, 0xbf37db4105adf2d8U, 0xdb1807bc5010fee4U,
  0xe400fce9f6dbf85bU, 0xdfed06f7be08133eU, 0xc02c4d02e2d3ed03U, 0xfca7cf1bde322bfeU,
  0xbb1c32dcdd66ebd6U, 0xb6f7160ecad6fa21U, 0x21f12b043396ebd8U, 0x1b2ff3de03ee19dbU,
  0xecfb3225f4fa7fb1U, 0xfd1d61cb3c1c134eU, 0x1128fb16180ee04aU, 0x250e30dc13d7c6fdU,
  0xf101bbf00fc8121bU, 0xc6f220eacffcce26U, 0x27f0f3f10fd1ddcdU, 0xff08ea29c63b1c24U,
  0xdbddfad0f2f6c6f6U, 0xe118e14305cce037U, 0x9ec032eb8e1c231U, 0xc22aafed1ad00a05U,
  0x5f34aef093c14c2U, 0xfc4f7ff9fe12ff10U, 0xf83b25bc0c261447U, 0x171238fbc53b0b1dU,
  0xbae0e906c8d4140aU, 0xb1de705400c11cdU, 0x418e2adbcb53dcaU, 0xbf1be21a10e21206U,
  0x142e12001af5d3d1U, 0x1365b0a01000329U, 0xcf270ef614290c81U, 0x103710f708fbece0U,
  0x1c5314b8be3039ceU, 0x243fcef32c15f700U, 0xc7fb24b5fc2f0ecaU, 0xd530b8a3ddd31322U,
  0xc13b3dd1053267c9U, 0xaec2df1dc0f3ec5U, 0xbf29181401581a5eU, 0xdaecbe42ea02fdf6U,
  0xecee0e09ac1cd70aU, 0xfaa40221154bddd1U, 0x3cee608f3e2091dU, 0x5c4d1125d2d3e2aU,
  0xb208aebc031b0fd5U, 0xffc80cf533dedbfbU, 0x2a12813760ea3ef7U, 0xeb23cccabf04b9ebU,
  0x290c19ee4c14d911U, 0xd93d0e70022a24d2U, 0x3a15179f0ad0deeaU, 0xdde723173d194bU,
  0x445b3febcb05fe7fU, 0x44c45475150ab23fU, 0xa34fc5b9a1e8e36U, 0xaf9bfcf81d46ae7dU,
  0x22adf9cdf911dee9U, 0x49440b11dfff20eaU, 0x27fd301b38f0e9acU, 0x6fd3cc0d7cb2bdffU,
  0x9f60b4fc83834c9U, 0x52bf4f00bf920ffU, 0x21d81eeff71b35cdU, 0xb2fa011e24ee1628U,
  0xf2de1feef7b9b7cdU, 0x2bf3e8063bfa28faU, 0xfe1e1f320dcc49f7U, 0x243d2ccdf81eba09U,
  0x536f4421eddc081U, 0x2918af231d180ecbU, 0xf604203e0e1dfaabU, 0xd30aab13181cbb28U,
  0xf6ae0cf70110cd0eU, 0x92d3a0de9f95c30U, 0x3ecd8d0a070214edU, 0xbd0f37f31529101bU,
  0x81f0c121dbf4d12cU, 0x351d2b064ce3ba3eU, 0xd1f54d0532de0204U, 0x54171cdff72c25d3U,
  0xdb141ef74f4d0df5U, 0xe222d2191916f719U, 0xf231e12525cbe00bU, 0x25010c120eeb3d12U,
  0x39d7f61922d353d6U, 0x13fe114ece014cfU, 0x2217e92107f2c7cbU, 0xf413d817d7727f1cU,
  0x300d5c025f03bedU, 0x133206b718ee05deU, 0xcb0714ea45f73706U, 0x2d0602115ae62ef2U,
  0xd2e3170bf3002409U, 0xda144e0b2cd7ecc6U, 0xf61ed1e8d7440ca5U, 0x5f55fe60713cdb0U,
  0x1e1c4e1b04dab805U, 0x6ef06e42d1d11dd3U, 0x3228d53113f19c46U, 0xe626ff16471d7df0U,
  0x29c2c44606ae2d14U, 0x1112f1fccd29f5c9U, 0x1644f400250e81c4U, 0x88aeba0020d66905U,
  0xedb81df8fe14d0cbU, 0x4a2a3fa4f7afbbe3U, 0xfcad05cc0ec31a34U, 0x33e5c2ebb407391cU,
  0xe111e7fe4b1aeb46U, 0x42191399cf07e029U, 0xdda9f4f0ebfd0128U, 0x32b321131a0bea38U,
  0x6281f3db051bb4f1U, 0xed11fdd9382333f0U, 0xee3d0ded3c2b25f9U, 0xf607372af31a12a6U,
  0xfbdcf2d7efcf0301U, 0xd8f73b94c1111ce3U, 0xf132f916cfec07ecU, 0x8e3772ef9fffc63U,
  0xe6e2f036U, 0x0U, 0x0U, 0x0U,
  0x0U, 0x0U, 0x0U, 0x0U,
  0x0U, 0x0U, 0x0U, 0x0U,
  0x0U, 0x0U, 0x0U, 0x0U,
  0x0U, 0x0U, 0x0U, 0x0U,
  0x0U, 0x0U, 0x0U, 0x0U,
  0x0U, 0x0U, 0x0U, 0x0U,
  0x0U, 0x0U, 0x0U, 0x0U,
  0x0U, 0x0U, 0x0U, 0x0U,
  0x0U, 0x0U, 0x0U, 0x0U,
  0x0U, 0x0U, 0x0U, 0x0U,
  0x0U, 0x0U, 0x0U, 0x0U,
  0x201812b900000000U, 0xda20ae2235d52fa8U, 0xf68171eb81cfea7fU, 0x32bdaf4f35defbd1U,
  0x9f0c37e81df0df08U, 0x5610bab6074b235U, 0xe1d8bf3bc8470439U, 0x8b02ccbed473f13U,
  0x7b1a41fe3a9f67fU, 0x30382f215dd6aaffU, 0x817815fbe3050edbU, 0x27e63729addad47fU,
  0xd160d0e00ec6906U, 0x502bcb0ea25cfd5fU, 0xed46d00ebdb27fc7U, 0x8159108123d1e52fU,
  0x81d6f2f8f5dd3460U, 0x497dfbc61ff2fad8U, 0x671c04bfc5c19be7U, 0xfc25f607f2f73fe1U,
  0xcbf6e5ce2b9f1db8U, 0x10615677211e3eaU, 0xc8b9d8f89116030fU, 0xe40add0de2111912U,
  0x3af2398118bd483bU, 0xb112bb54f3b1b662U, 0xd9d3e521f4d43cf0U, 0x4e3ca1f207e56c7fU,
  0x15f50f7fed71e20aU, 0xfadbc1f1edf9fd41U, 0x1f0c41ef81ce10caU, 0xf77fe07e1514b5f8U,
  0xce3e6b3afcbbf9b7U, 0xe306ed81f75855f5U, 0x20db293cf2eed64aU, 0xeb0be6cda00bfce4U,
  0x231d0d2c09521320U, 0x2635a0e5971b247fU, 0xe4db5caea88ad37eU, 0xe1fe2b18387f12b8U,
  0xf60c31d2ea046ac2U, 0xf77f92b430872120U, 0xd42fea6233de810aU, 0xfaeec97f0e1647c7U,
  0xde6df6b3b0acd29U, 0xaba079bcee300bc5U, 0x7b47817b07e49d47U, 0xe7b657dd40280c96U,
  0xaeaf8f00ac41b07U, 0xbedd4369bfff612U, 0xace9c402dbf5240dU, 0x1fd2c1b29f2c12dU,
  0x6eff0f0601502bf7U, 0xb0ebedab003d0ae4U, 0x53cfe9532fec0df1U, 0x47de81b60f75c1d7U,
  0x5230dbfa3f3335ffU, 0x7fbe43980427265bU, 0xbb0b09fbd619f8f2U, 0xe81c2112517487bU,
  0xfaedf5ea3053d803U, 0xeff7decb28322f10U, 0x461a1e433a7f094eU, 0x1402e5f6e42bf0d3U,
  0xe3d201f6ca112d02U, 0xeb3b7f229bf3e3bbU, 0xbb7211051411d41bU, 0x2e22b7d7cb0a2134U,
  0x35f3033064fabc42U, 0xe91701711bbde63dU, 0xedb9e40d560fdedcU, 0xf6d40c0ed1451634U,
  0xfdfb2111c02fc6c0U, 0x8aa59d3fc0f36cbU, 0x19fe0e1510a5fbcaU, 0x3a3965c5e925b2c2U,
  0x10ca2c08ceb624d4U, 0xf4e716d904e5f9f2U, 0x81920a142abafa42U, 0x98e35e2c2b13de6cU,
  0xbf31ee69f309e5dcU, 0x1481e359811b0b1bU, 0xd3d7113d4fcf2e01U, 0xefe94a0ad7eece28U,
  0x2217fdee5e2fb00U, 0x1a0fc693f9ee08c8U, 0xf400f2131c130ab3U, 0x6674e3e0cf0deec6U,
  0xedbcf10100ec4715U, 0xec4c2f1b0942fc7fU, 0xeb390cb8fb19b614U, 0x701f1d08c21f3dfbU,
  0xd2a171cb9fd14bcU, 0x3aaa1ff0e9a0f504U, 0xde1d08211741e3a7U, 0x2106e506d1f5cf35U,
  0x7aabfc4128ecd8a4U, 0xe6301004c9323907U, 0xc812eebe36eab9deU, 0xed2f25effb418142U,
  0x4a19c7eee4d7440bU, 0xab1027f97199161aU, 0x55f2b91911060bddU, 0xb90506743ad79ef2U,
  0xa35c287f424d10a2U, 0x12ee24881f14a806U, 0x64792725aa03b4a6U, 0xe43c210945e94366U,
  0x15e0097c7fb7db1fU, 0x26bd37132bcfc4caU, 0xa0e81cdbdad706U, 0xd96061ed23cd221eU,
  0x9d1124451d58227fU, 0xdddeb9f2670cabe0U, 0xf700d2d0c8f1c33dU, 0xf7322f2684c1c281U,
  0x1c48ed12582f041dU, 0x1fb92ce3f087f4eeU, 0xdfda127d4920f510U, 0xfa7922b4fee5ea22U,
  0xe5e828cb029a25b7U, 0x90d201edc9281ce7U, 0xfed798c9c7e430f3U, 0xb3e23b377f10b7eaU,
  0xfc21eaf607812223U, 0x2244bda8f0100b31U, 0xabe60905b5252748U, 0xf1391fdfce209bf6U,
  0x19c709a9f734df19U, 0xbf231819bead1523U, 0xca812fb25ff301e3U, 0x1d1fe7ff5b8125eeU,
  0xd57f374bf9eef2e4U, 0x14467a7fa4812c45U, 0xe41f197429f2eb2eU, 0xf2e6ada1ee25e70fU,
  0x1038ffe05a2a8108U, 0xfd1735261835cf11U, 0xae5309fedf46bf34U, 0xf118a54ff1eecb44U,
  0xc7e429c90bf203dfU, 0xab2d35da150b31f1U, 0xaa59eb812888f532U, 0x2795187f2fbd7ff5U,
  0x123e216ed97f29c0U, 0xab15fdeaccdcd9d9U, 0x1df7ed04f8d617cfU, 0x1b11664ffeb23910U,
  0x321b3317d2d4e207U, 0xeec4ba48e7f370f9U, 0x10fb04da3c095b33U, 0xf0edd96241edf1f1U,
  0x1e17dd725dd9eefcU, 0x2abb1f5d0c81304dU, 0x15103d1e9010813U, 0x5c51e606b009b5eaU,
  0x29dda3bec0fd8ae5U, 0x6781cedc29c8ea3bU, 0x157002dccc9d28dU, 0xc7d1500f68ef6154U,
  0x842e1fb2f1c2d94U, 0xa6209e0dc0f4bdbfU, 0x34a0f518d71f2dc0U, 0xaff6cbe7ac9d7f2fU,
  0x8c00949bb0a307aU, 0x14b2f3555caef10fU, 0xd29bdd41f3c817dU, 0xf1eabed820b8c0c9U,
  0xeafeb4d0e7effce9U, 0xd1421cf3375f2246U, 0xafde58ef70220e5U, 0x375e1200450fe03fU,
  0xd628181b2ff91ebeU, 0x8115d9e22a1d56efU, 0x192adbdc1dd3d181U, 0x41f2582e0defa5f7U,
  0xb80a814fd19096eaU, 0xc866e52ca305f2d0U, 0xd231b7d13b7fdfddU, 0x7fbad206f7fe3c4fU,
  0x7f02fec5bbefe9b8U, 0xe325df2d141541c6U, 0x3af77af407173355U, 0xe7ec10da36ecf4d0U,
  0x14190b27dfee29f3U, 0xbded1b71017fe8aeU, 0x5440fac84468083bU, 0xb69241fcf44d53f5U,
  0x7feba744abf4bbf9U, 0x5032e6c6dc521137U, 0x3ac9f6d0b7dbce44U, 0x359fd3984c1e0d68U,
  0xd236f827f5cc24c7U, 0xe70e38deebe8343eU, 0x1dbc7f4e993d230eU, 0x22fd361fe444e92fU,
  0xd61340f9d34627ffU, 0x85f87f29ec0a3cU, 0x3bd87fd8cfc9d6b6U, 0xd702ba1fd1323de6U,
  0xd53a27eb4b2181f9U, 0x33d849ad172fdeecU, 0xdaf6035315280918U, 0x3e2771e7f31bf161U,
  0xfe2904a7c50dc446U, 0xdaf5331f7aa635ccU, 0x966995c229052cd8U, 0xe8103a11eebb283cU,
  0xf6f4234c7a19053eU, 0x10c2b5f9ffc73516U, 0xd61468c42881c46aU, 0x8111e5d8341a641bU,
  0x210af0cad7ed2615U, 0xd637ef07cba22629U, 0xbdb4d4e247b3f919U, 0x213a33f4efbac0c2U,
  0x11ca1c3fe6443ad1U, 0x47bb6045ecf98171U, 0x7fdf5be2e9d1adbeU, 0xcd14e16f1829acafU,
  0xba2fecee1d22f79eU, 0x3ec2042b7fe9fc81U, 0xfb16187f1fd12311U, 0xff1df923f1811217U,
  0xa4c132b4277f254cU, 0xb8dd2a3a08f37fbeU, 0xf7facadd312deaa5U, 0xcad220f233f4cf06U,
  0xf537ef3439fefeb8U, 0xb7b1594881595f0fU, 0xf5ed11cff0b130a0U, 0xd1df0bf4f843a737U,
  0x2af4022912e0eadfU, 0xfad1cafe0fecbf3aU, 0x12c503f3ecebdb13U, 0x40100ae0810418ecU,
  0xef20c3d481c200d2U, 0xc2ba02261c8d177fU, 0xe6bcecc772fbe5cfU, 0x20c153d6c937f429U,
  0x31d30cfbce255b33U, 0x812345f91fdd1cf7U, 0x96f54c2d143714bfU, 0xbf8115db23e127ccU,
  0x83027f3cf20aee01U, 0x3ee18e06d9d8f831U, 0xa7f07b860e3b6afU, 0xe70a1a472ddc8b2fU,
  0x2ffcd2f13a2e9bb7U, 0xee067fc5da12f7e7U, 0x4dc995d229eecd97U, 0x32ffcce91ea820f9U,
  0x14f2039f073d231dU, 0xf2d88ee3406c8807U, 0x700679f8d084ad9U, 0x8b6ce2f4bfef0921U,
  0xb4e01221a1bbf201U, 0x5dedeaf94b1c40ffU, 0x7539e2cb12df3b28U, 0xfff1f8efca20cc0cU,
  0xe17f22a91fb8e3c2U, 0xf343f4402dabf21fU, 0xeafb380381012f11U, 0xd200ee8edddf111U,
  0xf30c1a0108d3c481U, 0xb35c7fdcae33a6ceU, 0xe69711ed0c25dd3cU, 0xe8c4c5df9c260efbU,
  0x3d81f2e7ac4c0bf3U, 0xb5d10808013581e8U, 0xdae90d662c3e12a0U, 0xc3ee884a2121f33aU,
  0xbf11cad3ffeacbdfU, 0x21718810812c959U, 0x2053f7500d1fddbfU, 0x22dce6f7efd2a4f8U,
  0xe428daaf58b08146U, 0xf4b9071322c51862U, 0x28c36f7f15cdd778U, 0x637811636eeebf1U,
  0xaff0f6581dea240U, 0x62f6f815a00136f0U, 0xe0264040f13c602aU, 0xcaeac2a3e077aa4aU,
  0xf1839e0b7286aa8U, 0xb6f70a202839f6f9U, 0x1326079c6fb9197fU, 0xffed00a9c5267fbU,
  0xacddca7d82a36f2U, 0xd1aae9ecea12f26fU, 0xee671014ecf63481U, 0x18a6eaba8305d6e9U,
  0x781432d5202423feU, 0xf2f96294fb3715cbU, 0xa5f53942db497029U, 0xf5dcc635c70d0219U,
  0x4a5add335340d2U, 0x3cbfeaa2cb164ee7U, 0x28d7fa23571f1286U, 0x1f37f4f7f6b090cU,
  0xd92af2e6U, 0x0U, 0x0U, 0x0U,
  0x0U, 0x0U, 0x0U, 0x0U,
  0x0U, 0x0U, 0x0U, 0x0U,
  0x0U, 0x0U, 0x0U, 0x0U,
  0x0U, 0x0U, 0x0U, 0x0U,
  0x0U, 0x0U, 0x0U, 0x0U,
  0x0U, 0x0U, 0x0U, 0x0U,
  0x0U, 0x0U, 0x0U, 0x0U,
  0x0U, 0x0U, 0x0U, 0x0U,
  0x0U, 0x0U, 0x0U, 0x0U,
  0x0U, 0x0U, 0x0U, 0x0U,
  0x0U, 0x0U, 0x0U, 0x0U,
  0x39e52ed500000000U, 0x9d59b27ede10a54U, 0x23ba4001816f0a00U, 0x16fceb254befd6b6U,
  0xfe1d453ffd18cc01U, 0x19deb91b54214091U, 0x29df02cee1044000U, 0x300c3425f611fae8U,
  0x1eef94d56fcfb0eU, 0x241e6458171bbc16U, 0xc2fb39e1b5cb1325U, 0xce2e434d154d435U,
  0x73aaf9f6d9c2eb05U, 0x54892ad24dd008bfU, 0x62d91c1625220a1cU, 0x1119b63524d46832U,
  0x2c2e1302e7b41047U, 0x45baec7f6b07f5f3U, 0xe1450edcb937e710U, 0xa5f73d50c9a4ae1fU,
  0x34ec0767e7f4ea64U, 0x3639d864eef23037U, 0x60ddccb1a53d2eeU, 0xfaf34715f5e422a0U,
  0xd7d5b5f7d26017cdU, 0xf6d7811de5bd31aeU, 0xe3ff3dd54f239b02U, 0xa309e12ffbf3fabeU,
  0xa4b01320f0234ed2U, 0xec3300ff0fccd9f7U, 0x76fdc4f1ffee06edU, 0xd8dff00ada141a30U,
  0x18eb31c0ded63237U, 0x2418044cf0e204e6U, 0x57c048f2171f0b19U, 0xc29fbceac73adab4U,
  0x332f2606fd5dc2d8U, 0xe59ae3cc22f1b1f6U, 0xfa75adde1afc132eU, 0x400bc2377fbb34e3U,
  0x7cdf613e5dc1f41U, 0x1e00ee50d526faa8U, 0xb9d54835b70e2d03U, 0x4bcdd4fb64310717U,
  0x8373ea4efdefde0U, 0x50ee7ff5bd91607U, 0xaf8ecf30f73d133U, 0xae2b32314525d657U,
  0x78f4184031128f8U, 0x410a4058cef2e55aU, 0xff0b20a538fad3b9U, 0xf950f1f20bf524d1U,
  0x91fe1017e849f5f7U, 0x2a285100032016c6U, 0x24edcbb4ed319f49U, 0x325e6ef782bc601U,
  0x17ff2d8265ffc27U, 0x8f3f606d448f5d1U, 0x48e3c4e108375619U, 0xcc12d5da11380f53U,
  0x514d3fe00f1df20U, 0xf42017d607ebd836U, 0x1eedd0cddff308dfU, 0x1b450d1f31175fe0U,
  0x5c3de61e24fce035U, 0x1ff1fb6cc4915f4U, 0xc4094615fa20bc21U, 0xf5ff2708f4080210U,
  0xddb271732f731d9U, 0xeb260ca717eb29e4U, 0xf7e8f3222028d8e7U, 0x7f041e12edc7f6ecU,
  0x317e9ba02fabff8U, 0xefed14c6c6a02dc2U, 0xcfea25bcd543e6bdU, 0x24a2031c290afaf7U,
  0xf9f0d3e1e82b262bU, 0x3d0306367f09cdf6U, 0x4e8c4cd930d803U, 0x56f4fbf01e4edfd8U,
  0xf11dcad705b6e649U, 0x2ec93bc357d03309U, 0xcf3c17e7eef1cb14U, 0xd15dd53c211e52aU,
  0x2d2e232741261c0eU, 0x23202e30f3120a3fU, 0xfb1feae0df33f018U, 0x11051f1138d918deU,
  0xe7f463f927382e05U, 0xf7f88109ef220b04U, 0x4a00492a0117fc15U, 0x3b29eb010904055bU,
  0xd118f1da14cee20cU, 0x28030917f0553e12U, 0xa11027c6fc3f1e1bU, 0xe4f125d612ff1c1dU,
  0xc9340fe30e15e9c7U, 0x8ad5d8c58cfc072dU, 0xf10849fcb8ecf82aU, 0xd24b1d7739531216U,
  0x25d7d21452fac1ceU, 0xc9f972eef43b0fc1U, 0x25f4a31cd7522d00U, 0xbe0dbc360351943bU,
  0x2ff8a4b22bf314e6U, 0x5fe61be5db02d6bbU, 0xfccf071f00ac3c50U, 0x153ec17f3ef320e3U,
  0x1ebe0006aff65cbeU, 0x46d7dfcf12fc6c12U, 0x156b3ec1f201c8aaU, 0xe0f12fc118102affU,
  0xedc0d53e7f322f10U, 0x312f664d2aace6efU, 0x98f7fb0a1c00eb19U, 0x3b3325f5bb38ab28U,
  0x19143dd61cf1d414U, 0x3aec120c0df00a4cU, 0xc5f903a2dc39f92eU, 0xc712e0e4fb25ffbbU,
  0xccc2c5ee17afdc50U, 0x2ed9ca2c15dbc5ceU, 0xbad6de4bac4e19c1U, 0x7594f9766423d724U,
  0x9248cd81a36b52c5U, 0xbbbc62943070239U, 0x6e6ebc5e42448cbU, 0xe822dcafa5699edfU,
  0xcd9c42e2f500be6U, 0x6b140036cb215614U, 0x2ded071d27e8bf43U, 0xcffdb52b52fde7b4U,
  0xd0e60535abc1e736U, 0x1ff0d8b703f3bd04U, 0xcd7fe343eaa506b3U, 0x4e071bc0c7f52efbU,
  0x2bd725f83c263402U, 0xc3ef1f052818e729U, 0x14e1d616c4c900deU, 0x1f2024bee916ea1eU,
  0x5f3c7b7d5c1ef2fU, 0xf7da1659fd33562bU, 0x2a390308f70aefffU, 0x20f84bcef014f237U,
  0x5acf3f4eadbe6f7U, 0x4a0c17bfece633f7U, 0x26091bf9e4eb1813U, 0x5c2f1024d6240a21U,
  0x2135d9b1daf134d5U, 0xfa96011e2ad11acaU, 0xf8e92e0bfae2330fU, 0xdaf8ed26d8ca3811U,
  0x13e09f08001f3e25U, 0xc328f1c0bc7f12d0U, 0xd60cadd05212ae9U, 0x33ed10e95508e231U,
  0xf91b4ae8f541db03U, 0x1866cb0df9db3e40U, 0x17f1f051f022b4cfU, 0xe917fee5eb17082bU,
  0x2af43388dee3ead7U, 0xb907dbd01bc91832U, 0xd67234dc807e97fU, 0x2cfc21e2f0020002U,
  0xd80e3d57b337f0dfU, 0xfb0dfcfefdf1dd23U, 0xd2e7e50cec46f8cfU, 0xd5abf5f55f01e030U,
  0x2220ecb52bbfd43cU, 0x37ae08e12bd5e710U, 0xb0edd30b1bdf2852U, 0xe50af0ee342d15f3U,
  0x4a1229000608d3f3U, 0xd5451af31df7fd7fU, 0xf617fbc531fe0334U, 0xfcdaadc6390bffd7U,
  0x259ed603f2e03eebU, 0xe93cc9f226c4231cU, 0xd6dbec6053040963U, 0xf1dececc09203c2aU,
  0x81f6c4f9f02606U, 0x1e1fc4f61e2f4148U, 0xe308dea1cac5f7fdU, 0x10f15fbf52be4f5U,
  0x2315c31c00e01dddU, 0xe215e93103c2f02aU, 0xe01c2af51834353fU, 0x36f3661b29ff662bU,
  0xffbfdcf922b12845U, 0x2419dd45f91417faU, 0xbf16f7a61633ed05U, 0xf7bdc6339223b91aU,
  0xca24b6e222f6ec2dU, 0xfcef4df80724686aU, 0x20ccd4c822a5f6dcU, 0xfe5e3af5b2230a19U,
  0x5f60b02e41b0cb2U, 0xfd29f37f2a3307f6U, 0xbb284233bb045a34U, 0x4413be20f626fd09U,
  0xf6aa54543014f4d2U, 0xd4431cf20e235d4U, 0x1d2d0af8c5cf0b0dU, 0x46310122f3231fe5U,
  0xc6b3f61ec95608d4U, 0xfb008e19e4d93522U, 0x3e0af7d0d618f9baU, 0xdce5819a391c0145U,
  0xbaf2d30e311a04cfU, 0x3a09d10d370d042fU, 0xe139dcf6d2f5feeeU, 0x6ab909bdd0ebd6c8U,
  0x3bfcbcd722eb2affU, 0x620fa24c0e53325U, 0x27fd145728d2ee03U, 0xcd1826f831fe39d1U,
  0x55149f4826e5fdfeU, 0x30dce811fc0d15d9U, 0xf31fd9ba38e400f4U, 0x1fd4244bdb3c7d3dU,
  0x2b4f34c82f21b701U, 0xfdc7b812ef020a2eU, 0x6191533e3153de6U, 0x37c06c6dcde81faU,
  0xe137edf7d542311dU, 0xe8d73c05f4ea740bU, 0x23051233e9c63532U, 0xbcc40ee10a312adfU,
  0x2fc2f1e1cfd2f3f5U, 0xda8101fd3bdff735U, 0x2f90f0ccdeefd2aU, 0x512b9fad610e1e5U,
  0xf2bc3633c82a4320U, 0xa6502b56eecbb2ebU, 0xc240f92bf12becedU, 0xa8eac3fa09cf3c3dU,
  0xd8004b204df41147U, 0x134829d10c401913U, 0xe4e9abd3122aa4cU, 0x1ec84c09f2ebf02bU,
  0xcc2d120fc72b0e3bU, 0xdfac7fb32ad2f8bbU, 0x5c23524203dd2d2bU, 0xd6eb08f6d003f009U,
  0xddfa0d1c13231cffU, 0xbfd221172f1fd006U, 0x14210ecde6c9f1e7U, 0x21fba106f5f1f0d2U,
  0xf3e2eefcbe3cddd9U, 0x401abff298cdee02U, 0x38e819e04a24ea50U, 0xffe112ed28060f03U,
  0xf6dbe4023beac9e6U, 0xedd6d9ec57ffe7dbU, 0xdd1b1a09cfea09ffU, 0xd1b5331f29dd2a48U,
  0x431b46d4d42dbdc3U, 0x40e4170445f5cff4U, 0x1f054008220e30faU, 0xee2b0ff11f410b19U,
  0x212d5201341a514fU, 0xf0df2e20ed16f313U, 0xd7b21fbb1e2afaf0U, 0x98100a3ccdbb112U,
  0x102168690fb860f2U, 0xb3b9fa4315e6dd02U, 0xc534fcd73fa858caU, 0x101de9103e92e5d0U,
  0x2d38c6fdde0de8ceU, 0x35c012dbedf1aa7fU, 0x210dffcb130f31ebU, 0x2b30ffdde62d7511U,
  0xe929d208b7e33347U, 0x21153012df003b3dU, 0xf6ed0f0fe2200061U, 0x25240917dc0027d4U,
  0x14db1e15dae9fabaU, 0x48c3da0ff41f2f03U, 0xc830e5ed3514b801U, 0x46511eca64246438U,
  0xa57233c83502715U, 0x9aef1012d4fc9728U, 0x5563ef8ffe15101U, 0x24da01f912ff5506U,
  0x3d3e220a5751e3faU, 0x2cee1e3df10781d2U, 0xf4ee7e2a812feb23U, 0x94a7eda111e1b204U,
  0x401aefd5U, 0x0U, 0x0U, 0x0U,
  0x0U, 0x0U, 0x0U, 0x0U,
  0x0U, 0x0U, 0x0U, 0x0U,
  0xec6ea4100000000U, 0xeffed80d407fb1f3U, 0xb1f6e4e63e32cdfbU, 0x2034f61dd32621e6U,
  0x4ae69942e500f28aU, 0x810e9c64605f2d9U, 0x5e6c4da1f5f4b81U, 0xee213e2218a623e0U,
  0xb27f3b1ffb140bdaU, 0xe66fd3a4060d3234U, 0x86b5cc42bbf7b181U, 0x219616d20dfb2fb6U,
  0xb9d718bc7bfd5ae9U, 0x5f00155b2044151dU, 0xe34895f07f1f1342U, 0xbf400c37f72127f9U,
  0xe1ced881b6eb0d21U, 0x32e285f7dfaa762eU, 0xbae5ec23cdba06fdU, 0x3f6ab716010e7f24U,
  0x61b536991382e52cU, 0x4934cdf8f63dbbf8U, 0xae3ec0ee5288102U, 0x1205d921ed1a1df4U,
  0xf20f7fbf0af93567U, 0x552ecac15072557U, 0x1a59b7fe4830e8f7U, 0x7ab1f93ad00ffb39U,
  0x30e97b3881b22533U, 0x177928c1cb542b8bU, 0x6b12435021cbd375U, 0x256aa1d831dfb583U,
  0x81155fc1200b3fbfU, 0xdc05937dcffd73b0U, 0xb0fd4c4cbb23bddU, 0x7f2f12bdd0e0e9c5U,
  0x36f91f19fd07d519U, 0xab23b3e4f9ed0d30U, 0xc553a91c01ef7fa8U, 0x36f1f8de19c9dbcaU,
  0xac4a7f35f20efaafU, 0xd29b32e911d357d0U, 0xbd271b1333f0efceU, 0xa95f0d4605ac1b17U,
  0x3b81bae21bd20d06U, 0xe6da16ffdad29bf9U, 0xeab74270bb265cf6U, 0xde0b815dff064110U,
  0x254912d95f44c1d5U, 0x48d40ae47f9e0bfbU, 0x7faf571e6e0d1b8U, 0x5ce5e9fef3deb616U,
  0xe5b554dca5bb2141U, 0xcfc7faaf13d1e281U, 0xc113ddd42bd8f0eaU, 0xb33523d54f2fedcbU,
  0xcef245b5f63b40d6U, 0x5705f329fe1c397fU, 0x9f024fee169101aU, 0x26ee948111cb3248U,
  0x49fef9eddf9a8c09U, 0xf7f92fe1f0fbcdf4U, 0x32e81b3ec00a944U, 0xb217e981ebecb7fcU,
  0x981e345be9fe18d5U, 0x5ca0fa122db3013aU, 0xec1e85e82e2e42dU, 0x4b813a60f22de63fU,
  0x36e9ad2bca9a12caU, 0x2dee5bd7c34dc6f9U, 0x261fdf49c4f2ce81U, 0x13b93039debab6f4U,
  0xec34c4fc0e47f0aaU, 0xd87f0e130f353990U, 0xf5c918cbc6dcb8b6U, 0xd7f319e112da21feU,
  0x911a0f341ffc9514U, 0xf2bbb4427f3807b4U, 0x3fe0818b0b6afdebU, 0x2e39c1f1c9f8e02bU,
  0xe38a46103530faa3U, 0xc5dd67128e77af1cU, 0x211ae5cd2b198145U, 0xd106f0d317e0f164U,
  0xd3e53be72520e1ebU, 0xe0f3faefd9f03631U, 0xf0347f0d1cf8080eU, 0xbf0be6dafd1be1e0U,
  0xd401e305d340018U, 0x1338d93f1281e5a6U, 0x35faa79e09b620f7U, 0x16013c8ed3f25fa5U,
  0xe003acbbdd079a4U, 0x58c974a6a6f381abU, 0x81d4266010bb0ff3U, 0xb4ccbd25c8fd8cebU,
  0xcb11def42200a467U, 0x812dc40cfa04260fU, 0xf70ed0332cbb0d5cU, 0x7fc8d6fa20a63eefU,
  0xd04a20efcea029eeU, 0xea1e2b91eedf001eU, 0x60ddeda4219b7d7U, 0x81b2571baf0b1bacU,
  0x280e1ee8dd1bff40U, 0x4fc9eda0d47f6f0U, 0xd7f80cbe6931b4f7U, 0xd27dcdedf18fc43U,
  0x5afd0da94a038110U, 0xd0fc29df8b6e0e4U, 0x67f32340bfde04bU, 0x2347eb24e55f40f7U,
  0xf35accc5e7ef84efU, 0xb5e30c7fff26cee6U, 0x2b300c87f0ba23cdU, 0x3ba73fdd7f1d2e07U,
  0x6a9864cfd8259421U, 0xf37604d2fbc2d648U, 0xe8f114ec4e4210f5U, 0x9c7f184305ecb0d7U,
  0xf751b0a833ff00daU, 0x81dcc3ab6fff8e08U, 0xddecde0705c3a079U, 0x142bf9a901abb4f5U,
  0xb51ebbec96cfaa47U, 0xd077c7f1dc2eb33bU, 0xf37f21da4937f481U, 0xec350628405a3bc4U,
  0xffdec1caa42825e4U, 0xf519ed15e60bc428U, 0x1c22f860c1aedf17U, 0xe557fd0613a01525U,
  0xb7efad0681a2d2eaU, 0xbd0721a120811aecU, 0xdb2d1b63fe0ffdebU, 0xf2ec315e1e5fa05U,
  0x7ff4b51e51e3ef74U, 0xee7ebbbca01edbcU, 0x3921c6ed84159a9bU, 0x81df0ddfeda415f7U,
  0xff2cc8543dc4d14eU, 0x2b14f4362eb451aaU, 0x427a0425edba01e4U, 0x61d981cfefb0eedU,
  0xe4cfc3a70a7fed21U, 0x371d4516ad015eebU, 0xc87f4c00350a1eb9U, 0xbe29e0703e50cf14U,
  0x65047f3204cffdf6U, 0xf7d8d9e0f324020aU, 0x2681be2914350dfcU, 0xe627546fbb1a3986U,
  0xfd242df61216c3b0U, 0xbc0b81c7d9066effU, 0x3624e9c439c70b05U, 0x290f2d0205ee23c9U,
  0x4c2b2126f0f6c9eeU, 0xe7d903442902d4daU, 0x17f6c7e1f128a3ebU, 0xae42ec2d811d1e0bU,
  0x27eff77f9cd76e4dU, 0xda4b0d037a1a0ecdU, 0x3041cf619ee3fd5U, 0x1695cde8ac1ad723U,
  0xd104ff81ade20df5U, 0xe6e776acd10d230bU, 0x86d5046442007fd8U, 0xd64315a6611c12feU,
  0x2e0d2fdbcb01aff9U, 0x1695eb390fdef200U, 0xb2fc6a7ffb03142eU, 0x1120b9fe1d53f8c3U,
  0xb52412f6dde4ea0eU, 0x317f3ad8192357e6U, 0xbfcd0e510201e2d0U, 0x2454af1123f0ea4fU,
  0xdd0b26171cfde11eU, 0x3c1f2dee7fead33fU, 0xfa109127dad481d0U, 0xcc0d5debce340834U,
  0x5cc4642c48e201U, 0xf1d4fcb1a3267fc7U, 0x195b471e2f3cdd50U, 0x13be34f1373f4fc1U,
  0x3a26d80f9607323bU, 0xb6231dd223d5b20fU, 0xd13f40384c81260eU, 0xe2d302fb40f7d881U,
  0xae6ff025f42bfa71U, 0xb31a1b7a40ce22f1U, 0x5d3181e037440439U, 0xd6fedefd7a05c302U,
  0x73bd97fea0670cacU, 0x2ad61507528125dfU, 0xf6e5684d1df5f3d9U, 0xe9e1e9f50784eac8U,
  0x38c2081bfef7c5d6U, 0xe3d581f8cdc22a63U, 0x70b5a9100e4ef919U, 0x39bdbd7f9d693cd8U,
  0x2d10f62808fc0f3cU, 0x81e018cad42e29baU, 0xf120d92d00eb25f8U, 0xf100d966264354e2U,
  0x291fe9d2e335f10fU, 0xf786b7acb6c9d244U, 0x7fc224fcbab031f0U, 0xfb05dc9ba913d2e8U,
  0x81eaed210b31ea03U, 0x4615f6fe1cf8b484U, 0x3713b0255199be63U, 0x2d8155b4bfee4ad3U,
  0xafcdde1e191801ffU, 0x570301f7d508e0ccU, 0xdbc019e652ad0327U, 0x1427981124609d1U,
  0xf5ea6cf149340be4U, 0x3d81e423e850db19U, 0xe5a6cff1e7eddc0bU, 0x771d17c9d6f6b8f3U,
  0xbb0517262cf40016U, 0xc8c606fa8f14025fU, 0xe28eac1084e7f40U, 0x61946e216c9b6fdU,
  0x346fb1f33e1ed142U, 0x303041010f981bdU, 0x8b7fcefae7d1c7c6U, 0x9052f2a4a3c9fa9eU,
  0xeac129e9a6162714U, 0xc1abeffcd3f1ec7fU, 0x9daf0f1d2fe07ecU, 0x2edecb5d33dfe32bU,
  0xd6eea710dae5dd10U, 0xcffffb76f0c33281U, 0xe446d06df9e73a19U, 0xc0d957ce26558117U,
  0x123dac90ed5cfc63U, 0x30a22f9d43fe92bU, 0x1de6bebfdccce8feU, 0x410395080fcf35dfU,
  0xff197f3181db0ce0U, 0x34d7ebe0ef19009cU, 0x4536e3e228ed924eU, 0x8113f4ff320efcb2U,
  0xeaae0b5d99ebefabU, 0x34d22ad9f93cf31dU, 0x81d03308dfcf172fU, 0xe6b69f20fe1b2f03U,
  0x2e21ec0ef3471219U, 0x2311eb30ff251aceU, 0x25e490f546422bfeU, 0xf027947f05aa2ae0U,
  0xf6813623c006d6eaU, 0x15ae25572f00f6e9U, 0x38f13330e00b0a02U, 0x347f1a03d620a90bU,
  0xdceedaf4bb2add05U, 0x1ae5b332c235d2f8U, 0xfbe50e5a3e7a5431U, 0x1203030becd7b3f0U,
  0xc720c7e6d0cf2045U, 0xead8a41f7fc53200U, 0xf3e1cb7a4c7f060eU, 0x6be5c537345bc343U,
  0x101cd0035ff06c50U, 0xc8e2f599e546cf2bU, 0xe313834781d705e0U, 0xb2f93d81ee3f3805U,
  0xe1440d0e4209001fU, 0x1b0eca33c3e46df1U, 0x6d90046efe21518U, 0xec114c10a1a49643U,
  0xeb141f2b06fef5f8U, 0xc9482a19f7fb7ff7U, 0xec3d1e357fe7fd65U, 0xe75c12df04fce0e5U,
  0x1327eb3742bdab20U, 0xf6ff6de41003fcc4U, 0x2d0b0d97f03a013U, 0x4dc21b92dd180328U,
  0xf9f720ff5d3a2336U, 0x3939964c7f121527U, 0x46a310cfd3e3dfcaU, 0x1c223b332cc7e234U,
  0x8fdaf52e08f40e81U, 0xc29cfa18b0d019d8U, 0xb3cb1b40e8ddadb6U, 0x245e3816beacbfcU,
  0x5a39cb6620a5e6U, 0x78ecdb007ba2d5U, 0x83d20000b16202U, 0xd2b2640097fe34U,
  0x6af18400648731U, 0x9d05f4009d92f4U, 0x9923b600b8bf46U, 0x6c9a0f00b3cff4U,
  0x73408b009315b0U, 0x7a351000675569U, 0x7a675c0085c95bU, 0xe7d16a0091f7baU,
  0x70585c0090e2deU, 0xa4eba400990746U, 0x622da20096a71bU, 0x7faf7d006db06bU,
  0x9128c600faab71U, 0x68b8f30069124cU, 0x6fdbb800719291U, 0xdc0dd60085fea9U,
  0x8b781700875d09U, 0x7a612d00837372U, 0x78516a0079dab2U, 0x99974900d94e6bU,
  0x6e0f78006b01f2U, 0x8ce3b2007104d1U, 0x7699fb0080c94eU, 0x87184300831992U,
  0x72b4a400c867e6U, 0x6e519c006ac96aU, 0xb20a9b007eb3dbU, 0x6e44b800699cc9U,
  0x64e6fe00854abdU, 0xb2b1d60092cc4fU, 0xa3b37d0086fe0fU, 0x944ed2008ec78dU,
  0x792f2f0080173aU, 0x739fa40073f02bU, 0x715bb6007d4d8fU, 0xb78f0c005fca1cU,
  0x8c594800684c98U, 0x6b0e9b00892048U, 0x8c698400744128U, 0x7c25de0083e6a7U,
  0x65df9700912680U, 0x840a2c0068ed18U, 0x6daf0e00648ea9U, 0x624f97007bf5e5U,
  0x5421e01300af76deU, 0x2e053156b4dfedf4U, 0xcaabd6e92408e4c6U, 0x3ad610239f43605eU,
  0xfb6111070eb426dfU, 0x3d63e8d6a9110b4dU, 0x222b2c0afd4acbbcU, 0x2e51deee5addef7eU,
  0x3c2b20bfd1c2db39U, 0x214c06e8dd0cac29U, 0x33811bd7be6eed0dU, 0xe62bfb53aef307b2U,
  0x22cee916e3cab5c3U, 0xef27d4123d12b795U, 0x2481c03dce502f28U, 0xb9e81618d5f2efdfU,
  0xee1703ffe01319efU, 0xe6bf4f2efe05cf10U, 0x43c80e08fd371dd1U, 0xe30aff8c2f9dfcfaU,
  0x14caf7c4fdcfff1dU, 0x2209dd142509e6dcU, 0x23f9409afbeb08U, 0xf9acfaff354f3005U,
  0x1a3704bc38d46d17U, 0x26284acc16f446f2U, 0xd91fe5ffea3204f4U, 0x99bce94417420ebbU,
  0x1dd806e7f39d0508U, 0x8df60c195f1d3d0fU, 0x11fda7f1ea3c27b5U, 0x5241ea92f11e9ce1U,
  0xcf0af4f81b7e06c7U, 0xc6130a251a06d6e6U, 0x29fa0904bab9fbe8U, 0x7feaeb126519eb23U,
  0x6d93edf5f3cffebU, 0xb4be1bbd1fd79bbfU, 0xbf0fd90331e92c07U, 0xbbe0e3d0a6e2e105U,
  0xdfcd55fddb180e5eU, 0x34ffb20839d0b2fdU, 0x2d20e4a7fa34061eU, 0xf5250f03e8fe3edcU,
  0x40fa29d5349ff604U, 0xff60b4b3516e9fbU, 0xeb21511522db0a11U, 0xcf56e826abe4f881U,
  0x321e06e20a1de73fU, 0x160c3305feb513fbU, 0xb6b5ac0620ed94dcU, 0x4620c8deaf24ec01U,
  0xc7fcff63470709d9U, 0xc71c81c5b3b5dbe6U, 0x64e1d528f3eacc1dU, 0xddd3ffd30d2cd833U,
  0xf5032a05fc023a0cU, 0x191e5e3722e3030dU, 0xf5651817f60bb545U, 0xf13e071bdaee47deU,
  0x5afe2104f516f642U, 0xda12127c24d1cc00U, 0xe4eca0f01bf8d67fU, 0x2018252e16e5dc35U,
  0xf516d7210448a2feU, 0x46d1fd93b2375d8U, 0xd036ccdba05126dbU, 0xd69892bd8db8c228U,
  0xeb28d6e41a0a44ffU, 0x12b6f3cbdd0ce7d4U, 0x2dabd9cced44d238U, 0x45df4fc012d865a3U,
  0xf1fc14e623b961e1U, 0xd8af1ceb57d3f6e5U, 0xabd13c0ed70af6d8U, 0xe5ba024874041a33U,
  0xff67d75f36069432U, 0xadd7d9b1da27d354U, 0xb2e00120d632193fU, 0x427fcaef4ec02833U,
  0xadfcd59a8e5ff51U, 0xbb7e7fef6ec6666U, 0xa171049ac683fe43U, 0x7710d4de2f8b28fdU,
  0xdeeb5204e6cd542bU, 0x12f5cf23fa0af81fU, 0x19d8dcf6e322bf54U, 0x5c07095a038ec13U,
  0xe9def6a73c7e7ffcU, 0x44033f130a32cdf0U, 0x440ed10539e80b2fU, 0x27dcc50bc627e6f8U,
  0xea3aac4805a0c12aU, 0xff621cb6f916e5bdU, 0x51cd9d02ee93ce1U, 0xf014d70bf9191238U,
  0x1d0203fffcc39c3U, 0x141a19462b014100U, 0xe8f2ea0fc281ea2aU, 0xfe044aa2a20dfa21U,
  0xd248221021cb40ffU, 0xc34bdff6dcb5e1U, 0xfc2316fbc30403c8U, 0xd6241b0cd1dbc3e1U,
  0x21bdf2ff010014ffU, 0xca0c4e02321f3217U, 0x47e2a42ae01d1f1cU, 0xd022af0dd7320855U,
  0xcdb80ebfed13dc12U, 0xd9ac4a22dcf0ec19U, 0x1514ab2b67adb6b7U, 0xa60cd5424a28c35eU,
  0xa2bb9c7dfae4ce2U, 0x180ce031d515149fU, 0x3106f1ef81f3f2edU, 0x30bc00c750c45534U,
  0xb2c4ce2547fac5baU, 0x262ef7dcff16ce13U, 0x34bbf60dd1d5e513U, 0x60f4fedfb2c11c7fU,
  0x5b925e6e11329a5U, 0x2803cdf1a239e981U, 0x1fed102aff240e23U, 0x36cd8fab08cafa28U,
  0xb1c874b61d6be02aU, 0xe4cbac45c4cfa909U, 0xaf00473c742f06ebU, 0xa221ee4dbed6cc26U,
  0xf891ed30e683f1f3U, 0xe3f551b73f0ef8f8U, 0x6dd152d51ff3059U, 0x13ebb3757cd3f737U,
  0xf24f0a21e4dffc19U, 0xd10ec7431b11f5e1U, 0xd1ec2623c4e13d07U, 0x27feee4fef37e755U,
  0x7f2fdddedfb488eaU, 0xd11805def6d618feU, 0x72fb2f3fd202920aU, 0x3df2bd4544c49faU,
  0xf0d9e411201f4441U, 0xacdaf3dc17c2c6efU, 0x1dfae536c66000d6U, 0x23c9ee2c071bed14U,
  0x70307f9abee3a58U, 0xe9eedfe3dd1dd30dU, 0x4615f918dfff06e8U, 0x17b4f2f01b4b0dU,
  0x6e1581df00d12fefU, 0xbb00e613321205a4U, 0xe3f1ff17e5d2c7caU, 0xecc35721f2c4f5fbU,
  0x65c7ae07d91a0fe0U, 0xf33dac40e1aeec0dU, 0x62d7004adec9d3a9U, 0x1413481fef4513f5U,
  0xd68d080abde3feecU, 0xfbfdc0062562337bU, 0x76dd8b446802e9eaU, 0xca31aefd143d48c4U,
  0x3420bbee1204f4a5U, 0xeeb62fa041c8d8f0U, 0xec27b5bf11b5e4e7U, 0x4ced1df3c5e4103fU,
  0x2304dac54ee91800U, 0xec1765ed22b724f5U, 0x3815e7eddf0f06f3U, 0xd3b17327eee86c30U,
  0xecbd83c1c67fdeeaU, 0x671d10b621d7f02dU, 0xa47f09d011e104bfU, 0x3d6eb10b4d5619fU,
  0x2398480bff0f1d0cU, 0x1cd2c5b9b51035f9U, 0x19da3be2d7280439U, 0xd9201a97f53ec517U,
  0x8d338384d32fe73U, 0xd7e646eb16b45145U, 0xb9edec57adb31dc7U, 0x2c74a091ae3533aU,
  0xd828e81bdb2bfe01U, 0xf62cc2d9b9170817U, 0xc8d0e426edfde9b2U, 0x43ffa801044c0640U,
  0xed243fc7d31dc9f5U, 0x619eb172aed0138U, 0x2fde16d50e00d0d6U, 0x32174117e91217f8U,
  0xa633e5d4edd89abcU, 0x2e9d1cc07eef566U, 0x4a2c9c03b5ef0f30U, 0x132d5c206ed19e5U,
  0x3d034235267fdee4U, 0xe4dbcdbe070a15e2U, 0x32e1e9055914c514U, 0x18192a0ca5e41b33U,
  0x633bed81fa2ebbcU, 0x3410295deaded2f3U, 0x1a3c395bfea8c308U, 0x3c09a2130cb8fc22U,
  0x2609eaf43cbe3516U, 0x2eead1e3dade2d58U, 0xdedea5eed61cd9dfU, 0xd7ccb57f2520341cU,
  0xcb6b042bf5f84900U, 0xf21aa9ece13de8efU, 0x6e3ad7162155da3cU, 0x373e7860c52e4904U,
  0x1415d9935cd0e4d5U, 0xdb1ca2e532e09639U, 0x2547ba81fe1ed432U, 0x10f3671dc1f4e801U,
  0xf166b862a209d14bU, 0xd1dac2e430f400bU, 0xad2a4ccf2529fa5eU, 0xda2b3be4ee39061cU,
  0x601126f3d9d0a5f7U, 0xf1333415e4af26e7U, 0xf4bf0ae91dd9814cU, 0x48e41b3ef9364445U,
  0xd1eabbcfc80de003U, 0x5e560fcfb05f4f3U, 0x361ef91a6bb31d08U, 0xa36e34e3f7e7d2f0U,
  0x3b14d7196d07a9e5U, 0xe873c7f3b1252303U, 0x2602f704d8b51227U, 0x991af30ff728ee9fU,
  0x19e7e9f8e63d2451U, 0xe3cd44d35dededffU, 0x339c5f1ec0a0712U, 0x54fbaafd03133fd9U,
  0x1b24f1f1ff2df62aU, 0x2ce12308e5da3756U, 0xad8df38ebc741d5U, 0xf91ee9060ebc5a10U,
  0x3e30616e001c502U, 0xb7f01fa247b3b8e4U, 0xe50223f916e1f9b4U, 0x7f68bd26db1be4deU,
  0xcb40f676f81132f1U, 0x15c9dbd10a10daU, 0x28461f03d48124e3U, 0xcbf40fe5ec01b7f5U,
  0xf7e08ecdba86d615U, 0xd21a1755ea0753fbU, 0xce1ce08e5d5174cU, 0xfff718d550f6e7e8U,
  0xdf213b2afb10028dU, 0xb065dc5072828cfU, 0xa90acfc409e53e03U, 0xb4ead8071e2e0748U,
  0x63e8ffd1d0d7e724U, 0x2132fd17fe15d2baU, 0xf8e3e015e74dedc0U, 0x823fd05100d2059U,
  0xb151f327020b3c0fU, 0x1e602020305c0ffU, 0x241c0530fb081781U, 0xfbe8d926cf0bf5eeU,
  0xeaffc603261afdbcU, 0xfe0f1722d82bf833U, 0x3637f6f0c4efb6ebU, 0xfee1cbf60a03b4b9U,
  0xfd4c9df311fd16deU, 0xf9e0262f1b3abcf5U, 0x54ef4b90e6e165efU, 0xcc2d1ac0410c5be8U,
  0x50ad23ca25131f3bU, 0xd7f1c720e5f724f5U, 0xe43681cbdadeb4efU, 0xf7eb240bf605e927U,
  0x172ccc3a2f514808U, 0xe0ed1896f20ad620U, 0x313fedd303fdfa35U, 0xc72cea24efff13ecU,
  0x2a084639daf8e222U, 0x76bb605ce3c5f4deU, 0xdae6eee618d40ff2U, 0xf976fc3b2c32f701U,
  0xf91c66c13cfc0717U, 0x924b806252bcec6U, 0xfef92a5b0716daf4U, 0x5d2931e7051eef74U,
  0x5410d910ee3ada04U, 0x381f1cdd23130a6U, 0xf300fa042da3ac4cU, 0x1f4c4fa126192803U,
  0x1faf40640400eaeU, 0x1213c2deae361f23U, 0xe5d131c2fad6051bU, 0xb52b1bebe10612f2U,
  0x7f013c0102f66511U, 0xcec4ead0e7dc0e28U, 0xf1a9effeedce0225U, 0xeefdacff43e73ad3U,
  0xe6ce1d3cce1e0959U, 0x10780045b40426edU, 0x43dd17fe1ae52c20U, 0xea0a111039f7d1c9U,
  0xb623dadaeff8f4ecU, 0xec6a1bf8d9e426c9U, 0xece6c4ec88da338fU, 0x21a52ae1a864b1d7U,
  0x9206cee55620f5e0U, 0xf21976f37ff6f610U, 0xed004eacf83330e9U, 0xd1f013068f244ae0U,
  0x4b2cc0e6d3d93eddU, 0xe58eb30e0fd1f0c1U, 0xe557e4273f3228feU, 0xdc33c631fb400ee2U,
  0x12024684009e1U, 0xc7ef38efba32a928U, 0xe8d1ea17ba33bb59U, 0x13250809521d4877U,
  0xdf3dd71b2ce509f2U, 0xeaefb31b092e4217U, 0xede6aa301ce80381U, 0x17b20f22313fd502U,
  0x112c2c02f192413bU, 0xe3a6cdf78af49fb3U, 0xcaf42cd305c3d107U, 0xe19f3cd33b2a0192U,
  0x55fa3dbb1ee5dbcfU, 0xd94517f4360cba26U, 0x2022b09e7c90ad6U, 0x1c08d0d1e91f05e8U,
  0xe090ef13a0ceaabU, 0xced4de2e20e19acU, 0xe93ac3d4f452b914U, 0xd30118faea87062cU,
  0xdcb6d5e056cd1f18U, 0xb22a0edc521fd95bU, 0xf42bbfeaf37f4017U, 0xb62c77010db413d3U,
  0x7526270c352021b8U, 0x1d0b674ddae67f09U, 0x2b730c173b5a3a03U, 0x90f308fd3ee7f1d9U,
  0x6be40133eac6abafU, 0x2126e8c0e3f1f23aU, 0xb43b17c9c2fb4ce6U, 0xebebaeffe0f112cfU,
  0xfb67b2dbc9df3defU, 0xd832292406eb00e8U, 0xcbe2b3db012fbcdbU, 0xc82041597017f666U,
  0xedca04e82e8850c8U, 0xdd0a183aff2410dfU, 0xd7f6fea2c6171506U, 0xaadd12173af41648U,
  0x2fe920db282fdfbcU, 0x810a9ed04bcbf70dU, 0xe234050cbd4b0306U, 0xfffa2199eb1abc72U,
  0xb5f70004129acef7U, 0xda0dc20f240843e4U, 0xdff1adee5ac3b01U, 0xfc44c8299ecd14daU,
  0x20db2715e3ef0af1U, 0x2a7fba0b07edf1b3U, 0x5e40e9feb9340b08U, 0x1050b0e1dfc3d01U,
  0x9efeaf2bc42513e0U, 0xc1ec354c44a1ef16U, 0x7ed1b00dbd2e0f1U, 0xf6051527fad81ae1U,
  0x45ecf91d0aeafdf7U, 0x29bf220b00f33f11U, 0x6ba220ed20da3f14U, 0x1716e30419d40703U,
  0x2cf1e593b0b7ec14U, 0xccecfd5db0e7dce9U, 0xcae216d1c94dea03U, 0x48e2f556beddf27fU,
  0xfef806b6de16023eU, 0x1c3b2df4ba0afa8dU, 0xd6231126235af2b6U, 0x2015415be2154d3bU,
  0x1c0511eec6d0cfU, 0xfd1bef22cb3dfacbU, 0x95c21d0605140a77U, 0x218200d82d41d4c1U,
  0xe7c7e5e9120edfcfU, 0x13d846230bd10c22U, 0xfdfa18ffe7cda005U, 0x410c164913010a2aU,
  0x191bcfeada04c05cU, 0xd9f40938d1313793U, 0x2407df38180e59d1U, 0x72c42cef9e52b3dU,
  0xdec2c063a53c0fbU, 0x1b29eb27e4d94ad2U, 0x7f14e8e519ecbac4U, 0x3745191600c1de31U,
  0x26032df817f04904U, 0xdc6803eeddf432edU, 0xfee2dee0053d0c31U, 0xe1eaed28f81edff6U,
  0x24b4f91ef9da0121U, 0xfa1081f8f7d10cd7U, 0xcff7c15ec80fdaedU, 0xbc17e8e2162302f8U,
  0xf2702edf1effa1eU, 0x4010f5f8f0f21307U, 0xf3f2e801eed02638U, 0x14e8fde6745302e3U,
  0x20f9af050b201ff7U, 0x1c0ed9c2fd08282cU, 0xf8ea84e82d1c290fU, 0xb84bb426ee4bfd05U,
  0xedf1eab890d1706U, 0x4e5eabb2cd74b4eU, 0xcf0904f13efe5ae0U, 0x4101f0ecefecefdbU,
  0x340b02dba90f0740U, 0x8040e341c28e5caU, 0xcda45c4721e7f3e4U, 0x4814331045061516U,
  0xb5ad253e327faed6U, 0x811cc80259c06343U, 0x5a4dd30304af7c1cU, 0xe40bbcbf01df13faU,
  0x95e7db12f10bf9c6U, 0xab02174551f5c006U, 0xd7c4b144d28c4ddbU, 0xe8c5f1d84821bbb2U,
  0x552416483c2c4cfbU, 0xb0f905f9e44445e8U, 0x9364d43f22003fdbU, 0x1deaab0dd327a81cU,
  0x3210dd5d48813e27U, 0xeca3723af82f200fU, 0x243c08ca0dd80ac0U, 0xc7e3e9d4252f571bU,
  0x74423b2040d13e9U, 0xfb69d42c0c0414cbU, 0xeddcd1f641f0ce8fU, 0x74ed1a22f81f1a0eU,
  0x23eb0294811223ffU, 0x54284c9502103f0dU, 0x11be49efbb5d321dU, 0x1ee429bb240ec4cfU,
  0xd2dcbfd3c1f3101U, 0xce7e3f9be18db25U, 0x1451c1f3020720ceU, 0xfd39aaa726a51730U,
  0xd40f1a7ff0e60e27U, 0x1bf92a36f4172a12U, 0x3917610e441cffe9U, 0xe1e0eef145254244U,
  0xff0c0543f44d36e2U, 0xa0e6cb04e1cf01eaU, 0x7de9127fd1cde02U, 0x1dcfafc0f507edd4U,
  0xf9bde4f61304e31aU, 0x2bea0316ffe81cfcU, 0xffb5e5c2f90d2207U, 0xcbd220050f174ef2U,
  0xb4000cd8d0f81013U, 0xf5d805fe09c325c6U, 0xe21806faf3e2fd02U, 0x110000e60f343ec9U,
  0x605241e228104e7U, 0xfc0e07e5efacb430U, 0x48fb41ea25e7522dU, 0xd3e0fcd42fde2114U,
  0x162903e4d0f9571dU, 0x7f20711c0ee18c9U, 0xd30e21ce3009807U, 0xc2c424ddf5ed060aU,
  0xf65cebda13f1f46cU, 0xae802b751eb09f9U, 0x7f30160b0a23b407U, 0x2fff18051718b132U,
  0x9b2cf9b0190a3be0U, 0xcdfa083400c9144aU, 0xc6d2ea13c62ed815U, 0xac152120ebdc1ad1U,
  0x42b1e4e7f7093d1bU, 0x81f0fd8dfcdc231U, 0xafc2c046473a54ecU, 0x361cf0d248c4050fU,
  0xed32323e030d70bU, 0x38cceadd2a13f719U, 0x12202627e9a81041U, 0x2ec1b431c9c32c1cU,
  0x33fc14f12aeecc31U, 0xae2527f5eb57ed23U, 0xe6ec7f07e1f0e2a5U, 0x553be93636ec262aU,
  0xfb5dff91cf60bf5U, 0xae16d3cee1b6e3U, 0xf6b7df042a2fe609U, 0xede30b0db858f311U,
  0x34c2070a3b3ac12eU, 0xf404392c12ec7fa6U, 0x906d3bdf90eed13U, 0xfda22d2bcb33c2edU,
  0x42d302ff2cf92406U, 0xa334c55de5e80f0bU, 0x342773eae51f5a4aU, 0xfc38ece6050ce52dU,
  0xd617cb2e2622e305U, 0xaf0080ace3d00d7U, 0x71dd1b32242b310dU, 0xe42c90684ad207cfU,
  0xeaffb20adefefeb7U, 0x1ce9e7503318300bU, 0x92fb184fedfb579bU, 0x4b1fe9ebf43af9a8U,
  0xd60a50072c33a96fU, 0x44cbf0dfd2f7f604U, 0xf1bed200d822d706U, 0xf73649d929b6fff7U,
  0x31e01ae87fc8e02dU, 0xce71162a9ae221deU, 0x47d115dbcccd21ecU, 0x7fd90ad4befdeeeaU,
  0xff37375e1cdd0a3aU, 0xc523dd1c011a1f1dU, 0x1d982a0d074df440U, 0x12c1a0a5ce3dff0U,
  0xc0e97a38d044da06U, 0xe513d90619051b16U, 0x4e2d89dcc3c698ebU, 0x10ba0d521af10a38U,
  0xe4fae1210afdff0cU, 0x5d7ddded8d6d3e0U, 0x240017f52a297f03U, 0xe71e2a1df2e4fe05U,
  0x24cc390fecf6d403U, 0xd5e9dd2ee4d3e8c7U, 0xbfb70614e90cf7ebU, 0x31060626e0e2f8e5U,
  0x9d4f0cafe17f51dU, 0xf8092600394e2e2fU, 0x1afdc1a9344fd80cU, 0xe04ac632d64af118U,
  0xd405273f20082c0bU, 0x38cb1ebf05b810f4U, 0xffbe65fe8ebc9f2U, 0x3bce2010280e2ad6U,
  0xccf132e8169323d1U, 0xb6deca171f12ec05U, 0xfc1e04a9f7f20bd1U, 0xd15d30823214449U,
  0x2f1e601035e7ed06U, 0xbe1d240db1df9c2U, 0x110f7f0ee9f00c23U, 0x221bc52e9d1a401eU,
  0x26282159c5c03e12U, 0xeb81bfe928fbd0f0U, 0xdc3af3dff8f9f112U, 0x2809e4bc351813d8U,
  0x7eb0035181d11dcU, 0x1912d6dc49e1572fU, 0xf3e6d31af6f4df01U, 0xce01f749bff92b32U,
  0xe803172ee6380203U, 0xce5ebddff1aa4e4U, 0xebfc14232417dce2U, 0xf04b243cec232a29U,
  0xb2efbc01de210fc7U, 0x1327f12b7d350817U, 0x28f70a3cbae5ecf9U, 0xf0ffafdeeefdb02cU,
  0xe9c8ede0ebf72ffdU, 0xfdedf6d11d52effdU, 0xfa0026dd3ab7cce2U, 0xa004a7cf4e225100U,
  0xd69703f3dde5a6e6U, 0xf11a1ceb3a110f22U, 0x254aedfb3a7fbceaU, 0x2bf1220e1bb218f4U,
  0xdaecc8ef4fe5f327U, 0xe1b34d2111b81e5U, 0xc40137e9d6e311a4U, 0x3becc23e6300ceeU,
  0xaf0e8304c43807faU, 0x26d1d8ef2de6a20cU, 0xdeb51decd6f8e4ebU, 0xb0d2c6ff04f94823U,
  0x719fccd40a2efdf3U, 0xe0e6d4e2f61cfb13U, 0xa829cef2dd1720fdU, 0x3e4ed3f1f1efbd8U,
  0xf4e9d12804f2da55U, 0xbc99cf1821d718f8U, 0xfccea26d2cf129d7U, 0x22fe3eafc6ff623cU,
  0xb6ddd916e7faeff0U, 0xfedfda21e8f02c48U, 0x819c0a0816c9e3f8U, 0xf3a622f4db3729d9U,
  0xebad20592ef17ebbU, 0x36eab906c3d42932U, 0xdad614031ddbd810U, 0x136af6c2f34d1ef7U,
  0xf908ed0a03d7e409U, 0xa3e8291122590a01U, 0x35001dee450e6c00U, 0x19e1e0312c0ecf2dU,
  0x7f23e9dec43100f1U, 0xf615e6be1ee4d9ceU, 0x12ad02474902f219U, 0xeedfe9dd36e1e1d1U,
  0xdfdb110c9fb81000U, 0x31de8e23c1112U, 0x5204b1dd0afcba13U, 0xec51afdd50e13bcdU,
  0xf705112ed517d9e2U, 0x1dd951f4d2b7c21cU, 0x9e27fc71108dccaU, 0xda2cde2021de06ffU,
  0xcd2b2ce1aedff1dfU, 0xdad34aa33cc9c30U, 0x4f54f7eeb5f72061U, 0xeafdccfd07e24a0cU,
  0x1ecc111ff5284200U, 0xea2f0bc7f661271eU, 0xde4e0f6e20f3de5U, 0xecfe39edd32118U,
  0xe3069ffe07390527U, 0x23ddd641aa4501f6U, 0xe1f10abdc8f7f1e8U, 0xdae616d3e0bae8dbU,
  0x3cfce82d31fdf98eU, 0xa52cc3041ef73dfbU, 0xe2f542791855d23cU, 0x81ecf73690ceeec6U,
  0xda2636ffd1ca03e5U, 0x943cebe3d4fb1d06U, 0xcb05151ed9aff42cU, 0xd56e47073b671b0aU,
  0x3ffa5b7de54dcd00U, 0x391323dea7f3cb3bU, 0xe8ae33ca3dffe532U, 0x5bdaf21dc319e81aU,
  0xd22fec3957f101e6U, 0x346ce227ec2edf81U, 0xebd9471d5cdefbf7U, 0xc40b33da24dd14ecU,
  0xfbf502c6fcd33259U, 0xde1b02a307e7d0efU, 0x1702e3d91ad6b603U, 0xf7e7f3f7a0f701edU,
  0xf10610131db8c326U, 0x15dde1e4e9ce0727U, 0x50d51e59becfc6f6U, 0xfb2d0e01ecc227daU,
  0x16f812fd1d32d412U, 0xfddffedf45f62223U, 0xeef0dfdde53dd5a3U, 0x44080786530c1458U,
  0xef64d70e44cc1d07U, 0x3fdeef0ed46fcb43U, 0xebe0d7092ce83958U, 0xfbe915fadafefc7fU,
  0x2420f6fbd0d7fd1cU, 0x8efef62cce19d4c1U, 0xb6051417b70acba0U, 0x1403d11a59b7f926U,
  0x6a46aaf011dddd12U, 0xf7bf0b2ace1e1f20U, 0xfc5617f1d3b22630U, 0xc0c205364f103adcU,
  0xed2ba2d83beae591U, 0xe002e8c8ac28d262U, 0x91cc702c1504266U, 0x2218c6ed0e011223U,
  0x4a2e21eb7fcecc30U, 0xd5fd0fee06b8b5d6U, 0x6ea81fa04f9fae4U, 0xed1beef40efae8fcU,
  0xf71000f5f72de02bU, 0xc6ded7ed05ece802U, 0xbfd061bd306eb00U, 0xec0c03eb0127d201U,
  0xf74f0dce1a22eff0U, 0x21506f504fa18f4U, 0xfcceefc4f8d3faf1U, 0xe5f9cf1efac5040aU,
  0xd47fee0beaf720eaU, 0xf6f8c5290547e716U, 0x8021420f513f606U, 0x2bc01ff6f6d5e909U,
  0x3fb1df8e1fe08f9U, 0x2b16ab113c19d7fdU, 0xf1031e0702114689U, 0x53fe1123fd2d3523U,
  0xfde3fdedf4036a2U, 0xdb13e53118dcc41fU, 0xef0d6d722d21eebU, 0x16165a2217f40db9U,
  0x4d1c002d3ce70506U, 0x28fdf5141c1dfb05U, 0xaf3d22076e29f2e7U, 0x9c0b0a02ea34c0f0U,
  0x131ff4e507e8d313U, 0x4b0e9b13fee0c00cU, 0xddee62beec5f5dbU, 0x8f8e3762d4cf6ddU,
  0x27530fc1f0ef2002U, 0xe7fb0b3e32034edbU, 0xeb1c25e6ee6ed901U, 0x32442ac805a90581U,
  0xb34916f4fe1fd815U, 0xf72a071d4835d310U, 0x1be34419096212f8U, 0xed10fef1e8e93c7fU,
  0xcbe49b05fdda08adU, 0xf2e9e1fb0c17d306U, 0x1528d5442b56e843U, 0x261904e5202deed1U,
  0xcb41efd9a015db7aU, 0xf8f224e2dcdcf71aU, 0xe7d9abeecd002135U, 0xd72cc8584c2c4c0cU,
  0xe412200fe1fe01d8U, 0xd5a4644ed9f2fad2U, 0xdf7fc92b30c82bf0U, 0x3a21270a5222e0e1U,
  0xaeffb2c11f928e2U, 0x3f00131ff1dafa19U, 0xfff6dd23f8dff4f4U, 0xa91e09d81d121c12U,
  0xc0f91b00ab19eed7U, 0x5ef522c2f4d41813U, 0x17011ef2daddfbe7U, 0xf5dabaf6e6d1421cU,
  0xa3911c4b086504f3U, 0x76ccd9aacb497feeU, 0xf22a25b056fcf411U, 0x14b9edcb3b4334f2U,
  0xe381332915ee2a93U, 0x3f2025893f8b28f1U, 0x1250f619f2c628e5U, 0xfd4f2721d70fdc17U,
  0xe8f12803e0d2e01dU, 0x43cdde3f250c3fefU, 0x20ef5bf7e9bb1de5U, 0x15ba62dea89b1fU,
  0xdee1fe25314f25bcU, 0xb515f8b9df94b345U, 0x5da8d105d1b5beddU, 0x1127fac8f4ef8504U,
  0x817b0b5fc2ea062bU, 0x51ef26718de9f9f9U, 0x14bacb121f05efaeU, 0x461937ead0f2c0f2U,
  0x11b70cf6cd08d3e2U, 0xd4ec8bf00ac73210U, 0x39a230472a46aafeU, 0xe612cc50002926c6U,
  0xd2e04935391b44eaU, 0xd8fa3e1c46331ce0U, 0xfce37d1ed28dc13U, 0xdfcf076621f118f3U,
  0x8c0c01d3eae1e43aU, 0x28143ec0d96a51ddU, 0xd6e6ebee081de528U, 0xc409257f00c96b0aU,
  0x4b06c82cf0f92120U, 0x6aacec1703f6bc39U, 0x10e53ee62108fe43U, 0xc24e3db64cfa0d25U,
  0x1f1800031fee3e65U, 0x8f639f512f5b6e1U, 0x3833edec13d1e7e6U, 0xc05201ae1a092281U,
  0xc1bd3b2a092de5dbU, 0xf012f9aebb08deedU, 0x2acab4fcaecd33aaU, 0x2124064b2b0ef3U,
  0xef2197cee31350fU, 0xa0b0d103c302e3eaU, 0x1f0427ccedcb18daU, 0xafedaa1d73cf3e0aU,
  0x4003ddce37011cdfU, 0x2006e8c0f1c45ec0U, 0xaded9d43dfac80aU, 0xeb1924fddd3fdddfU,
  0xd6fa053e4adf0d08U, 0xe50fb61e66d810d7U, 0x9c110d2c33ce4edU, 0x27f4dcffeee6f9feU,
  0x18140400c003cb34U, 0x1d182edcd72d8136U, 0x295f4fb3acbea2fU, 0xe568b82129e51ff0U,
  0x812257031508f114U, 0x76f7dc19203b2131U, 0x2a161ce5c2feeae2U, 0x1e33fb0e451926efU,
  0x1446bc39cf1f058cU, 0x4a553c1d3b5b7edU, 0xe842e0e8a3e726f5U, 0xe7127326e8133b18U,
  0xe407effbfc2ec3e3U, 0x6cdd1f229d13130U, 0xf2c9d3ff216b440cU, 0xc1b4e41efa5e16ecU,
  0xfa511a32dcd1e00eU, 0xbd1c0f01213addccU, 0x101efbc7f439d822U, 0x44bf1194403ebd3U,
  0x22e0d9244bdce0e6U, 0xe6d6277ffb3a4cb9U, 0x57fd24f040fa0b23U, 0xb4ea264417de7835U,
  0x1b5ce15b0f9d632aU, 0xcaf5c3d823e656f0U, 0x1eccfb20c61120b6U, 0x50fd41132d8be0fU,
  0x3cb70013b3e92512U, 0x7febf70a06f2c6a4U, 0x7023d43e9ff1d1bU, 0x1be8e1b23fdacd43U,
  0xe0f01e2304ba1720U, 0xbe2f5cc2b220d2ceU, 0xd7a036efe5081f3aU, 0x2e1a3fa23ad637e7U,
  0xdaa443206b0aff20U, 0x33e5d43e22f0380bU, 0xc5b1e6062b3bbb4cU, 0x464aeb05ced91303U,
  0xebca3ef6cc1dedc5U, 0xd113d3f40ec9d923U, 0x7f0651ce002efdf9U, 0x6defe1938e0d9bdU,
  0x2fb3d4e3103117a8U, 0x30e7debf24412511U, 0x192807261cfbb9c5U, 0x112329cd0b2831f5U,
  0x1b141f37c9ebd6efU, 0x6839f612ced91aefU, 0x3ba60bfff9172735U, 0xfb3b1fcdb5f6f42dU,
  0xa139022717f016fcU, 0xc2005ec01ad1fb19U, 0x4f2ef0ddff003e6U, 0xe53f2dd91e0edac7U,
  0x12fe3155f5f60418U, 0x83d3a3037fcf0f1U, 0xf5eb36f202fcff3cU, 0x1134ddd34e2aad7fU,
  0xd01efdb32535f12U, 0xc0df06f5f1f5cefbU, 0x1e1c3df8d7fc0fc5U, 0x17f9b7e5f7fcee2dU,
  0x20f7140ccbf3054bU, 0xe8084c015d390b2eU, 0xd31fdce1e92b261bU, 0x8183df031d0c09ffU,
  0xd52f55b5d01f22feU, 0x420c3bdf3e1bfe06U, 0xf22ffda1246031deU, 0xe0c260f9176c040cU,
  0xfd27ae1202f95031U, 0x54328ac2d1500e9U, 0x180521b43506b4d9U, 0xce0f1f3014467f4U,
  0x3c01cafdfe3cb86aU, 0xdb243f0b56dd0aecU, 0xd54ce2c70b0fe9ffU, 0x63ece3c2e7e421c9U,
  0xd13ef50427a40908U, 0x104131b27be1b0dU, 0xff7fff17e3d2eb24U, 0xfd0f0e506528123bU,
  0xdaf7e5c8e238f4cdU, 0x8ce072d120ff2f1U, 0xc5f42c25ddf33530U, 0xe569f29cf5f1e333U,
  0x4f4a25e8450deac2U, 0xfd3efd1bc3d4b5fcU, 0x4f0b29d8e620c6ddU, 0xc81e3924f5eda14eU,
  0xd9a672f40f2f7fdeU, 0xf80dcbeae110eb2fU, 0xfd09dcf83eca5514U, 0x1aacc326000127fcU,
  0x14a12121e4f31ae7U, 0x12efc4f9c0ec07f7U, 0x14d70c16fe212d0aU, 0x19fef7efede90abaU,
  0x2c36c84c17f72fb1U, 0x28d6d2ecd34c520eU, 0x1e8bf0e6dded19c5U, 0xd00edd2a0c447f24U,
  0xe2aea7e62336120aU, 0x2522faddbdf6d5e2U, 0x90e9fab410e408d1U, 0xfefce53637ff3abfU,
  0x2cc493db900f30eU, 0xdb17f82a113be16cU, 0x2b28e3d1fddf0f85U, 0xf4df0316cbe3f0d2U,
  0x19b7cb36350bee29U, 0xf52dc215f4f71e12U, 0xfbe281e7c5bb1504U, 0xf8d6c927e8f1feaaU,
  0xb41ce1f6ba21c225U, 0x30e909d624ff3222U, 0x19ea17172a060702U, 0xc51e8e1729283919U,
  0xfae9b615f3afeb32U, 0x4b21e91bf8064b1dU, 0xfa41f3fc30fa0c9dU, 0xac4498e0c938bfc8U,
  0xfbf0ac3102c814e9U, 0xf8f3abefa42f0001U, 0x480ef0c1f9f27fd7U, 0xffd096b1bdc4106U,
  0xf71e2d06451e471fU, 0x6fc30f605f2f4f9U, 0xf5f4ed03e808ea21U, 0xcdcf21fff0d7e3U,
  0x65a6dcdc04b4f8d7U, 0xfa1bdfe5d2f7f3beU, 0xfab24a310c4ed112U, 0xfeeda60cc721cce4U,
  0xddbf171f17f137f3U, 0xc90f021db9d5383eU, 0xd911063eed151519U, 0x13cf31872bc62acU,
  0x160316f40512031bU, 0xba191d1701141291U, 0xa40fdb328c3c921U, 0x1281d7eaef3310ebU,
  0x6cbfe70b5708fd07U, 0xdae63507d6fede10U, 0xe1241bc7e0feef05U, 0xfb22d1fa1cf3fc15U,
  0xe3d1f0fc11d3d529U, 0xf381f2f5f50529d0U, 0xbefa01152314fbe9U, 0x24e415d314151fceU,
  0x3ef45aee0701fc0bU, 0xfe3424e6f9f13f22U, 0xf339f61ced350714U, 0xf9fc22d626f71be4U,
  0xf5f80ffe33e406eaU, 0xf6f5b001af0f0ceeU, 0x30af1ee0bda2a3dU, 0xf3f20f1a0a361cffU,
  0x41fdc01fcdcd3f5U, 0x4039f89904d51155U, 0xd00ff20ee8dcbfc4U, 0xb8907d61fa3dc490U,
  0x75c080df8349d1cU, 0xef43159cf7c330f1U, 0xfad4ca9b4a7844f7U, 0xa91528abd32e10d1U,
  0xe9a429f2a4dcdc95U, 0xf4fbd0b1a63b56c8U, 0x81e723a498e2fd2eU, 0xe81ecf426b139f11U,
  0xdbb9dbe0102bc6e9U, 0xc50b5a2a12c8772eU, 0xe1000e0f0410f5ddU, 0x4efb114019a1b21aU,
  0x2eb281089f57bcdcU, 0x29eb46ba1feaed39U, 0x10d6be0f1f16d529U, 0x29ee591adf22205aU,
  0xf9bab41dec101e24U, 0xed182001fad6e005U, 0xe725b037983bf0f4U, 0xe526c7e47dd62b18U,
  0x301114104bad32f8U, 0x154ed5dbfb2bf948U, 0x17280beee5c31d36U, 0xf118cbddf1f68b30U,
  0xfbdffeec0306b9feU, 0xc15124f510141f23U, 0xcbc80504efc2f4d6U, 0x7ffb3212bfdb040bU,
  0xbc5327a5082de7d1U, 0x261bf3f2170bbfcaU, 0xd331e04411c11c23U, 0x49c8cdd052f22f0bU,
  0xf6e139d2deb2931eU, 0xe3d0bc27dc13bddbU, 0xf2e1f1ddfde22672U, 0xffff6033bc380150U,
  0xe70f0a1054f75814U, 0xf52ffc0518aa1d0dU, 0x2800337f2cde16edU, 0x3e93f6e9f3f71befU,
  0xadb1ddaf823141dU, 0x5e4cbe0000cb00b7U, 0xd9d4bfc40e1418edU, 0x2ae83223bed916f3U,
  0xbbdb25e0dc295052U, 0x10e82bfb0e07c525U, 0xaffb3a65b850331eU, 0xf540f84ac4fbdf34U,
  0xd83536090edd7fe8U, 0x23b8cf3019daffc9U, 0x3120f4e4ff14f8edU, 0x2c05f45febd972f1U,
  0x19150d24cee230e4U, 0xfd151768af1cc05cU, 0xe3dd33202153eeccU, 0xf1d542ecf9fddda1U,
  0x2f0de4c7073262e2U, 0xeced12161ceaf11fU, 0xd91f47d423254113U, 0xeea28b8defab4f5U,
  0x3436fde2e9000c02U, 0xde7903d400f99e08U, 0x18fe818ec9a71508U, 0x7e5f6c906a3f415U,
  0x480348f8d7200cbdU, 0x16311023f9a60febU, 0xe0c01cd32404d6fdU, 0xed0dcde705f32df9U,
  0xf713383ae840db06U, 0xebfa2bd01d084245U, 0x9ec8f52b713b333aU, 0x41310ca29e11250U,
  0x981623391c0d3944U, 0x2743fb6db7353807U, 0x14f01a0c88262bdfU, 0xcdd3b1c00efc40eU,
  0xbfddefa411430cf9U, 0xefc61f3442337fd6U, 0xf01d7ca7d425e6c4U, 0xf826e32e2d913b27U,
  0xf32baee323350fc6U, 0x33e54dec08f7d83dU, 0x24e9d95e3d0c030eU, 0xecfde722ecd8ccbfU,
  0xc69a9dd8f6bcd67fU, 0x25f800b7fb0f1c36U, 0xd2dda8d8124f4ca0U, 0x3e5cd1fbf7c5d31aU,
  0xb3c8ed49fbd5f3e2U, 0x23f10d17d09fdb0bU, 0x2f500a8f5f396bfdU, 0xfc03d52ce4db1713U,
  0x1800cc1eaba4ac17U, 0x3e112002db31d2eU, 0xb56d2db3d85825ccU, 0xcfbdb0f103121e41U,
  0xeaea2903d5890ad6U, 0x17d9d057fce8fa53U, 0xa502eaf2cee2141eU, 0x16f5d3b1dae3d8ddU,
  0x48f629ed0cd01fa9U, 0xf8745adc81e902feU, 0x4919f6ee374c3c2aU, 0x1ef229bd29e704bfU,
  0x938e4bb91107e124U, 0x1be32365a4a84393U, 0x1cee9427fdd3df0eU, 0xc84b2cf3ea50d6faU,
  0x3f43faf7e1d47c34U, 0xf68131f1023deed7U, 0x5db702071305df1fU, 0x39a7b727230402fbU,
  0xbc0cefed17d11b9U, 0x7070dc62504bf1cU, 0x63e2023dd43c92aaU, 0xf03009cc0b060370U,
  0x58f7e119d04e300bU, 0x4c0b036cbc7b214U, 0x1720ad3410e1170cU, 0x2cff5e0f7421abaU,
  0x29059a124fb41904U, 0xc6d7c234e5501b2dU, 0xd60e18d2374f32dcU, 0x81d85d99e90a4417U,
  0x96075f2d20092033U, 0x220d47d436c9d812U, 0xc0effe43b612d7c4U, 0xc85b1137c6bff34cU,
  0x81bd4c226049caeeU, 0x2ad9231205edd1fdU, 0x36fa6ad7b3efe229U, 0xde47bec9011f0117U,
  0x3809f21711fa17e3U, 0x15ebee15046b2ff3U, 0x9fe6fc1453cbfbe2U, 0x1ae7501f51faf604U,
  0x4fe11705fe32992eU, 0x1eecedcc1dfae60dU, 0xecd6d7b417f412d2U, 0x29e6ed13240df1d5U,
  0xe8f61ac70fc40bfeU, 0xe5107fead720f6ecU, 0x152222dee50ee0e0U, 0xd7410ffd39cc3800U,
  0x2f44e4fdfa09ee2cU, 0xfa38370e47e00712U, 0x2ae51621f0f8fce1U, 0xeb0324e6d401f5fcU,
  0x11210bbeb20a112dU, 0xe92d18ff08f5270bU, 0x12e729ff1e0c69f0U, 0x37f744abf2164e05U,
  0x301bd3f617c33ef3U, 0xeecfccd713135efbU, 0x352ee4f5e59c1f05U, 0xee05ddd34bb2e2ffU,
  0x472eaf81d5150a4dU, 0x72fc3e28b4c8f981U, 0x14854d19ef1122ecU, 0xdda6b72d26fcf7deU,
  0x430a2434af3d2fa7U, 0xf51a2016270a49deU, 0x25a139fc07b600beU, 0xddcb282055eec4c9U,
  0x2c449d10080cf40bU, 0xfafa16040fc9e509U, 0xf3474f2d3c0700deU, 0xeafbd638fcd33ae1U,
  0x530e02c1ed4b1b04U, 0x5261ae2f7403cedU, 0xd412de81e9fc2343U, 0xffbb1336e106ffaaU,
  0x671ed2e5150411cbU, 0xebd2e73af1dc2fc9U, 0x270df2e70f6bbabfU, 0xdbc80263a92ef3f8U,
  0xda15f8222dc12dcdU, 0x11dc02e04ce0c4f9U, 0x9de0132dee116b4U, 0xccb1f0406f7c00dU,
  0xae2e3e90c00c01aU, 0x3f27fe1f528f8b9U, 0xbaf827411af2dd05U, 0x70b0c06d8120d42U,
  0x1217202bebe4e968U, 0xaa0bc947c49cf338U, 0xd735e8ec11c307f1U, 0x3614d8ec3bddd6dbU,
  0x26ea08e1e9c7e42eU, 0xca2b10bca8efb0f7U, 0x36877a4fec9bd502U, 0x21f5f8fca949fefeU,
  0x9205feaedb260ac8U, 0xb3e6374bd981cde9U, 0xebbc0cc6fe24edc2U, 0xe1299c45d518d1fbU,
  0xe0721bcf7796cc0fU, 0xb8d5f29014200d1cU, 0xf025fff23307fcfcU, 0xf5fc78731e9838d6U,
  0xde44273ffe55c602U, 0xef0fe82012212718U, 0x26dd0be0dbd31005U, 0x4a5ac1ca22e8b6ebU,
  0x14f7d23d1825fab7U, 0x226fafae6ecf5dcU, 0x43f928f2fab2f106U, 0x11bf132ffc2e07eeU,
  0xf4d5e3be3f14fffeU, 0xe70644e94be1f3e6U, 0xe348dd17b3f00736U, 0x65edf92f5a0f11e3U,
  0x441207300118ef81U, 0x6381f3a7c51a0715U, 0xdbfde0bb23857625U, 0x10eaaf63dc03ad4dU,
  0x6da155b29eabee09U, 0xf0b7263325d4e11cU, 0xf767c53709022be5U, 0xfe01db04d6dcea45U,
  0xcc1f0b1500fad612U, 0xb4110db32003f4f2U, 0xf3b7de2709ef2806U, 0xdb1bd5dabae6f8a0U,
  0x302d4d34f3f81f4aU, 0xe1fe513ecfe172f2U, 0xd9fab205ff194ffeU, 0x35209d211af41015U,
  0xed13b5ca21d1853cU, 0xfdc2df342b51f617U, 0x210da210f2de87a1U, 0xcad4501fdc0344f7U,
  0x4bdbb3f9041c09e8U, 0x35cd06633a8b72f1U, 0xf9cff9f41d2ae819U, 0xe74159284252331bU,
  0x345414e23c327fd9U, 0xe1bd23ce3b18e2U, 0xfe6b8137088d2502U, 0xc311f5eff1cc21c9U,
  0x220fde361e9dfce4U, 0xf4b90a2f2ab9d616U, 0x3820f9d71621120cU, 0x3331fd1134040db4U,
  0x1b11ce191602d3d9U, 0xff334329f122da0eU, 0x3192feff3f0db45U, 0xb53fd6da06e0f2ebU,
  0x1229ddb52124f2bU, 0xf22a0b2d0be9b8e4U, 0xe3021d5cd41336fcU, 0xeb31d513b62d670fU,
  0xe3bee1454ef4fd4U, 0x3ed61fcfe5bd0919U, 0xcb0c5be578084b36U, 0xc1deee371962be81U,
  0x12ce0c2e17464a9dU, 0xe1e8443b383ded0eU, 0x9c916f09f9f2f10fU, 0x24c519b2e73507ddU,
  0xdbe7375f3833f25cU, 0xc951f5a90be5e514U, 0xf50e334118f0f83bU, 0x24bfae49066924ffU,
  0xe102cc16090541caU, 0xf912fff2db10f55eU, 0x2669013127797f0aU, 0x5bfb8fae1cf0dd6U,
  0x12e0bd0bb728fb30U, 0x22f9fbfb1cea30e8U, 0xfbed4cfa2d232608U, 0x2a1728ca57e6cff6U,
  0xb1817f2fddc1919U, 0xd61eed2ff3f832f3U, 0xd10bbeee22f8e3d9U, 0xd637f833ebbce44aU,
  0x32bf0808fc1217beU, 0x17542ab2c3014211U, 0x12bb7f1e3729fc29U, 0x138bc191ae208fcU,
  0x113ac22600cbe7e8U, 0xe02be7e74911d4c2U, 0x326a2a1fe9ea0534U, 0x2dd411d2deb005ddU,
  0xe11856151622f8f4U, 0x6ad0c8f36ee6c906U, 0x1e3bfcd840ba0309U, 0x1ee9f64e3b1e0218U,
  0x25e49321bee8d91dU, 0xe9d53ed5d4feebe9U, 0xdde99d285fef2282U, 0xeefb0ec67fdf25c7U,
  0xf094b2cdaa34859U, 0xdec0f6b8ffa40b01U, 0x1cef041b1291fcd8U, 0xc77eaf2feb35c6cbU,
  0xdd2e3c32b5c1330U, 0xbbea38072df9e912U, 0xb52729e6d932de00U, 0x73bf9d0e003d810U,
  0xe2262640e8f70113U, 0x3a01c4fcfe14391dU, 0x480a10f74943e01aU, 0xd4e0c1101a2e03deU,
  0xbca61d0af1f200a9U, 0x41931f0273435U, 0x4fa42f4fdb4ef1fU, 0x2f4f8f634810adaU,
  0xc5ccad2e4001f507U, 0xd41514fb1f23fb18U, 0xfde6f1c6dde449f3U, 0x4142081d2febe231U,
  0xe842c4dd1e5cdbe8U, 0x204df9da0e23fbe0U, 0xfbf3ecd7c6fa010eU, 0xf1d2f2fce9c4f4f9U,
  0x3438fcf0e404f313U, 0xf42af9fbfff64a14U, 0xde0f12fb11e30849U, 0x818ad90fede3da49U,
  0xb1fbe0ec0d1f1ff7U, 0x27011029e5edc2fbU, 0x1be2ceb0a7ead1c2U, 0x16c5f50908316ffbU,
  0xb7f6b33a34d5c99bU, 0xcad5e0d6cdacf3d2U, 0x136fa7091d1c1cfeU, 0x182804e2de08d97fU,
  0xabcc0b430efe1133U, 0xbfffd6d155c51d7dU, 0xf802ad030268eaecU, 0xe1eb4ed340311f07U,
  0x50abb3756cde8caU, 0xf5cdd718f3f50aedU, 0xe7df2b3d2301f3aeU, 0xe1262cf20ef57ffdU,
  0x32ec1291cf6d64dU, 0x11f8eabee20eedb5U, 0x15132049ed200b1dU, 0x1430e9e6f3fac812U,
  0xbec25af21fad12ecU, 0xd4333ecc2f4c2e01U, 0xecf605d62f28e15fU, 0x1105e110170037ecU,
  0xedae14b1fc18302bU, 0x9a83e3179ea8ffc5U, 0xb006dadb11ff144eU, 0xd6dc0f817f07c7f8U,
  0xcc808de05da2b50U, 0xfb53491ad02ad9adU, 0xc3dcaa3263a10219U, 0x8136cb3ff9fcf9U,
  0x18b0d9f33401c255U, 0x7c2e034d9e1d6d5U, 0xd0f09ec1bf3415aU, 0xf5fc67cf1bf93a4fU,
  0x19fb0732cb4847f4U, 0x14d00a0f4d16ea26U, 0x53fd170de9e016f0U, 0x3ee5d8c126fa202bU,
  0xa0b3b8f45ed81ccU, 0xe61a0a0120ebba0cU, 0xedda25061bead2f4U, 0xdc061607dafd00ccU,
  0x2e10cc51d2f22745U, 0xfd0c645ff1310e8U, 0xf596240b13d6213cU, 0xfbe6aa1b02e3f5efU,
  0xe80ef2010af0b600U, 0xfcf5fb09f8ed0bdfU, 0x7470aa7b8f118c3U, 0x6a7c3b008cde0aebU,
  0x92bef281dff9a317U, 0xe43a55f8ce38fefbU, 0xd2e0f445b1711faU, 0xfbcb12a00a82fec5U,
  0xd7ff82cc1a45e329U, 0xf924c735c3d00613U, 0xf85510082ca6ee0aU, 0x7eca25b5a924eaf0U,
  0x812b8bd81cd3ffa2U, 0xc9e40ae0503f09caU, 0xcb19e8fe72c0aaefU, 0x400cdb01e107d439U,
  0x25e61000e66b1614U, 0x13ebfa5a02d9150eU, 0xfcd6d9dee153213dU, 0x5ccf3c172fb360c1U,
  0xc10cf7382145e611U, 0xcbd8ba18a6a9c802U, 0xe40815a3c0e9f1f3U, 0xbbc0cfd6b1df20a3U,
  0x3b0ef7d510afd32dU, 0xec5da034ecfc13e2U, 0xc14fd9c6f02e2af1U, 0xe7110e03fa0f0f17U,
  0xef003cc1f0d5e7ddU, 0xed14b7ea1fa3c8eeU, 0xcffd2cd590b1fe81U, 0x3fd50403d232be3U,
  0x734f30bbca740e3U, 0x2e2f3b2c7c26dbd9U, 0x17cb15061dfbdce3U, 0xc923b5012cd4c4bfU,
  0x5d3d49afcdfad45cU, 0xafe4e0aac53edce3U, 0xdb0a36a9fbeabefaU, 0xe3c6ce141b22f4beU,
  0xe42b12b404117f0aU, 0xd34bdfa1ae6aa35U, 0xbb040fcde33b6211U, 0x56e0222eb8f327f9U,
  0xf2a7ec38f4a128d2U, 0x79e2d9053a02ede3U, 0xfe920516160c1216U, 0x24d63a16adfd0614U,
  0x171901450dacb12aU, 0xfdebed07252240b4U, 0xefaecef123cd704U, 0xec1defe2feeed900U,
  0xf908d00b22f1e9a6U, 0xcffe2e41faf11ddcU, 0x152230c5f708e718U, 0x858f7d807e60b10U,
  0xb1ec5d030c8fb28U, 0xf92a40462f0e12faU, 0xfcd7be0604390000U, 0xc601ccd3811524d2U,
  0xfe1f195917faf2fcU, 0xf11ad8c734daeadeU, 0xfc30f40f1941dbcdU, 0xe0ad7ff0500edd1U,
  0xfc0e33f5ce1d34d0U, 0xeff8f628f0f52db9U, 0x3e042bf759f23418U, 0xdb961072f6ebcff6U,
  0x1024dc7ffc53e21eU, 0x5e14d1ef14030fbaU, 0xa5e5ef12dbf40515U, 0xfa34a11b170e3a20U,
  0xf9d8f9e0f917faeeU, 0x3f1dd6e60e0dade7U, 0x15144eb50ff7b31fU, 0xd54a04d230ef44e3U,
  0xa1f1320a1137e2c6U, 0xfde623e00e1adb42U, 0x4f0dfd4d56122d9U, 0x1affd8d0df3131ecU,
  0xe7043127130c1803U, 0x35492881101f1af9U, 0xe7cfd79116d747d7U, 0xe415bba7f53f53faU,
  0x2611fc2d021aee14U, 0x81d2d32bd20ede6dU, 0xadde2fe34d800a0U, 0x13f323f918013b14U,
  0xca21eed8fbdb0ae9U, 0xafb20ce3df2621feU, 0x383abbd51720f83bU, 0x26cb12e9baf0ea0cU,
  0x2c2000ea0e08df1bU, 0x4ef6e3f404c50435U, 0xc610f0babb01fcecU, 0xeab2e0f8290cd805U,
  0x15c6f930d3f3a825U, 0x21fb00e85c0f1b1eU, 0xfb123c95072dc6e8U, 0xd0e9f51447fc371dU,
  0xc8a44ef633143816U, 0xc3be556e33c3325U, 0x223adedf0c0f1a04U, 0x81fe17ec16d2e6e1U,
  0xe63757f4d8d42dfdU, 0x4157cc1ddad408ddU, 0x36261401233e1bcbU, 0xd1f40100160ae0ccU,
  0xf11fff122eb214edU, 0xad150aeb4a5f0c81U, 0x40ad200e8a4e4e0U, 0xd073529e6fce40bU,
  0xf3b44bfb19e3fb01U, 0xcdda2f411c49faeaU, 0x2df04138180026d0U, 0x62ed0c4f341fd2d1U,
  0xf92623ef15e4fb37U, 0x9e19fd060ef6eeafU, 0xcaf3edcd09fa3413U, 0x43f2d119601febbdU,
  0xf51fc8183629e705U, 0xc660aac1eddba5fbU, 0x21172424c622b340U, 0x447fbe4d92c0903U,
  0x41fd2afe3305049dU, 0xd6b7f1f9ca12ec19U, 0x6dd3a270c463fcaU, 0x39e1eaec1e1b0af1U,
  0x4629dae9ed0a2512U, 0xd2e7db7f293303f5U, 0xf3e6eed1210ecb2cU, 0x54360a08c4b8f8c9U,
  0x1df800323ef630f6U, 0xd3054603212d090fU, 0xed0208fe4ba84410U, 0xdbfab5bbb1e8f4f5U,
  0xdd25f8f3f5f4d4d6U, 0xf5b8defa3c100104U, 0x2814fed2fdaf1ecfU, 0x10208d0eb0019d0U,
  0xe79e08172ec6fd11U, 0xbed473b183df6U, 0x2f05b2fb4050465U, 0xeb05cf3440fdfd7fU,
  0x1ae811f44afcc2c6U, 0x21fb5cf086ee29feU, 0x16e4dbcad2bdaec3U, 0x280d1881dd16f908U,
  0x161ae72c084c34d2U, 0xe8fcec0fde38fe58U, 0x280cfe124508f4ecU, 0xc51ce5ce2e3cd9d7U,
  0x2dbfd13241fed2eaU, 0xacec07e6d6afeeefU, 0x46c2c7d7d0f3c7c2U, 0xecbb232cd5e00fb5U,
  0xe096cd1558dae8caU, 0xbe1809f73a09d705U, 0xfefbb2032f05c73bU, 0x1e515d92be1fefbU,
  0xf67f1cee223b011bU, 0xdb3d1949eddc262bU, 0xe8df2414a5e1e60dU, 0xefbdf635d10e1701U,
  0xe33a1900f0b20b15U, 0xbef8d335f3d6370bU, 0x10d64704fff7dbfdU, 0xe3fd3adbcc43dd01U,
  0xfe085ef914f2ebf1U, 0xfae0423bf02af2c8U, 0xc5e3a300df28a1bdU, 0x144d375ce11f64e1U,
  0xe4fba22312cd16a8U, 0x40f6d5d7151634b3U, 0x7febc8238dbf1fe6U, 0x43c7d810eb29db61U,
  0xcbfeb1d7d829d12bU, 0xc23a0aaf0d90c05U, 0x3fd2eaef193be54dU, 0xd2f7201501361af6U,
  0x42ccee8a507e709U, 0xdae3d536571a24aaU, 0x2240dc36c743e3d5U, 0x41c3f0f5b41114eeU,
  0x1e41d5f1fc1be71dU, 0xe2f2b7077fe21128U, 0xd8f1d44517e7c7e5U, 0xf3402204d4e1a908U,
  0xc1f5ee24e72af0deU, 0xe9ac42e3e10b1b1fU, 0xee031fec009fa327U, 0xe92716cb213950f4U,
  0x1027f082d23e0e9U, 0xe630d0d471a22b4U, 0xd62312e70c0a23b2U, 0x52c04302efcc15f8U,
  0x5f8a06f98f9d309U, 0x5cf319d322fa24ceU, 0x5032e00fed42060aU, 0xee20b3b1a3a2acaU,
  0xfe3f91de724baafU, 0x24c70f86f53718ccU, 0xd1e50514e208b5dbU, 0x69f113e32827ec3aU,
  0xbd130bcc2a36c8f0U, 0xea9d85c2ef243b8U, 0xc63b1109952b0e39U, 0x5afc9bc3bd2a740U,
  0x44c435244508950fU, 0x4236e2f1fdfb4106U, 0x201e27e2de86d61eU, 0x41e8ead0c8c6d6d6U,
  0xd9a0f1ea0242f2edU, 0xcad3c1b2dc17a24eU, 0xdadf5d5c3ec4e2c3U, 0xcce138d3eece7f08U,
  0x17c5f2f0bca1e019U, 0xf8c8752c1f49680eU, 0xc0ed76d3dd6ee5baU, 0xa0f215f23c0cdb2dU,
  0x6cfb243f28cb152bU, 0x9ff4ef99d30e5f3U, 0x122dade4407ff1e4U, 0x89b35cd8c02dce15U,
  0xee09e1082acf1de1U, 0xd10d00c8f8b3d5c3U, 0xcbe50916080bd528U, 0xc8143a2c06fe015fU,
  0x7f99191e08dfeb0fU, 0xd64b350e223c7cf4U, 0x9fcf8f4eddfe613U, 0x25eeed18f5eabcd4U,
  0x5fef2230c3dbd4f2U, 0xf52d035802090326U, 0xba48160fcacbdcdfU, 0x3b0402de01f6fad4U,
  0x191a51312b38cd19U, 0xf3dee6cbaa50fe22U, 0x5ac3db152bd0c236U, 0x15fee719eed82d0dU,
  0xfcfc382ced5e1d0bU, 0x3be6cf3d2abbcda7U, 0xcd16d70be42db8ddU, 0xe5dc3ce5681a25b6U,
  0xbc062f7c10ebc0eeU, 0xfb28ea24fe10c93aU, 0xa29dd1fd81383f09U, 0x11015a013513ab5cU,
  0x1dd2b6b209274a03U, 0xabc8ec3727d216edU, 0xe75600eee0c3441bU, 0x514c1f40a37dee5U,
  0x2dfefeeff13e12fbU, 0xd1fbd14ac67ff607U, 0xd4cf06d4140ef7f6U, 0xdefc292818711d33U,
  0xecee394698f94235U, 0x16daefa2c61747e6U, 0xb58e02fb05b11e11U, 0x53051ff18decd32U,
  0xb3ebcae331f8ff00U, 0xf9220fe71a10fc08U, 0xec20df1f081b0d13U, 0xe929bbdbc071e4d9U,
  0x3ccd0cf6030dc6deU, 0xd2311c1f0223b4ebU, 0x2e1f35f7c9e8d853U, 0xfa09e3d3d7eb3f0bU,
  0x17222ac51b81ea4fU, 0xfb4069392c3a002eU, 0x38dffe5107aa27c9U, 0xea0f041ca303ddaaU,
  0x2bf2103b32b91002U, 0xece91361363deae2U, 0xca201cf3f00ae3b2U, 0xfee62ce12ef82743U,
  0xfb01fe7a034841f4U, 0x41ebf614bcb003fdU, 0x45910bbcf302b3ccU, 0xef68db0de8b15900U,
  0x40b94068e5222cf5U, 0x48d347041d1227eeU, 0xdd09ee4d3605040bU, 0xa6fdd0ed259c6afU,
  0xf51d52cdd2e562c1U, 0x2da1f0f2e400c02U, 0xd8ed532bf016e17fU, 0x392f4cbd1fedf709U,
  0xfafb473e0515e7d9U, 0xb98120ef0e0f1217U, 0x5301b19b43a747cdU, 0xbad4dcf7c732ec16U,
  0xb154bc25df50bd5U, 0xfcf4f1e007d824e4U, 0xe504e82b1105bd0fU, 0x5405def2a15ff1b4U,
  0xde1cf4cdef41c6fcU, 0xdd131e5826e3e00cU, 0xa7f1279ebdfd35e7U, 0xc22717f1d1080dc5U,
  0x3c0918e54e3f0aceU, 0xfed0dd20c9f2fc5U, 0xe4dc8139e7001eabU, 0xb111a0b8a7051a4cU,
  0xf104fe07f6b83536U, 0x13f0ab2b01c301b6U, 0x52fe0a018dc7bc16U, 0x7dfce2e02e31e2c5U,
  0x2feb4caa210ec214U, 0x341bd64a0f3421efU, 0xf0e80abdee10b502U, 0x4dcee92021cf1cfeU,
  0xf51b9fdffb0b0110U, 0xfdc5bff2e1ea33e8U, 0xf463fb3014c4e8abU, 0xc2231419061b7505U,
  0x27e699fb0f366b29U, 0xd8b6124df2d3e0adU, 0xa3ece89fafd2713U, 0xb6c8deb1f62ce70cU,
  0xb044fec28ebb4105U, 0xd1903f11290fe501U, 0xa30239a6f9a88ca5U, 0xba320121c17f95f6U,
  0x12bb07e3a40aa8a1U, 0x11fbec11d54738f9U, 0x59c7a4490d389ce6U, 0xe743cc4040ba18e8U,
  0xd2cb2d0a7a2d361dU, 0xf9d3cd0aa1e4d905U, 0x461bba23fc0feb12U, 0x23ff1f583226e2c3U,
  0x81edbde8df102128U, 0x35221012a3b252e9U, 0xc907fcd06f2ce44cU, 0x40325eb402f42148U,
  0xb525a16def84d09U, 0xbd0315f9f3b3e3e6U, 0x81fcecf5211b1bc6U, 0x2b18e33926f405b3U,
  0x3327f2ec52ee421dU, 0x2e41f50bf1f61f04U, 0xfbf004e1c2568be5U, 0xe1fcf6d0ead1fa1dU,
  0xc80cedefe8e6dcddU, 0xe1e0df33fd163fb9U, 0x3af33d08090689a9U, 0x17c5460deb27f8f9U,
  0x1f12f3fcf126fbb0U, 0x50f2ff1dd9cdd420U, 0xf1b314f103270ac9U, 0xd95f360e1bd920ffU,
  0xdf43f9ccece2fe29U, 0x22123beedc0bebf6U, 0xdf125fac249e8dbU, 0x7e7e30b2cb946fdU,
  0xcbeeca8168291e01U, 0xfe82449990b2b07U, 0xe518fb020ff40612U, 0x9f5d643172304f6U,
  0x280ce112d8b002e0U, 0xfdf406e0d822d5e8U, 0xce03348d502f706U, 0x260002f8fc0bef1fU,
  0xcf3bfd343c22dd0aU, 0x26fff0cefd1805bfU, 0xf017d6e68105d921U, 0x1306c803e2c1fefaU,
  0xc006fd1f04fcd7eeU, 0xedc501ea131a1edbU, 0x33168e1ffac5daecU, 0xe90cee33b8f712e6U,
  0xe40e8d6f31e2302U, 0xf42ba1d60a1320fcU, 0xfdb443a0007fcfaU, 0x1e448362f380929U,
  0x31387f11b1ddcafdU, 0x159fbfe2ea333504U, 0x5b0602ae441fc3dbU, 0x2f49f841f3f4489bU,
  0x2a2ce6d7d0e8f91fU, 0xebcc24242be52414U, 0x181a39ed30dce04fU, 0x2cd849df1257d0f4U,
  0xd7575332d9b01344U, 0xfeec8f00e3dcffe1U, 0xecbf1614ef0b060cU, 0xf9c5fe0726e5e405U,
  0xff2bfb351b141209U, 0xd81119edebd42337U, 0x12073a05142312dcU, 0xb223fbcdea11810dU,
  0x3fe6e1320813f500U, 0xd6ec0d39faf7d2f9U, 0x105e614ee1ef9f2U, 0x2826f920dbfc3b03U,
  0xf7f9f5dffaee1f19U, 0xe463d8eda7062423U, 0xedfec7520c27112eU, 0xc915810e160243d5U,
  0xc519f90a040809d1U, 0x3500fceb1d0efab3U, 0x4a11f0defb1dfc0eU, 0xfe030dc927ce3815U,
  0x13dad53aea5c59deU, 0xe1e108ece75bf7d6U, 0xd439f3b2333ee002U, 0x32c811d7292e07e9U,
  0xd0cfffe90d3ed016U, 0x1d13ecfb301103fcU, 0x25120fd3370ffbfcU, 0xc23d04b94e2cccU,
  0x5efbe5f71cc90d29U, 0x3409d50cf111160eU, 0xfffa05bdc53f109eU, 0xcc113fac84ba5e6U,
  0xcdebc9f6ce10e2feU, 0x8113fa3f02ba1538U, 0xf7bf2d02d4e0121aU, 0x14e3e8de13b4b9edU,
