/**
  ******************************************************************************
  * @file    network_data_params.c
  * @author  AST Embedded Analytics Research Platform
  * @date    Sat Nov 12 15:35:34 2022
  * @brief   AI Tool Automatic Code Generator for Embedded NN computing
  ******************************************************************************
  * Copyright (c) 2022 STMicroelectronics.
  * All rights reserved.
  *
  * This software is licensed under terms that can be found in the LICENSE file
  * in the root directory of this software component.
  * If no LICENSE file comes with this software, it is provided AS-IS.
  ******************************************************************************
  */

#include "network_data_params.h"


/**  Activations Section  ****************************************************/
ai_handle g_network_activations_table[1 + 2] = {
  AI_HANDLE_PTR(AI_MAGIC_MARKER),
  AI_HANDLE_PTR(NULL),
  AI_HANDLE_PTR(AI_MAGIC_MARKER),
};




/**  Weights Section  ********************************************************/
AI_ALIGNED(32)
const ai_u64 s_network_weights_array_u64[101711] = {
  0x81c1e52e0000007fU, 0xe3f25da2f8dacac2U, 0xff5522e793f64cd5U, 0x2a1c446adfa01d06U,
  0xcc51c40bde7a0817U, 0xfcbc3415efd2c838U, 0x23c8bce8ecdbda10U, 0x45a8c784570c7fb0U,
  0xb41f1561bdbdf94U, 0x2b10f9f0877f5a03U, 0x44c2fb31d8ca71afU, 0xd0c4421b7feded38U,
  0xc72f362ac6490bfbU, 0x6e39ff5203ddb43U, 0xe8f058d99f5bb62cU, 0x38f8851825a604e5U,
  0x1992b9fbead4ad3eU, 0x7f61d413e67f2092U, 0x191cea15d50a21eeU, 0x24f3fd3d02dee2e2U,
  0x6fa061ce790dae3U, 0x29118110f910d006U, 0x21e016ff0be9bf56U, 0x6d41d100ba89811U,
  0xe8ef7fd7f10b00bfU, 0x2ffc030026c9c00dU, 0x1af124eeeb155ef6U, 0xe9d8cc36U,
  0x0U, 0x0U, 0x0U, 0x9d8aa3300000000U,
  0x22813fb7cc4dff2cU, 0xcffa22f9cf7ac060U, 0xfc0d55a3fc3c8d91U, 0x9b131b37b9fef17fU,
  0x31e012597f8113b8U, 0x452d7f7f8a0af560U, 0x8137c3cebbde31cfU, 0xf61892448d0bc1adU,
  0xdfd87f60U, 0x0U, 0x0U, 0x0U,
  0xedfd092b00000000U, 0x6cc77665a137f54U, 0x8a7fdf254881a6abU, 0x7f0fd375a0ff4baeU,
  0xe38dfeecf014c059U, 0x7f1e32ec812a22d0U, 0x8107b31d7a31cf40U, 0xf036a27ffdfbe4ecU,
  0x1af02948303921a6U, 0x81162a1d1a0d027fU, 0x337f0764adde6da3U, 0xb4da147f511b0b29U,
  0x36eb378128223713U, 0x750d01110c682e7cU, 0x1aefd8d633f6814fU, 0x3f74a6c8a11d8103U,
  0x72418109U, 0x0U, 0x0U, 0x0U,
  0x0U, 0x0U, 0x0U, 0x0U,
  0x4bb4408100000000U, 0x81770ebd0d7f936cU, 0x6ccb1ad14b24e7e1U, 0x328bc5e9cbfe0632U,
  0x3332c455f1970f1cU, 0x9dad6ac7f3c8334U, 0x8f231624cd40b281U, 0xd637da81aefdfcc5U,
  0x7fc90b031f83a7e8U, 0x292aeab6e2157f81U, 0xc78181f6652ad1ebU, 0xf07ff5193000ffd1U,
  0x109ca0fe5a2810cU, 0xd046a8bc00625e0U, 0xc0d5fb0d7f81e21cU, 0xb1307f5ef971cb18U,
  0xe53e502f201c0722U, 0x2170b7ce05041285U, 0x189532ccU, 0x0U,
  0x0U, 0x0U, 0x0U, 0x0U,
  0x0U, 0x0U, 0x3513ba1f00000000U, 0xb42af0ebc33d4417U,
  0xdb04172afce8ed7fU, 0xbedf94723fa8115U, 0x507fd0ff343ce405U, 0x75006c0f01f7c37U,
  0x2b381b50a75748aU, 0xece32fe2fad5f437U, 0x7f9fee3e1ef0648U, 0x2134d2e6c07f24ffU,
  0x94f70476570c0227U, 0xc2510c7f3b1e10edU, 0x7819eb04ecd6e883U, 0xd113c8bf502a48c5U,
  0x811deddbe033b781U, 0x16640a782910604bU, 0x3081c3c8c6ce49baU, 0x38dedfec32c7b960U,
  0x1b768140cae4b0faU, 0xec3022838a8d561U, 0xd1b2aaf1e7c3d10aU, 0xd60239f1c8208124U,
  0xed32ce42e2d0d3aU, 0xfbffd26519a27f21U, 0x972281b6ebcdf4d4U, 0x41fdbbf1b90c4b69U,
  0xd026f004fdbc26dcU, 0x1dd5242e08e2d11cU, 0x3cb9cf2642813c15U, 0x7fdb030d161e241cU,
  0x926252efcc0e430aU, 0xd92532f091341b31U, 0x4a971224067ff5bfU, 0x537f54dcffe3082bU,
  0x5e08f61ba2aefde6U, 0x475428fe0b7f3417U, 0xed0199410f3ae44aU, 0xf82ae63707e0e1d3U,
  0x251370bfa3a7f1eU, 0x8f620cfe02f3810U, 0x312d0eaf7fff2cbaU, 0x67ecc381140ae5e0U,
  0xe9a3e5871c183410U, 0xfb46c4c8d3c9119fU, 0xb720d6c37f78dcaaU, 0xd184034846d081d2U,
  0xe4e8eefdce0a9d4bU, 0x8144312d2a32cf3fU, 0xf2944d81c6c8df81U, 0xc6ef08b8eceed070U,
  0x457f3b93251f5cfcU, 0x1525140012e6f4feU, 0x52b6e61c2be64f36U, 0x810b1af719dc1741U,
  0x45ef54b1d647299aU, 0x62bc00f5b50747baU, 0xfdfcef81f7578142U, 0x37fac9c81d530b8dU,
  0xbfb767f2fa03e772U, 0xed17fe81d5620e39U, 0xfbf1e7261340ba4bU, 0xf608ecb7fc3720eeU,
  0xdc240825197fd5d4U, 0xbfe37d7fecba1312U, 0x3775b60157252ef9U, 0xd0c8402bdd2c4243U,
  0xdc09c2c4e9f27fddU, 0x150ba713f71bcc27U, 0xbdec81ba545481fbU, 0x2f2d88fd0b03364dU,
  0xe1c7fc10f00cbd0aU, 0x1d11d18115da220cU, 0x4c7fe4f20b40ed00U, 0x57d974fec8acbfb3U,
  0xfe1ef0d91010b3c7U, 0xbf1781636642cac0U, 0xab18d765d30f24b0U, 0xbeea531084b4cc1cU,
  0xf10dc4e481eac710U, 0xb9a0f6d1197fecd4U, 0x81d7d9f726869b08U, 0xcb22cadb3c42d14eU,
  0x1fc806a93e1623acU, 0xd72848cbdae1949dU, 0xd994311348c87f0aU, 0xc7116cfe82471628U,
  0xe81cf21a7f3f56b5U, 0xb930d7cda87fd2c9U, 0x1404abf3d614fe4cU, 0x31be0a30948112eeU,
  0xfd96a6a0f37079dU, 0x2004e9a37f91c845U, 0xd6402ae44553f247U, 0x74af256f234bbdfU,
  0x26e124b9ce956d81U, 0xf0ee0af03b0f7f02U, 0x1201fee6U, 0x0U,
  0x0U, 0x0U, 0x0U, 0x0U,
  0x0U, 0x0U, 0x0U, 0x0U,
  0x0U, 0x0U, 0x0U, 0x0U,
  0x0U, 0x0U, 0x0U, 0x0U,
  0x0U, 0x0U, 0x0U, 0x0U,
  0x0U, 0x0U, 0x200dd51b00000000U, 0xf5d3e56464fd16cfU,
  0x1d5515f45a558ad0U, 0xd1b7c4bbf2e20944U, 0xec06d1c5ec2620e2U, 0xc057f8151ed32a2U,
  0x4ac57f7ff8190c4fU, 0x103367b681042b62U, 0xf15a34ac15906b81U, 0xd8ae78c3ceac091aU,
  0xde52f58153340426U, 0xf847c5b4a81f161cU, 0x61eefcde6936f506U, 0x81e8b73301d82eeeU,
  0x4df9e1341be4ee02U, 0xf121c3231366db11U, 0x324bdbae183e8181U, 0xf1330515f581f99fU,
  0x7fe64f15022cd685U, 0x450c7781e5f9f97aU, 0x96d809ad61e2a2d5U, 0xd24ae77f10ebdaefU,
  0x10217fd57fba12f2U, 0x7fff3ac4f2be0356U, 0x686479ba10cb1ef2U, 0xd87f7fe301427281U,
  0xc9441712d6813be1U, 0xadc9bdcffa9a1aebU, 0xf23819a4bf81f2c1U, 0xede5f25c53a2e131U,
  0xad4ca6b9ecdca3f0U, 0x32ddcb4759c31914U, 0xd0dc991b26df8151U, 0x650e01f89cb00911U,
  0x811dd4eaff03eafbU, 0xce03bf272ea27feeU, 0xf645ae7a7fde2529U, 0xffa7f3502ca98146U,
  0xeacb7f7f09fff515U, 0x7f7f6e1f7f4a18e7U, 0xee48491211edb83fU, 0x2bec3afc361aa8f0U,
  0xcbceca937f7f1036U, 0x394a1572157f232dU, 0x7f8104f57febd5bdU, 0x3bf17ff3af7f7f81U,
  0x107f1865c6c94e03U, 0xea811fddf5a5127fU, 0xe98150472df88149U, 0x1e341f37510ebb8U,
  0x6e6406e1291d3127U, 0xee3ee266c03624fdU, 0xe9c21c441027d93cU, 0x580e37077ffc53a2U,
  0xecb7497fU, 0x0U, 0x0U, 0x0U,
  0x0U, 0x0U, 0x0U, 0x0U,
  0x0U, 0x0U, 0x0U, 0x0U,
  0x0U, 0x0U, 0x0U, 0x0U,
  0x0U, 0x0U, 0x0U, 0x0U,
  0x0U, 0x0U, 0x0U, 0x0U,
  0x1b2758d700000000U, 0xe2493af9f631cb1bU, 0x45b114d946fe33adU, 0x7ffef4b362ec18efU,
  0xbe923e04efcd4e6U, 0x291e0cddce2bfd44U, 0xc11de13e123d0cd4U, 0xf01c6e01f3c7e3eaU,
  0xdf37fe567f1bbaeeU, 0xd3fd0ed9f5fd1710U, 0x1c08b745e409e501U, 0x14cb1fb7bd381dd0U,
  0xff240af4ca3cbf17U, 0x710da157ff616e5U, 0xec1a9906d80610f6U, 0xdf49efef23ecc622U,
  0x25be00fd09f302e2U, 0xd5fa30f11b0b0912U, 0x2f24d33a0315dc33U, 0xd5e89f231f3e2818U,
  0xdcb8fe28e518fd5dU, 0x2f0911fce5bd6708U, 0x1031c6010481cddfU, 0x135d2eea0f11d3ffU,
  0x37f013a62025d0f1U, 0xf278b7f4332e8f20U, 0xe4f1bdab32dc482bU, 0xf9df0bfaae3bb239U,
  0x3f7e187675db3d27U, 0x4781441a28fc31c8U, 0x50b1d0ffcfe58e2U, 0x13f47ff3c5910636U,
  0x959dbdd1c52e8c2U, 0x4d0ed33329e29c41U, 0xa1c3a3669fdcab0cU, 0xa04131450503ddedU,
  0x7edf9e9191b03bbU, 0x2003e3c68c986000U, 0xbf83e0ad64c3dd5bU, 0x218438f4dd45b2fcU,
  0xdcb448cb16c82d6cU, 0x8160d53e0308bbffU, 0x3d1335ba12ec53a8U, 0x3eac50d9d39e3942U,
  0x9dcae6e0dc12d0bfU, 0x1e60be684f090dc2U, 0xbb7fb036220f4806U, 0x2aedc996be2c211aU,
  0x12effae7f8fb309bU, 0xba45d2e2c9f512faU, 0xcc9d282ae5c49a0dU, 0x1700067afbed0dffU,
  0xdde2bc9d81f13eabU, 0xb0df5101be46d0d3U, 0xaed0de11afd9fcd6U, 0x431eaade0d894521U,
  0x16d924c6490aeecdU, 0xdbb63de51481b61cU, 0x729031d0712eb13U, 0xe6b029ef40e007f6U,
  0xff38fd29c01801f3U, 0x160b0726e9ccffe9U, 0xeefee2c4ca0a25b4U, 0xb1af9eda6d7db37U,
  0xd2f83328e2420930U, 0xdb65f612d5d9c521U, 0x190a01f47f373240U, 0x94ed43be3ef1c4e9U,
  0x2f9a9e105c843c7U, 0x736aeca556e03ddU, 0xfff7e2ed8fcd91aeU, 0x4ec3dcbbfac8caf0U,
  0x321681b6e281de16U, 0xfc0304e1faf50522U, 0xf5f0e903d71d5aU, 0xd4cc1401f9381402U,
  0xdaf4462e0001e710U, 0xb6bcc0dcd82f39e8U, 0x7faeefc3ebd6e4faU, 0x730d32cacdaf636U,
  0x9edc3028be22dfe9U, 0xd4736ce5b19c724U, 0xb4cb6c849ffcf37U, 0xedeee7d30cf3255cU,
  0x7af563c467b1a47U, 0x7ffe29060150fcdbU, 0xf2f3ae0e0eeb17fcU, 0x2de615cecc10befdU,
  0x20518e8a706c113U, 0x36fd0605143c1a2cU, 0xfcd5b1dd02f411dfU, 0xc07be0d16e2d30bU,
  0xd5502ddef3051216U, 0xa84f1520b4e07f26U, 0xf6a81434134308f8U, 0xc1112fbee24cdedcU,
  0x340ee2efd6fe0af4U, 0xd207f0a81af2d52cU, 0x1ae21559fa50d72cU, 0x1151ff346cf28155U,
  0xf22c15e01907fc13U, 0xddc421ec27f5ec16U, 0x81e4549fe1c3e1bdU, 0x8591312a166a8d5U,
  0xe62756df26e2cdb4U, 0xdee82a3ffaa739d9U, 0xd3fa22d79ec117c4U, 0xb0170355f327b255U,
  0xbe360a0a2defecdfU, 0x2ac71cb6effbef0bU, 0x161d147b319a00e7U, 0x5015d8f7e45a33ffU,
  0xc4282c31057f9a31U, 0x3bdf0a43b4e7f9c2U, 0x6e8db0de5c133d5U, 0xe90b46052bf5e2e6U,
  0xb21d7f9c220d5dcU, 0xd4e142fb5a3df7f8U, 0xd97b37fc1e1e070cU, 0x1c822ec12b43c0fU,
  0xa6d42f340d81eb18U, 0x64fca9e29464c5c9U, 0xfb277461ce08bcbcU, 0x45f0c22809cc4a16U,
  0x19484aef8100d7dbU, 0xc9a20d12e1b22b2fU, 0x4032244c1be062ebU, 0x14efe7fcf0f41e4bU,
  0x53161f01b89d5a01U, 0xdf4e044b0cfa14daU, 0xd229123d200aa764U, 0x2fac242f47feecaU,
  0x425f1ebe2ef19f8U, 0xf5d981d4ee2004faU, 0x2513a83705e6fbecU, 0xf40104bde8fcc2ddU,
  0x2612fefb06012803U, 0xa29a80d2a11d0f4U, 0xd636e828fefc031eU, 0x6fc93cdfa7b7f01bU,
  0x59763f1412cf0206U, 0x40fa49f3680deb4fU, 0x7f561d55f704cc45U, 0x6ec522b1a16161dU,
  0x2fcebdf7fa4e3134U, 0xcd2d30f237aff981U, 0x12f1f4ecdfd9e510U, 0x35caee09ea0ed5b4U,
  0x4d51d5661785e78fU, 0x2418d7b5ef4c53d0U, 0x3eb03f9e50218aaU, 0x22b1eb3a163ffed1U,
  0xad1f1f846ecc4d4U, 0xf71b06ebd613c643U, 0xfc20e681b206d7e5U, 0x1318c80011e2d834U,
  0xd0001c37032327e0U, 0xfd145ccc45c381e5U, 0x791cba01bcfd3ec7U, 0xebdff109f23a41eeU,
  0x2d45d238ec99bd0fU, 0xdb3a5b02195a320dU, 0xffded3ec0b1b2241U, 0x2803d0ee25c3ac8bU,
  0xebfc7fd7a4db1f22U, 0xe442f39efd54ebccU, 0xc8f52a1016323538U, 0x2effefe36ab91c1U,
  0x2bcb03dfa1d5d70bU, 0xeffd47a6e2ec6b26U, 0xa2faf4e6f5ea1bddU, 0xdf9949c305d4f90dU,
  0xe1b2b603994b32ffU, 0xe13b102bd0dff214U, 0x39a503f7317f39d1U, 0xf17dbf2095c256dU,
  0xeee536237f052507U, 0x14ebb090df31528U, 0xbef52138f0f0d6ffU, 0xf40122fa4e92bd21U,
  0xe34ce83825d316daU, 0xe9b4edebcee11036U, 0x23fb920170c381fU, 0x14152439e712c710U,
  0xf7110cc41339f125U, 0xfe38e18cbd1b3b81U, 0x1811e2073eed3111U, 0x1e191ac8060e0d19U,
  0x2f1d5317fe8e415U, 0xdafdeadb0225180cU, 0xf5d92a3e0f08e228U, 0x17cfc21af61bd416U,
  0x94ee04f011e80001U, 0xdc1a16882239a063U, 0x814addaeea1c3111U, 0xc8fc3075202f9fcU,
  0x8a5223f35e38d5ffU, 0x18cfebdd69540c0dU, 0xf581504033b2ff2dU, 0x2bdef47dfe793759U,
  0x61cb73331498581bU, 0xc9f542df592814eeU, 0x56d24e7ff108c536U, 0xc701e13f73fe0254U,
  0xcbd6e610436fb165U, 0xee3cefdccc04d50bU, 0xf5f6fd10eeda1be5U, 0xf9f4032d00c3e91fU,
  0x4e371167cee1f7d0U, 0x131e2305ebf2e3ceU, 0xb515af072cfff67fU, 0xd103f381acd66101U,
  0x34ed29f889f2e3e9U, 0x5b1114eed1b132bU, 0x18101e1aeae8aa40U, 0x38493130cbf319d4U,
  0x7fc4d508f3a22ed0U, 0x15ebf35f0ca69be4U, 0xc72539230fc9c8c5U, 0x12fcfb3921bfc13dU,
  0xbcd0bfdd0ea15f2U, 0xe2ef2e14091e221bU, 0x2efdc1ed172f06e4U, 0x42ded92018232ff9U,
  0x2eaadf2202d6f41eU, 0x1183dd001d9cf12U, 0xe1360a37fdd4ebf7U, 0xd4e6c3ff052be4e8U,
  0x3dfce36bde0181fbU, 0x2cc2091503d2db36U, 0x8c3bb8360e0108fcU, 0xceffd166981111b8U,
  0xc70dc2816bdf0c35U, 0x330d30d04d1635f4U, 0x2b0238532848d4e3U, 0x2d08ad2331c8dfe7U,
  0x12e1d6e2f31d2c37U, 0xebf0dcbbddad0335U, 0x10362af7b723f907U, 0x3103dc7e8151e230U,
  0x340435f4f619f7f2U, 0xcc8160d50f03eef2U, 0xce3567eec2edec1U, 0x3c3cf7d907d901e6U,
  0x2d093dedd92ea306U, 0xeeab2f544df007fdU, 0x71e331982318db70U, 0x2463acf040d9e0e7U,
  0xf6dafc30fcd00666U, 0x7f94f5ddf8f5feb6U, 0x20ecf20820343203U, 0x2c2541f0d09f4b6U,
  0x164f4ec75053551bU, 0x112cfec70bc9dc25U, 0xef181bfb2efaf549U, 0x282fccfcc6d45034U,
  0xda07b5b17ff2af07U, 0xe93740e6f8baf4f0U, 0xf52e314259b34eaU, 0x360be94db724f1baU,
  0xb92cc9570d21d701U, 0x2ee87feae6f0da16U, 0xffe6000fcff7ec38U, 0xfec8def3d51df5e6U,
  0x3bb6f427cbb14531U, 0xce668900289f497fU, 0x455c36fad50cf8a3U, 0xcdb1670113ff4e6U,
  0x2b67970a3be9384eU, 0x362c842ac7fd81ceU, 0x3d4dca1d4b4a63f1U, 0xd8c87ffa233513c2U,
  0xe0cca208042cf529U, 0xf2e41b3f04eab80fU, 0xe3270f0000113af9U, 0xce0915ed74bbf3f2U,
  0xbff147ef2ec013c1U, 0xfbffd3b98109de34U, 0x2fbe9ffcd511bce1U, 0x3d1eab092d28bd3cU,
  0xfd47f7f319d3f61bU, 0x34f2201df841270eU, 0x10d20ae40908c326U, 0xec64ef5a08d3dd1cU,
  0xdf7fdf153bddefbfU, 0xe0c6f0f426ddf113U, 0xce0939cf24e4daf8U, 0xf2dc00166c1bf311U,
  0xeecaf017U, 0x0U, 0x0U, 0x0U,
  0x0U, 0x0U, 0x0U, 0x0U,
  0x0U, 0x0U, 0x0U, 0x0U,
  0x0U, 0x0U, 0x0U, 0x0U,
  0x0U, 0x0U, 0x0U, 0x0U,
  0x0U, 0x0U, 0x0U, 0x0U,
  0xe562e3c900000000U, 0xf01ad2bbe976ea81U, 0x65d5bec10a02ae06U, 0xe011ee23812981aaU,
  0xa13fc3e42081b506U, 0x24a71115d981dbbbU, 0xee04f3dd7745f02aU, 0x13f823ddca4ab617U,
  0x2ee807f92bb5a893U, 0xd21622b3500023d2U, 0x2f00e629e92bff61U, 0xcecd11febacb2a02U,
  0x7fe8ef9d57180873U, 0x2f94e42120eae46U, 0xefe212ee86f57858U, 0x120305ecccde7c7fU,
  0x1de8567f04e67f7fU, 0xa57fdb1179b7b202U, 0xb4cadce20ecfd4c8U, 0xc6c6e0070eedf6e6U,
  0xabbdb27f0bdbe106U, 0x7ffaa246cfd5dd02U, 0x9b19d0dfb138e006U, 0x952f1ceed2142f9fU,
  0xd7ccfac57eef1921U, 0xecdeb6c1dcecdefdU, 0xcf372a290dd1a0d5U, 0x22ea638103e81cf9U,
  0x3cb409d700f40aaaU, 0xfe4509d1223b0f4aU, 0xb91008818323cac8U, 0x5d0ff5de56bfde0cU,
  0xe0cf341e007ed82dU, 0xce63b9bfce630fdU, 0x4a19d05d2663220bU, 0x3c2c48dbdce2d3e6U,
  0xdaa82b5b0ef78162U, 0xe5f7cd92ba5d81e4U, 0xe28cccb20e4be07U, 0x76b521db4fea1d0aU,
  0x2b10bf53c5a5be0bU, 0xbe3537022fa2cddcU, 0x20e84ad8be0fc3f1U, 0xd217c8dd81b9e5f1U,
  0x882bc39c21c3190bU, 0xb97f08c05326e3e2U, 0xc3f806287f2f4c3dU, 0x7f24f813f8ff0781U,
  0x1ebdafea0995e5e8U, 0xd335a60e258e1e19U, 0x17bd4cba2d6e0bc6U, 0x9032af8281727bcU,
  0x461601cb000212bfU, 0x2d227f49f3a1ee11U, 0xe52c7f0ddadc2523U, 0xeda7fa0c93dc169U,
  0xd3e7dd23ffeadc01U, 0xe010f7f8f42018daU, 0x2fbdc6e32abfe0abU, 0xe323cf47f7c520d9U,
  0xd1ecc71f7f02ed81U, 0x10d310a8fa4d3023U, 0x1ddeb3d9fca1514U, 0x28c2c728a70ad815U,
  0x33e3fbcf30369504U, 0xbc163fe71c23ea18U, 0xd2e151459d3a760fU, 0xe4f3f24e66f71e3aU,
  0xcc274dc07fcd36daU, 0xe4372d3ffb0c382dU, 0x2dffe95a101c22dcU, 0xfea2e7de69224bc6U,
  0xc2e03fd9047fd8eaU, 0x2d09d3b09cd8ea1eU, 0x53df54b902f174f7U, 0x16ec42822f415f7U,
  0xd022430ec1c6abd0U, 0xfa07cfd0fa1cf4f0U, 0x2f3c1810e437bc13U, 0x27d66375079cdbfbU,
  0x3445fdb5e0cc47fU, 0xed50e8a9f1d96606U, 0xf7ebc72d467cd453U, 0x2e4062e03e0c12eU,
  0x2df93ffc4197c3d2U, 0xdfce7d4f2381f2eeU, 0x9d5f86d1cf1db37U, 0x3d0fcc2c5c0c1b05U,
  0x9a22ca1c3c112909U, 0x2c38d5c4081281a7U, 0xd77bd40c0a00d9b4U, 0x283722902d2ab601U,
  0x44f812b00705159cU, 0x254edeb3ef0bead7U, 0xff0de6226139e401U, 0xfc3d42047fca9cebU,
  0xdef50624d664e0c1U, 0x2f10f80549f0cee7U, 0xb7cd2bc89294433dU, 0xd227980eca10e6cbU,
  0xca6ebf33ad531e9U, 0x2e4c081646137d8U, 0x747f3cfe8cedefd9U, 0x7f220602a346e740U,
  0x99ece94e0e5aff38U, 0xddadf4c832f032eeU, 0xb167fce4711def0U, 0xe9c4f60a9f19cfedU,
  0xe2b8b53822e7e7c3U, 0x5cf1450816a159e6U, 0x220494dae0e2236dU, 0xf3192bd8ba2e10f6U,
  0x81540230d05f40f5U, 0xeed6cdcec3293bd1U, 0xbbc8290219341b1fU, 0xcada7a7f2ced2d0dU,
  0xda3f2e3baf750130U, 0x82fd7f83edd68b29U, 0x3ce919a94cfd03eaU, 0xe0fcf8e5ec7aeae6U,
  0x12f60100ec82d6edU, 0xe32f8e9ff11ff1e3U, 0xd20e7fed051ee35bU, 0x15ac0827fe350528U,
  0xed2e2dabfe08260cU, 0x23f20b28cc9ffa4bU, 0x1cb1906a4433ee7U, 0xa85d309be225f5cfU,
  0x681a412bc98ecf7U, 0x49ae2d1e2fef251dU, 0xb27fdfcaa85b189aU, 0x59ee1ff0d350cef8U,
  0x52b3f00399e4cb08U, 0xc0814bb423c1dfe8U, 0x7f52d3b534ca2315U, 0xe8f191cef8ac00fbU,
  0x40df3bd62d26142dU, 0xfb8b7d091cde40eU, 0xe4c30d2d9d17be39U, 0xce52dc4ea34ca08U,
  0x9029ec311d7f18e0U, 0xfd01ec4c1f088ed1U, 0x3b1624453789f8c4U, 0x4fdfdbb4d849eeecU,
  0xdf3dfa00ee4ec1fU, 0xb40862fda2f2356dU, 0x99d7b57100d27f58U, 0xb647084cd27ffa03U,
  0x2626006ccd5b3aeeU, 0xc523e8e3e30a3fd2U, 0xe4cbffe1U, 0x0U,
  0x0U, 0x0U, 0x0U, 0x0U,
  0x0U, 0x0U, 0x0U, 0x0U,
  0x0U, 0x0U, 0x0U, 0x0U,
  0x0U, 0x0U, 0x0U, 0x0U,
  0x0U, 0x0U, 0x0U, 0x0U,
  0x0U, 0x0U, 0xb8c32b5900000000U, 0xb10ee81fad304bdU,
  0xc6a3abd4be063925U, 0xe6f266d63d11331fU, 0x32c5d3fcec1fd544U, 0x15dfefb6ea12291eU,
  0xaeeb1133dfdd511aU, 0xfaffe51b0342fb4cU, 0x5ad58f2303da537fU, 0xfffac101a9445346U,
  0xb5cdbdfff633acaU, 0x827d3cb3d8e7df0fU, 0xb9da353ce9f3dffaU, 0x15e9d6b2d1e7d328U,
  0xbafc38ee0fe92a28U, 0xf80f4b24e4dac60aU, 0x217f17d73c08eef5U, 0x49c8713b1d3c0aaaU,
  0x962f3270dffd5e6U, 0xdf3b44d03bb2ffdcU, 0x1aa2a02eda31f2bcU, 0x15ef18b3c86f4613U,
  0x36f319b2254f10d9U, 0x13ec210cd2c4cee8U, 0x10adf6ed587f3838U, 0x3489f92cd80b4ceaU,
  0x116337b918ed9a56U, 0xf321b1b914f7c267U, 0xfd3bc13dd8dbff0dU, 0x4cb01452885b7fdcU,
  0xfbf1edecf52b9c08U, 0x1a3c0023e8eaf7feU, 0x31cfec2bd7a72621U, 0xdc1ae3fa1a35f3fbU,
  0x7eb067f391ebc0dU, 0xe6bc0b0711fefbf8U, 0xf2282f41031bfbfbU, 0x2e85e64022dd2e0U,
  0x20054bfc5d05187fU, 0x5016152abdcae885U, 0xcea1b00cbf2dede5U, 0x3e102a271ac30dfaU,
  0xf0c7fda7f9f34d98U, 0xf12cea33d8f0bcc4U, 0x7c01dc4ad37f62bU, 0x4f0f7af0bebfbf5U,
  0x36aa703aecfff3b9U, 0xec4cc04e106d2989U, 0x27fb21281ed245dU, 0xbe6c2d3f5d4f0e5U,
  0xbd21e009f52fc9c1U, 0x2408b23812e5efU, 0xcd89ebeee3fe2307U, 0xda06eeca4dc000c4U,
  0x13ca3981fc2df233U, 0xb7ecd9faeb179febU, 0x284c360f35c3cfb3U, 0x6421c9c54de7f5d1U,
  0xf1c6032c3928299eU, 0xd552a5ecfbf4d7faU, 0xf2129dd908fcccU, 0xe281f4dd2c1568dbU,
  0x9ec8e6c62be90079U, 0x10fc091852231d0aU, 0x41223226c93b2b03U, 0x13dfffddee3d37c4U,
  0x2ee0fdce00cfaf0aU, 0xf7ecf2fd75e9f511U, 0xcdba22262981410fU, 0x5100ff15fd04f41fU,
  0xc8ddf614a2111006U, 0x1b36fc32024ee63dU, 0xc0d15ef582035efU, 0xfeff0c72cecd23aU,
  0x1edc387ff214200eU, 0xcb58fa8f7ea8306aU, 0xb0d5e25e61ac1af2U, 0xbdd8265d77dc293dU,
  0x283381ecfa071458U, 0xcae51166f01b43cdU, 0xfbbedb28680d2a17U, 0xe229a2a5de1c39ddU,
  0xcdc5fb00081731eeU, 0xeee6f12c10362cefU, 0x1ce8d191c96804e4U, 0xe7fb1e2e136c2b77U,
  0x19a7aaf0f30703c9U, 0xfcb7075b4268047fU, 0xbabef90eeaffabc3U, 0x1be0e2f0de6dde10U,
  0xf259082ef3e5f18cU, 0x1f8dc81f5fb09e6U, 0xe4e90cea712febfcU, 0x16f4d591f00a0ffcU,
  0x5c361b098cc159f1U, 0x18672e044a3b4f31U, 0xecfa2b25U, 0x0U,
  0x0U, 0x0U, 0x0U, 0x0U,
  0x0U, 0x0U, 0xe814f0400000000U, 0x110dc4f1a9c0bd3aU,
  0x724c181bedf9a320U, 0xe339e6dd277fb111U, 0x493d32204924a720U, 0x8bd04d55c7eafa60U,
  0x5e7f005097fe7f33U, 0xd10b154ccad4c1abU, 0x7a12d9ec2e1bed45U, 0x707e50bdd0edcf0U,
  0xd8fe26d406c60f7fU, 0xe1aee810e21e6c5U, 0xbb2deb340e090e16U, 0xf8fe190c2ae98159U,
  0xa7e39e000cd00b01U, 0x2948adf4ebb24e81U, 0x253a25e59a1cf8b2U, 0xe4bebe81490798ecU,
  0xf9deac532612fb9eU, 0xe7da1df0f8e0017fU, 0xe1130c22c853b154U, 0x2412b6557f19fdbaU,
  0xc93bf84fd2cd2345U, 0x281cfe920fefbd0U, 0x693f0322101f0c06U, 0x6f207f464f1b6e92U,
  0x6c1e085aafb3be58U, 0xeb980d51e03a8138U, 0xdde20efdbc438ab4U, 0x40ce379f107f20f3U,
  0x9eefaddcbef2208U, 0xe4a00030e4928107U, 0x2c38d08fe600edd2U, 0xc1037f1ba4f90322U,
  0xab0242e00d08f0fdU, 0xcb04481b0701ef2fU, 0x733afec90781c6b3U, 0xdc7464457f0b0fd9U,
  0xfe8125f6d6fa9119U, 0x4eb01eaecda2202U, 0x8403e6f439e9e137U, 0xcabb6bfb86ed9a1cU,
  0xd5fadbd1eb097fbbU, 0x7f7114086d3da30cU, 0xc3e0a6fbea21f8f6U, 0x2f7f1341855175cfU,
  0x251d3f1b40f4b21aU, 0x19f20cc75b37424aU, 0x4b401f06de81c947U, 0x36591a3ccf2b7fe1U,
  0x81cc0ad5c5ade1adU, 0xbac6fb084733351eU, 0x325f29399fe6c2aU, 0x2024f73281dfbc57U,
  0x3fe01f75ea3512fdU, 0x7421ad50bffdfc7fU, 0x7fdb0df71e6f1eb1U, 0xfefc1115f90523d6U,
  0xe00aebfdf6f824e4U, 0x7fe9981ec8f29f46U, 0xe4be8157094fb7aeU, 0xed000b1309a5dfbcU,
  0xf004e4ff271e2031U, 0x81ba17ef2ff8e6e8U, 0x17fa1da625e508f7U, 0x7f7bf8c8b01b06fcU,
  0x9d2a5a73460ba7e2U, 0x10712efed8bdf748U, 0x9bf7e8e3fdf90781U, 0x4414a3c617b83b98U,
  0xdde5c7e73da1814fU, 0x79e1b2819bfe046fU, 0xdf090c7fd798e1c1U, 0xe408f71732f932deU,
  0xe227a835e4237ac8U, 0xea45c7ebd4b2fd90U, 0xb981e450c516557fU, 0xe4d68f739dbc0c2U,
  0xaf78f8c3651b5255U, 0xec92cab0f0fe707fU, 0x320675cb0f92fc7U, 0x2388f6c1a0f3497fU,
  0xed46811ef22c9909U, 0xd0207755dbda3e62U, 0xd8f4313ec7a92db2U, 0x10dd7fe409dabb0dU,
  0x11907811a32edeeU, 0x2db9571f37e8292cU, 0x16b37f84d0c8a324U, 0xd5ebd308f5303841U,
  0x31ff16a539aaea25U, 0xb67fb7d599f769fcU, 0x8c362a99e69f94ddU, 0xb10f95539006590cU,
  0x782de3bfe681ef20U, 0x2c815e5df39ca739U, 0x5e67a202116d072U, 0x8bd8d9007fb3d40U,
  0x6916ab00577ef98U, 0x4cf7530053e7c10U, 0x90516400505a6d0U, 0x67968a00771c410U,
  0x8ae220005713618U, 0x64c93f80ae744c0U, 0x66dec8007bbbc30U, 0x4d41f700769f6c0U,
  0x77de930037d8fc8U, 0x5e6606808b7eed0U, 0x4cf4710046e62c8U, 0x6b0d660074cd160U,
  0x4b58070093dd360U, 0x5302a9005e79f20U, 0x557a5000398f2bcU, 0x941c9e007e76250U,
  0x48c1830080c8530U, 0x9fe68a005e27b80U, 0x6fe4c900792eef8U, 0x71198e006dc0150U,
  0x5f33e480649ab68U, 0x897cd000c34cf80U, 0xc91e64090895bc70U, 0xf3a8ecadcbeafe42U,
  0xbbeef82f118e90fcU, 0x3a8c81e6e7df151dU, 0xad1d30e1eadba628U, 0x45f2ce1d377ae8caU,
  0xc31ce9dd1bfdf8ffU, 0xd32af1e2e72a55c1U, 0xcb19e5bb0f2165f1U, 0xb2acd94793f9fd05U,
  0xd8e82edea5290533U, 0x108128325d9fc7feU, 0xd4c1be2d2474b123U, 0xd1f3bb33f4e2fa10U,
  0xe83d0ef079bf4cfeU, 0x7f39c12106ece4dfU, 0xcdfceada30ac4828U, 0xefc310080f343ed8U,
  0x110ae732b7da34e6U, 0x5bd00ae21953e803U, 0x7fd4c33216cd1a79U, 0x1a29052f24220bfcU,
  0xee14f3fdc014b3f9U, 0x26c0041e2c1fce1cU, 0x6d9de13d0ec0c31U, 0x27f7141744ee1feeU,
  0xf7fd3110e73daf25U, 0xc00639120e9be945U, 0x2e518ff3d23ec81U, 0xc7e93903b158ea11U,
  0x15fa444dcfe1c635U, 0x2fc9e46c0c341d18U, 0xd90a31c00be7a981U, 0xacddc32d502be60eU,
  0x115446fcee0a0827U, 0xd2c913d7750a3a12U, 0x44f0e2fe25b25421U, 0xc98703d515c2a1d2U,
  0x91e8a47101df0a9U, 0x6b108136c16870ddU, 0xcfd72414e1261fedU, 0xdd2a8f933160f20U,
  0xebd6231329574721U, 0x8facf8d2020cf1f6U, 0xfcff3d67085c0a55U, 0x170b6f04331a7fd9U,
  0xe6a534e3e4b92237U, 0x33f826c4f1f4d6f6U, 0xae65d1eda8041797U, 0xb227f4d1d6039dfaU,
  0x11e22797f5f4dd08U, 0x40151206dff1c838U, 0x19e1f73e60c64ee7U, 0x4a5ee98114a6d1d1U,
  0xe0e9fb20bb346f04U, 0xf2f8f3fb22ae92e5U, 0x29e50a5a54c6ea87U, 0x6829c9e6ef0d36d7U,
  0x7f03d4ee106aaf08U, 0xb617ccdd02f7db19U, 0xe3ff310ae37d56b3U, 0xd9162b0ad1b2231cU,
  0x4e23e6f6d40fd028U, 0xaae6f228071cea81U, 0xe406285a0407ea0eU, 0x3ec33d2d1debf4f2U,
  0xe72b50d8edf211c4U, 0xc7e623f81ee42d08U, 0xf21bf414fad37fe6U, 0x3b14efe9cb183fceU,
  0x260715fa22faf71aU, 0x20b906e0f6e5f942U, 0xd4500613e50421e2U, 0x90c5a7e0341e26afU,
  0x15afda7f8b0126e7U, 0x1d02caa93b0dd9d4U, 0xf8d49f57bc03c122U, 0xd88e35e81e73f3afU,
  0x211f80b9212cec4U, 0x4d4653e02048fcf1U, 0x1c27c297aafdcea2U, 0xd9f0d3259cfcb3eaU,
  0x12051400e31a1214U, 0xc8d0ef3b2a411103U, 0xd921bd73da81e47dU, 0x140ae1ff4387f33eU,
  0xfdb73d36b61cacdaU, 0x1af2fb05071027daU, 0x1628138108fe010bU, 0xe516ae172f3009cdU,
  0x9abcfdbdbd28acd7U, 0xda770c46d2614d72U, 0xd030ab21d806e0f4U, 0xc0dc13fbf41515cdU,
  0xaa0a3f0f83f9df4eU, 0x48ccefc238438481U, 0xef31c2b7489f0116U, 0x1d33c02a020cf427U,
  0x7fdfbcf7e89e21f1U, 0xc815db1f67dfecb6U, 0x47b3ccd1dab408beU, 0xe200e916ece534c9U,
  0xc5da49f3fa10ceddU, 0xf9e81d2be809dc20U, 0xdbf9e92a6d1e07c0U, 0xde18c5030b93ced5U,
  0x11b5a9093bf638d3U, 0x9e0b7a0d02368e63U, 0xdaf81beb814715f7U, 0x87f153246614b1bU,
  0x5627420db61a1027U, 0xf5c07b6fac5d9f6U, 0x15f0d3d66bed18c0U, 0x1fccecd7b9d1e495U,
  0xced7cf240dc9c8d9U, 0xa13dcf17e000f633U, 0xaf9255ef9ac93ebU, 0xdd310131ae36e8faU,
  0x8affe07f2b201014U, 0xef06e5f831273cb1U, 0x9ecce41df8ebde4fU, 0x24ff2fd035d5d917U,
  0xdff4ed45000f4ddbU, 0x2fe7241a20ccebb4U, 0x12b5fad9db2ac7c9U, 0x1200b2cd707f07fcU,
  0xb50a0ef711ec12ffU, 0xfdc2140007d0a663U, 0xece55381e75206e7U, 0xafc3bf6dea041e2U,
  0xfe61fc30818ff62U, 0xafc3892fbbf7cde9U, 0x7f1dc130b72ecfe7U, 0x1dede3cf271748e4U,
  0xf9a217055e0cf8f8U, 0xfd27f91dd2e6d7a7U, 0xe616149dc113ff0aU, 0xfd2d1cd026c6fe36U,
  0x15b4abedc13902d7U, 0x42f92811e2149e7fU, 0xcd20795fe21f031U, 0x6571d768a322f0aU,
  0x331b10ed330c34f7U, 0xe3c2ec25d763ef12U, 0xa9730c7817e2e6fbU, 0x4ed7e5927f221102U,
  0xdce7e9fed4baf6b9U, 0xd2fcff2ae4fc31d7U, 0x235dc10e6df911faU, 0xbc10cb3a1c05bb9aU,
  0xc750a70bddcb157dU, 0xb03e62ca17400814U, 0xebe9d12f51273046U, 0x4e2fe2e5c4bafeU,
  0x3eb9b3333f9fc2efU, 0x30fae33b4730cefaU, 0x42fa943896c17ff7U, 0xa72de511f4b7990fU,
  0xd31fcd1701091ffaU, 0x5c4915ee0fed2e5dU, 0xd654ceb9fef82002U, 0xd543c26d3df00b47U,
  0xc51abdf1d8f881d5U, 0xe7c8b8c6b40db2f5U, 0xf4d20e0a6bbc83f6U, 0x191f0a265ddb4691U,
  0xc8eae2d73be43ee6U, 0x55326804efe07fffU, 0x2b1ec70c3028f2U, 0xbb1738ec1a3e690aU,
  0x9dfe7d02b1430f6U, 0x4eb1a2defc9da40U, 0x1e4a00f73f16fbf1U, 0x3d4ddbc0701ba7fU,
  0xf40ee621ee3d1806U, 0x7fe627180f2acffcU, 0x2d3111908f12fe5U, 0xce11ef062837c8e1U,
  0x3edecf0c4a35f122U, 0xd0c82425f3cdda16U, 0x207ed4d0c0c1119U, 0xfb12da03fdf32faeU,
  0xe7e22f400f19a8c8U, 0x81f9c63f001f3e9dU, 0xb70194e0b1f9d3ebU, 0xecb1befafef13bU,
  0xfa09921ff8a9edd7U, 0x3e06ea212b067fc5U, 0xe235290903ba0adfU, 0xef28204ceac55745U,
  0x20d9b305f30d0b8U, 0xb92a0b14d3143ae0U, 0xebf4fdaeb9680aefU, 0xaeebec62da2fe6c7U,
  0xc8c31d220a3473b0U, 0xe9be311aa61023b3U, 0xccd37fda13ea21e9U, 0xf3f93052405b15e6U,
  0x63b84a16adcd2687U, 0xf254cc62eb07dd12U, 0xa411f24a1d2a37e8U, 0x91354505a287fdeU,
  0x1c042ef7c6b0c3efU, 0xfbc0e2f5add042e9U, 0xc104f4f3075c2719U, 0x9124b21f0c4fc26U,
  0x4eeef35fdcee27fU, 0x35e80f0f373ec7eeU, 0xfd352dd5e61adf49U, 0xf7b4d70d0bedfc0eU,
  0x336cae079f460c30U, 0x1156f96c3dc1ebc6U, 0x4f27a224b6e6ff03U, 0xb470ff70b98158c0U,
  0xfde0d0d377d19350U, 0x41f831a72dff35e5U, 0x4d1ef3248b4ddb8U, 0x5240ea152d1ef820U,
  0x14fb31044881abfeU, 0xc2ef09f706d1cb74U, 0xfd0b98fa3f010134U, 0xc9099e3b5d4b22deU,
  0xf9e836edc0ecf940U, 0xe27b00fb0ec527d2U, 0x7febf7eec3cfe3e8U, 0xd8cb26262f4d13d7U,
  0x1e2600344c140aa3U, 0xddf9f85cff4503f9U, 0x420e06c0fb46ec23U, 0x174f490a6864d60fU,
  0xac3a0e2909ec3210U, 0x2fe13fa1c3ebe67fU, 0x390b4dccfd0bfb09U, 0xf81e442005010c10U,
  0x942dfab408e2d6d4U, 0x7cb8b0116cc481ceU, 0xf9c606c516ed1a1bU, 0xcda219109b42430bU,
  0xd631cee4c312def3U, 0x37ce68a43fcddee2U, 0x2d110bdf40f25f6U, 0x1614ad02b50067faU,
  0x10f2eb7f1e35dbb0U, 0xdf23f4f992f0f4bfU, 0xc61b2959ed240703U, 0xf6fffa25f048dad4U,
  0x2154ffb5e2f8fa19U, 0xfd05dd987f336cU, 0xdc032fd9181e26e3U, 0x17d4191ce6fae802U,
  0xd32b6e15cb3defcdU, 0x47b9f623cb2cf79bU, 0xcff2e6b22040c1d7U, 0x9a4235e131cf1bd4U,
  0xe1da092d10e80ffeU, 0xe90efdc26b413951U, 0xd3e7fe29b2e22adU, 0xd502acea8d8e8fdU,
  0xc05ff1fc4d90babU, 0xd1d03be8b508ef0bU, 0xd72bc9cb00af49bbU, 0xfd9e5e46c34ece1U,
  0x5df4034971258138U, 0xe818fde522474547U, 0xfd0beb0903f9ef41U, 0xa0da16e9f63e14e1U,
  0x370ad981f70628f2U, 0x1e0302b0d10f27f5U, 0x47fcd5012788132eU, 0xf516200bf93b29cbU,
  0xf9e6bfe2fec630beU, 0xcce6c805f1dafdf3U, 0x7fd1fbe2051314d6U, 0x143120e730e315ebU,
  0x2dcde3eb10c136c1U, 0x6001ffccdb06f645U, 0xfde3f3d046f8240fU, 0x55b114ab812910d4U,
  0x21462e0d26eede10U, 0x1e4e0d0bc4ef1ac3U, 0xf0dbcfe12c12caceU, 0xbd31fb0e2ce3dc4cU,
  0xc2425b04d3fcef0fU, 0xd4fc7f08bc28dad6U, 0x17c4f74957ea1407U, 0x2a00f9f8b906be08U,
  0xd64001e1ccd8c93aU, 0xc11705452f19abcbU, 0xec2b22dc1cefebf6U, 0xdb20df04e33db714U,
  0xcf2e161552e1f310U, 0xe20417f422161e0cU, 0x15e221e42b36feebU, 0x16e07f1034181d40U,
  0x2ffe32ace5a80918U, 0xd8e8af0c6210d23U, 0xf69e7f16f1c3cc10U, 0x22d92a1407cada0fU,
  0xac10eb3300330e14U, 0xf6bb3be5f4e631f3U, 0x48e9ed27f44824dbU, 0x2e2bc9ef81efc4c6U,
  0xd8e9b20700290510U, 0x3c3003e1e452cd2bU, 0xfebe8ccb13ef160aU, 0xe8f2ec3dd5ef146bU,
  0x2803a0cfe6f1490aU, 0xc9c11fe44d28330aU, 0xe70d461cca8101dcU, 0xce0e5189c571617U,
  0x14ded704b61c3211U, 0xbcd2262cf1ced435U, 0x52921fd9ccfff19U, 0xfc27fb1229e5c713U,
  0xe504b1297fda1a1cU, 0x12520dc50c03ff29U, 0xa31a0d5e14e1d426U, 0xcccd1633f5eebe14U,
  0xe2ecfa21bbdef8acU, 0xbaf7c90ab42b7831U, 0x5730241dd0e2ccbeU, 0x773f311bafb91acbU,
  0x4e2dbfbfeb9e02dU, 0x75e3f27f2a00f736U, 0x52d7beb11003c7a3U, 0x177fc2e34d11a1feU,
  0xc495d7ef31bdf5f1U, 0x2b2dea220edf54d9U, 0x8a2a6a1c06560211U, 0xd24f18b8092970fdU,
  0x2fd55d427ff059deU, 0xf71ce30820d5d5e6U, 0xbf170e122fd108d7U, 0xce6c10bef3bad7f7U,
  0xce5de201ed9b8f4U, 0xfb560f1cf01fff13U, 0x2fbd0b3e810b3b1aU, 0xef3b60f3e020bbeU,
  0xe98d3fda31155de7U, 0xd816db81df0ec9f3U, 0xaaf4ee0f630f77eaU, 0x13ff050834d412e8U,
  0xcce846d3f64eb21eU, 0x4604d0b24a100451U, 0xf313fd59d21e0a94U, 0x3cdb2463e8ce544fU,
  0xabd31e7ffcd6211bU, 0xd8d9e70afb5c250cU, 0x3b0c68fc05173ae0U, 0xc2cdcdae3423b9e8U,
  0x6706dda5895d0a7fU, 0xe46c36eed504e3d6U, 0xda22e99e10adc1d8U, 0x10bbf3e6ebbfdce7U,
  0xcdd1014112b06068U, 0xc7bb13e2a254f26dU, 0x7dd1b73106f0fe19U, 0x21d411e9d7c514baU,
  0xf34b1dc772ace181U, 0x45efc4f7e9e8ede5U, 0x2c0430e814b9994dU, 0x9d7f721ff0f141cU,
  0x5afad804d6f920ebU, 0x1b34f40012f20fe0U, 0xad163015e67fc120U, 0xefffe0ce579e4afdU,
  0x2edf21da05d121f2U, 0xe47f324902340ce0U, 0x49ebd9a33feeeb12U, 0xf8fb05f7bd560913U,
  0xd7a4bc40072a9bc8U, 0x251bf1172bc190ddU, 0x1129fadff911087cU, 0x4b74c5ed6d726U,
  0x81b28afcca3bcc04U, 0xb7fcd03695fe1ebeU, 0xb553db1af90106f7U, 0xfd26237207411289U,
  0xcadbff40b130f4d2U, 0xbf22ae20be3f247U, 0xf206f60891ffb612U, 0x1be43935fcc67ffdU,
  0x182bfd11d39fdca1U, 0x4f2414f447ba11fdU, 0x460401e3e308cfdbU, 0x1c0d59e40dffd2d0U,
  0x20f6dee226242aeeU, 0x912dcc9ecf12dd9U, 0xf06d7ba23ee050aU, 0xc9aae7d606b308b9U,
  0xe8da1a35ced7e37fU, 0x48dbc70125cb1f10U, 0xd8131b0bdf08dbe0U, 0x337fff1513081ff4U,
  0x412218c20b132101U, 0xea0bc0e404d521e8U, 0xbe19de1fe91a07f6U, 0x4afbccc43fff80cU,
  0x3f1da70c5ffbc1cU, 0x3f18f037f1bc1e24U, 0x18cd17bc01f334f0U, 0xd2e84af3d40644cdU,
  0x2114e3edfc8136e4U, 0xf62edc4a1434b3f0U, 0x68ceea342fd12fdcU, 0xfaade932160a2b14U,
  0xc92ef317f43e26aU, 0xef291501fdc81c16U, 0xea2a3252d7cabeccU, 0xfbfcc20d61cb021fU,
  0x9dc46212e11221eU, 0x11deef8175a4e7efU, 0xf322e11024c4e8d3U, 0xb445de1afee6e42cU,
  0x56ed27d4db0cd606U, 0x2d81fb0decc3e4f0U, 0x60ce2e2f7e8f7efU, 0x14d9f7f9161ef3c7U,
  0xda1609c01a370055U, 0xb6333cdae8d423ffU, 0x72d2213f7ce33ddU, 0xd3e801230a11e023U,
  0xd0200703450828f3U, 0xc81bbafa0dc8bcf4U, 0x2a6bd6c24613d816U, 0xe62e1915db1e131bU,
  0xcc20d8c73281c1feU, 0x25f6ebf9091bf3f8U, 0xb53cfb7192b5d4fU, 0x17ec4d04d7c8572aU,
  0x2bd57f34a8bb6113U, 0x88152749401fffa1U, 0x6d91a2b450b054fU, 0xe7080ecae038ed1eU,
  0x13b8ecfa28f6c7fcU, 0x3121e8dd26c17fccU, 0x404150227ce17f5U, 0xe7091f3c07050ee1U,
  0x373a2c3f0ccb2223U, 0x2732fcff0b25dff5U, 0x3941cebdf5239113U, 0x12120728c4f0bf1fU,
  0xc9cbe94a7f30ef09U, 0xfcb832f8ac300504U, 0x1dd3bde101f9d936U, 0x1c2cc3fe6bd0e701U,
  0x48e89bcba405b830U, 0xe53a3cf826e8c8f9U, 0xde6b7f4091bd1ac8U, 0xadf46372664eaf5U,
  0x792e0e49e7d8080cU, 0xfd3604f3af3709efU, 0x44f22af67f02dbbdU, 0x4bb7b60ec4c7c4d4U,
  0xb44343140d0eb9b0U, 0x36c959cebe3ba01bU, 0xe12fedfbe9d6963aU, 0x2ef5af03b2d73e36U,
  0x13b62100fae581e4U, 0x6cce1ed0e2dc10cU, 0xf700bbfc36e5d237U, 0x200016fd4a09cfdfU,
  0xdbfe1656f7def4f9U, 0xe55f580fd150427fU, 0x302e0cef7001b20U, 0xfa0fece222072deaU,
  0xd1e7fe0cfae9e60cU, 0xa74ed6b7006e0ba0U, 0x1ec839f5cbe4a9feU, 0x19c0cdde14dcf8U,
  0x1de813170e2709f7U, 0xfe0f1ff30ee7000cU, 0x23ee03d4b7010f81U, 0x2f91fed04391aedU,
  0xecdd091ff258fb25U, 0x4be99d5a0ec4c2deU, 0xf642353593fcf8e7U, 0x34f7041608551839U,
  0x252d240b030312f1U, 0xc43cd71f37a6ad23U, 0x15182a21d8182781U, 0xf1fa1fdc5dd91f17U,
  0x145623ee0652eafcU, 0xcf19b1d4d0f6df44U, 0xe42241e809f409d1U, 0x1c45f5cbd2126b81U,
  0xe3421eaba13d7c1U, 0xf9daf524daf1de16U, 0xd5ad61bd6e2df0dU, 0xc1d2fb3f05d7111bU,
  0x3dd6810d0ef416ddU, 0xf2edd7a2b50bded4U, 0x26b10f8103d2d6c6U, 0x33bfadf10413fc07U,
  0x10c8ee1b25f712f5U, 0x7e22d0fd6e13738U, 0xe23601f422d0da2cU, 0x339f51b9611d2260U,
  0x203501de0e500d21U, 0xdda175eeeaeaec13U, 0x922f01559551c90fU, 0xe30557095d7f0b09U,
  0xd8da3f0ba47baa13U, 0x1f725d2c480d0bdaU, 0xfa551c56c2e93131U, 0x95410ccb0114e164U,
  0x24c4fa227fb4cc3aU, 0x3d0efcf8cf3fdf2aU, 0xaac32eea8702f6U, 0x3fa1cd15e8f34ee1U,
  0xde02f5c624d5f3cfU, 0x17082be7f9380940U, 0xbcea2204b5ff04f9U, 0x8908e51364efff1aU,
  0x2bb1f2bdc123d2d9U, 0xd5dbb3d37fc073dcU, 0x26ec7accc92fa541U, 0x733afcede0bc33bdU,
  0xe21731be4f06a7f5U, 0xb73e2de204e4f6f6U, 0x77ff84ff7db8b04U, 0xe81b7fca23c0b204U,
  0xdcbd2de5c705d821U, 0xfb42c325a42c07cfU, 0x5340ff17cf20e9f4U, 0xfefbfe32c729ee0aU,
  0x4c17f49ef1ec4ecU, 0xd1e1e4363716013bU, 0x4239fe3d11f9fe20U, 0x62e51b728ca3e43U,
  0xf7df0b42b13dfdbfU, 0xbc2b16de4825f666U, 0xe9df81d0f90be53cU, 0x500d3e0ea4d201a7U,
  0x2c5ae735d411d3d7U, 0x210dbc27fec7ce0dU, 0xd94b30cf15f0e40bU, 0x35f23023e753cfU,
  0x3e301dcee651e352U, 0xfe5efba35cdac881U, 0x527f2483cc31270dU, 0xf407d0db050330ecU,
  0xcef2e83f8b39351fU, 0xec37087d3d089d43U, 0x4b22f2f719a42dd0U, 0xfa4319d5bd0f093eU,
  0xeff151daefe6f83cU, 0x21bbcafe4fea4ae7U, 0xd4ce54d30ffb13cbU, 0xee081528fd2bf6f8U,
  0xd38128f2f149cbc0U, 0xcfbd1ffdaeda1f39U, 0x59dd2527d6162be3U, 0xd18ccf5ecff2cf7U,
  0xb02039b1fccf47abU, 0x4e1ace2ffd1ac5f7U, 0x3dfeff50c9cf703U, 0x29cbf99e0f664c81U,
  0xf1fc020200e232dfU, 0xef2b1bafc1b5e114U, 0xdd811ffc1f05b4e9U, 0x220e270c2701ce0eU,
  0xac2714f4701df3fbU, 0xeedc3a963c12e500U, 0xfd2f17cd55dd1eefU, 0x231a42c6f40c139dU,
  0x1bec480006c0ebf3U, 0xaee1e2bf0f5159dU, 0xde08082f81ec21f9U, 0xc9f31216c325f10aU,
  0xc132393b1f1c122dU, 0xe4f21920db6169f8U, 0xfdd724ca1b349622U, 0x1746de34a9f24a7fU,
  0xe3f03aeeb24240e7U, 0xc338d79f370e0215U, 0x91e5222eU, 0x0U,
  0x0U, 0x0U, 0x0U, 0x0U,
  0x0U, 0x0U, 0x0U, 0x0U,
  0x0U, 0x0U, 0x0U, 0x0U,
  0x0U, 0x0U, 0x0U, 0x0U,
  0x0U, 0x0U, 0x0U, 0x0U,
  0x0U, 0x0U, 0x0U, 0x0U,
  0x0U, 0x0U, 0x0U, 0x0U,
  0x0U, 0x0U, 0x0U, 0x0U,
  0x0U, 0x0U, 0x0U, 0x0U,
  0x0U, 0x0U, 0x0U, 0x0U,
  0x0U, 0x0U, 0x0U, 0x0U,
  0x0U, 0x0U, 0x210b0b1d00000000U, 0x27224e02f918505cU,
  0x810df76903cf045eU, 0xe15b0a1433f01e2cU, 0xc8f38174f5fae6f7U, 0x483bbe81328cffc7U,
  0x292a319c033cd634U, 0xdca9b2df02a6341U, 0xf6fa25b12891c0c7U, 0x86fc71a2ddc9f23bU,
  0xde1aeb3b36fcdafaU, 0xeddee9c065e6daedU, 0xcd00b9201100f762U, 0xf714aeb6202846caU,
  0xe9c3276292197726U, 0x34e4df13db7f3ce3U, 0x9d44d29212b8f1aU, 0xd7a47f1d42240e11U,
  0x831fd32243d0bffU, 0x148ed51eb71e8129U, 0xd0ea81f5eb31ffedU, 0x3252e461e1cd1ef2U,
  0xff7fe82e9e101726U, 0xe5edb67f13c5f31dU, 0x17a8481709d64a89U, 0xb5cb39952627d3fbU,
  0x4b2d0b0afa01c31cU, 0xbf6017b9e92d7fc7U, 0x705f7bbedee814aU, 0xc466dfd0b52c8d3U,
  0x3acf26d8fff581f3U, 0x303702f7d53635b4U, 0xf07332becd5e5b0U, 0xfd8faacc12dce6deU,
  0xb4c62b27246dd532U, 0x7fe94becd3ffe0e5U, 0x213394e1017aa7c4U, 0xb4ee9ef14cfcc9bbU,
  0xf706d844d512b7f2U, 0xdd2b2c0cf2d8d7c0U, 0x531ff4f681f99d0bU, 0xeee9fbc58d8b2c4U,
  0xd1eb75f61320ca19U, 0xe1237f0dadd9c24bU, 0x7f7f0431e70a23bdU, 0x11cc1b4024f5f827U,
  0xd8ce147ddfe840U, 0x2b00dfc392d32bbaU, 0xe4dccc6bad1a13eeU, 0x8814549c35dfdd9U,
  0x2456031200c128fcU, 0xe819244da20513edU, 0x268bff1dded0b6fcU, 0x590f12a4814c210aU,
  0xabcfdf0bfe873afcU, 0xd8e421f855ee192bU, 0xd214dfdecf1c6f72U, 0x8981b6bae7c71415U,
  0xf19bf9c7f0f528efU, 0x82d470099e7f97fU, 0xe1c02a3cce2047b4U, 0xdf02aa2004d01a21U,
  0x5b7f318102b80ecaU, 0xc10c173b4df71000U, 0xff3b1ecc34d3d73cU, 0x1213f15400e0a724U,
  0x960ef254f081fc2eU, 0x4e7fe70ef97f41e5U, 0x542fdf6127e413eU, 0xdacbf8ed21ecfac9U,
  0x9a0916ee05f556efU, 0x127ffda7150d1848U, 0xded2aa810fd8e101U, 0xfc06370e16cfc46bU,
  0xc3e22b0d01071e8eU, 0x1842013d0824bcd1U, 0x7f04142ffe9410d1U, 0xb23e53f1ad61019U,
  0x8e2ad3dc7f2bb60bU, 0xfafc2181e3da2913U, 0xb5cf00f9813b5f0fU, 0xc1c8ebce7f09b43fU,
  0xa55c110a19f37f08U, 0x4613dfc13311cf2bU, 0x9110f5de7f150f22U, 0xedfc21385d74f3adU,
  0x342422aea8147a3U, 0x5b27e4bd811008c5U, 0x821a12cff935e80cU, 0xfa202c0500d2eccfU,
  0x20472c1cdcea73f0U, 0x352c263d021920e2U, 0xc8f7ee02dfcdd454U, 0x23f90839db6303d9U,
  0x33d64423a4c2b281U, 0x3e2af1d557eb42deU, 0xe0c2b71eb109adf6U, 0xb348c5de090d9ad5U,
  0x5d9b99d61a053656U, 0xf6db10e107dc5df9U, 0x21da46501029e024U, 0xee2d2f3fcf1ae1b3U,
  0xfd3541e32f32ed81U, 0xc1bbf2df6377b405U, 0xb01e1cb3cd75d237U, 0xf1592f351ccbefd2U,
  0xff48d3d78106fff6U, 0x15d84572f10ef31cU, 0x5635add35a7f0be4U, 0x82eb9c8f1fab7f9U,
  0xcae17ff2041a6c81U, 0x8b211ca285ee254U, 0x6359e0e6fa07cc2bU, 0x2dee534849b2bcf8U,
  0x9f3e6132603bce5U, 0xe71215c4d7e81e55U, 0xdee60bc4fe81d228U, 0xacd5e521c0d200e4U,
  0x8116f11713fc0702U, 0xe70309ee1bf778eeU, 0xe402571307607659U, 0xdd29e3c615e3d81cU,
  0x1ee81e7ddf1d34c3U, 0x827f2c293914f198U, 0xc102f8813becde09U, 0x1681d66d1a960181U,
  0x68d7ccbf00b83631U, 0xea5ae81d9cfd2612U, 0xabfc1a4c16f3f5acU, 0x63bf29c71e7ff14dU,
  0xee1081d40fb519dcU, 0x9eb5a4143e85700U, 0x2538214ef0d2cacfU, 0xfff71e28fbddc51aU,
  0xaf7dd97f72614e3U, 0xf7011287abe20fd2U, 0x88af6dc8e94fecefU, 0xe5f171c6ea1c16c4U,
  0x1e7f5d1ed0350eU, 0x1c1ce2e24e3d0b95U, 0x85aef941c7be8c31U, 0xdd15f234e951d0c1U,
  0xfd5bff92c1165316U, 0x1b428db7f422ddebU, 0xa43ee90200a07f2bU, 0xfd16a9087fe14b03U,
  0xe2f4231e22f612f4U, 0x685f33b991c04bfU, 0xefb5350e360c0a81U, 0x861c6ea03bf4331U,
  0x815f3d7fbe1cf0e3U, 0x24b4cc0f88780981U, 0x3901cbf3f71a210fU, 0x7fd99c3e0615ffe4U,
  0x7162d02d3ed1f3aU, 0xa4f6f50e9e2ddcd7U, 0x9c78f7702aca30e7U, 0xac0f7f3c0a7fb437U,
  0x14e4d0f3e231b338U, 0x9df0e107fd09e4caU, 0xba961ac330815156U, 0xfe0004fcf1ed5a0fU,
  0xcbb82d0aff1dfa35U, 0x29db2eecb05b3f75U, 0xaa4dc181f8e3040dU, 0xf95cda6203d7f761U,
  0xf62020d919163212U, 0xcd014a400bccbee5U, 0xf1e73b66aff366e4U, 0x2d28756349114cb4U,
  0x5c0232cbc1f65eefU, 0xebd8c8d80708411aU, 0x1ff3044d9110809U, 0xfda069a20170872U,
  0xe4b54df90142a90bU, 0x7f1647f326c3416bU, 0xeb0c250700eaad0eU, 0xe1e6f1edf5fa81bcU,
  0x1f190301d58ce401U, 0xeb95fcd42c6247ceU, 0x81fced09f91de181U, 0x2ff1d5bd510a81e4U,
  0xb3083b894cecb946U, 0x9839efeb1014f1d7U, 0xf727e673f0ebfb22U, 0x28c80cf943aeed8dU,
  0x10eea6aa12fede31U, 0x60710db8135e323U, 0xe7364e254c09407fU, 0xe42811d6f747e281U,
  0xe2cb2deaa381dc12U, 0xa728424fd2e77839U, 0x3115cfc43ab91d08U, 0x23111408fb17bf27U,
  0xe273f8951adbbb9bU, 0x1d9713cfb89fc29fU, 0xfc0619a91ddab05bU, 0x7fea88b4fd7fc8f6U,
  0x15e1de1cea5cd6a0U, 0x3d02fb17dc0efdebU, 0xf9f42c05266c89eaU, 0x40e8b61212af14f0U,
  0xf61b1c12e0242639U, 0xf7d0ab278a7f5810U, 0xec19dd2f2334ffbfU, 0x1feeef3ea6ef0addU,
  0x19d410bf16e2e001U, 0x11de2140e40c1b08U, 0x3242bae718fbdbe1U, 0xfede9dc3ef4ff49U,
  0xeef7df68f82be205U, 0xd1500b57d7ad1010U, 0xe440f1cb24a9b230U, 0xb165fb7f08cb01d2U,
  0xfec31b61f07417e2U, 0x1758ead7153117e6U, 0x3e5300d2ebdffd4U, 0x4335dc7fb3fdeef2U,
  0xcdc531e063ea1e3eU, 0xe70c047fbd0ada01U, 0x271aeaf726142519U, 0x350535aedc071a40U,
  0xdb06a8a0031e06e4U, 0x1c460523abe7f718U, 0xe7e9391a173c7f31U, 0xf4a8141e180037a4U,
  0x93e915ef31c7d108U, 0xfffdf8052a4639b7U, 0x13ba7fbcfe0e1623U, 0x161414e819262f02U,
  0x9709cc1b04e72165U, 0x8148052b5cadd7bcU, 0xe7fc0126f80fffe2U, 0xecf128dad4ee920U,
  0x971e15bdf9f99b31U, 0x4ddb1221e5bb501cU, 0xee12bcf7fec1beb8U, 0x1134f8ff16d1f11cU,
  0xefee1dfed90428faU, 0xba0bd494811f3235U, 0x5912ac192d2faf52U, 0x7f3acf09df7b2c13U,
  0x9fc2dad6bc0f63dU, 0xfce136d6c88ebdcbU, 0xfdc8f81e22fe0cf5U, 0x3ae32368fe34a715U,
  0x25a4df56174e2efcU, 0x1362bffe2ecde0feU, 0xfde2e6a015e80b11U, 0xc2503dec0a19451fU,
  0x13fd21816050e8f5U, 0x9a121e55f30635ffU, 0x11164af67b1b3e49U, 0xcb1a54d012e4ab2aU,
  0xaca5120e2d1447e1U, 0x5f40e3ee215e2681U, 0xab6d3e1f01f52be1U, 0xb85bd0c022a97f18U,
  0xc67ffef657395031U, 0xd04b621ae03d1cb7U, 0x96d4d8d12a5b0435U, 0x2a303286e02201b9U,
  0x10bae1ddfde945feU, 0x241caab5e344ae0fU, 0x193af3c3f4cb87b8U, 0xf2275de91ed3d47fU,
  0x4bf9e27fce00b6U, 0x36d581f1ddf3d403U, 0xce627b2cd551f31U, 0x2615c1d5bcf9d34aU,
  0xc89a2e0a2c02c81cU, 0xda5508184ef0aaa7U, 0xd710edfc11155bebU, 0xff2281b6da0a13dbU,
  0xacd50216f71c4b0cU, 0x1038818ef010edecU, 0xe1a917ec051a49e3U, 0xf0f8d8b491039bfcU,
  0x21f0d9aebddc8129U, 0xe50cf225fde83407U, 0xf12fec43e90f020bU, 0x16d56f06364c7aa7U,
  0xccee07f4c1cce607U, 0xf27c0d101559f5a6U, 0x5ba60cdeb051e2f6U, 0xf348615fb6c315fdU,
  0x15e115004361b7dfU, 0x3f171328241239d8U, 0x37fe6e5f82744dfU, 0x1ce0e45fbcbf3a73U,
  0xccc0e40cbe145bffU, 0xe7ed0d53d1fab462U, 0xea7f6224705bd54bU, 0xfc1cf11f109df40aU,
  0xed43b6d80edb99deU, 0x121d47d1c147dad9U, 0x6a72a1addf1ac0cU, 0xd339cd66bc3101efU,
  0xf8161afff23c09e7U, 0x51c512f0dd037fb1U, 0xcef04365U, 0x0U,
  0x0U, 0x0U, 0x0U, 0x0U,
  0x0U, 0x0U, 0x0U, 0x0U,
  0x0U, 0x0U, 0x0U, 0x0U,
  0x0U, 0x0U, 0x0U, 0x0U,
  0x0U, 0x0U, 0x0U, 0x0U,
  0x0U, 0x0U, 0x0U, 0x0U,
  0x0U, 0x0U, 0x0U, 0x0U,
  0x0U, 0x0U, 0x0U, 0x0U,
  0x0U, 0x0U, 0x0U, 0x0U,
  0x0U, 0x0U, 0x0U, 0x0U,
  0x0U, 0x0U, 0x0U, 0x0U,
  0x0U, 0x0U, 0xe4f7de0400000000U, 0xeeda0a2bfa0f0320U,
  0xef0004311acb3001U, 0xffef03f3030d2ce7U, 0xe30f0c171ef2e818U, 0xe1435781e75cdfd4U,
  0x2afb287de94353cbU, 0xe0cc22ca1b27042fU, 0xfafc131ed52f2321U, 0xd4c402096b1198efU,
  0x1610fe2ccc05deecU, 0x19021ad3ec2cebe8U, 0xedfbf9a7121c18caU, 0x1024f8c10453d8e9U,
  0xd30623abf5f6f8ffU, 0xbf39f0c8509ff9dcU, 0xb3e8572226e90313U, 0x7e39e029ecfacd2fU,
  0xce02a922adc7c04aU, 0xd81f33223380f09U, 0x21d2d251063e3af2U, 0xf9081ee0e9ebe8ebU,
  0x89cdfacce50a120eU, 0x35eae4f9cddec81fU, 0x85e7ab0b3804f4cbU, 0x14ca34d0fddb14f5U,
  0xe992e12350c730f2U, 0xab0fa5df003587feU, 0x13e3f60e2424d907U, 0xcbff120d51a68185U,
  0x1c30e7effe363801U, 0x1315c2f1cbf4e4b4U, 0x80ffd53efbc2fffU, 0x2d457310214f505U,
  0x1df89a3a00a5fcbcU, 0xf99409c2eebf1d5cU, 0xd5e9eee35a0d11deU, 0xe9fff8430de01df4U,
  0x9e82121ef24e22bU, 0xbc220f3297ffd52U, 0xfad8a4eb0bd51dd7U, 0x60f7ef32360d0ef4U,
  0xee1321e43224bae0U, 0xe9de03f6331af312U, 0xfe0831faf1510eecU, 0xab03dfe811c4f4ccU,
  0xea1a1dca1808b2c1U, 0xf2040c97fd290511U, 0x491f2018d73c03c2U, 0x250cd4f700f2ebfcU,
  0xaffc0b9dd7180808U, 0x615e1d105b7e92bU, 0x13e434e5faecd908U, 0xd8d69fe34f050f07U,
  0x43271813312bd8f7U, 0xf20ef5f6abff2033U, 0xf7af328104f8eb0bU, 0x210ddd6113a2b2cU,
  0x29e124f128de05f2U, 0xf2e23be7efd6e2ccU, 0x2936fdcf2afc0d0dU, 0xfe1cc1d12ecdd2fU,
  0xc3dee50b1dfec5edU, 0x6f0dbafdaed260eU, 0xf6051823ddd11307U, 0x230d0ec700c41bebU,
  0x1de108d80424f9f1U, 0x1bf2124de6cac51fU, 0xcee814b15523304U, 0xffe128afcf14ad0cU,
  0xcff514ce0c22f1dbU, 0x45d833e910fac112U, 0x49de16d7ceffe311U, 0xdf70e26020ed7fdU,
  0x200bd31005cabc28U, 0xed27a3134e20151fU, 0xfa2aacce01c60ff8U, 0x3122eeaf41ecfbfaU,
  0x160c0604b7f6a90aU, 0x11659fc8200d7f1dU, 0x2bd101dfc5c344d1U, 0xbc639d51be9fc47U,
  0xb463eeae8f01defU, 0xd3b20e718d9cdccU, 0xe62fded10ac91e26U, 0xf5fd117761290944U,
  0x2dc8edffff1b17e4U, 0x74086b2543cbfdedU, 0xd3d2c3d2e73301ddU, 0x724eefec93bdc45U,
  0xea52d234fa2e37dfU, 0x42a0bf0a3e0ef0c6U, 0x2102c2b2e823fce2U, 0xd6277fec51d729fbU,
  0xd701531015fbc3f4U, 0xc822c494c73b04daU, 0xe91734cfd24c6242U, 0xbb18fe0c14dfe211U,
  0x120cf60248ea4f25U, 0x1adbdcd4141510d6U, 0x47f227a9d6d938fcU, 0xf7f1f4ee1f075105U,
  0xf1aebf2f7c32d14U, 0x1a14a1110e1f7f8eU, 0x105211348ebdfe0U, 0x230b26aa1637d40bU,
  0xdc200c3505f6fc00U, 0xe42a1bface02f0U, 0x181fe6ccea060555U, 0x353310db1109fb04U,
  0x27cbc7b423e72922U, 0x1234e8e8f80d54d6U, 0xf1d9dfcbdc11082dU, 0xea62fa0600f81ffeU,
  0x17f1dd0cedf1e6d5U, 0xfce30decfcf58110U, 0xd1402c07ee1d651dU, 0x2816f9ae01aa0418U,
  0xfdee0ff5f1e1a7e4U, 0xe9100a52fbf7c7acU, 0x149f32a328ed643eU, 0xa9dc0f0f070de011U,
  0x7aca119e24e603aeU, 0x429bc902fb1fefceU, 0x2fbf7fd90613e7dfU, 0xf2ce3f05af321f0U,
  0x190f0d124427fb21U, 0x5237bbfa320e38ebU, 0x35b3bbce0e03c8c7U, 0xc6effaf8370c2612U,
  0x27018bae51162705U, 0xc4f2e18fd529e9ffU, 0xbc405ecd60cf717U, 0xf1fdefbef2a923b9U,
  0x381e236ee5d2f048U, 0xf0d1d91ebbac4fd7U, 0x2208050c18f40a9fU, 0xf53f016ef41dee15U,
  0x2b2b00b41a02e71dU, 0x26ee24beadde3ebfU, 0xdba6fc042cf6d61cU, 0x50fdc5832f5fa37U,
  0xf204d2cc0cf6c3e0U, 0x1f32ee81b8207a2aU, 0x3063e18d235abdcU, 0xdab648f50e0bece8U,
  0x35233c910afba1efU, 0xe315ebc0cabde5dbU, 0x4e6fe167f19f432U, 0x65fa4b2ef7d10647U,
  0xcb140318ed1c2319U, 0x92dab89bc7dc1009U, 0x33f0ddfdd404138eU, 0xeece3a14282c3dcdU,
  0x114801fdc6e605e2U, 0x1ce84fe812672dc4U, 0xa71d451a23af2b00U, 0xd1e35570eebeefaU,
  0xdcd2f913de172d29U, 0x2c0b11ea400ed3dcU, 0x80bd1090afce6faU, 0x1ac8fbd41df2f02fU,
  0xeb09d9f5bdfef91dU, 0x39bcb51aef38b001U, 0x1b3110e701f8b7f6U, 0x301df7454ceb0239U,
  0x1acd19e6feeb19e6U, 0xcd9e57f3433f620U, 0xdff83133cc0b2c04U, 0x14db711e100a2f12U,
  0x1cee51eb0a0302fdU, 0x4b041a01070aeeU, 0xba0832c6f9c1100eU, 0xc81d5d70fda19f5U,
  0xf60cdd25e616f135U, 0xf2d50900d732fbe8U, 0x2ce50c31d507f6ceU, 0xe108e9fef70eebd3U,
  0x490f09090d03dd18U, 0xeafbd71fdd1b09f7U, 0x412b23f225d41ef4U, 0x973601c7be480af1U,
  0xd41eeb4bd6c65efdU, 0xee02a2d1e80a2ce2U, 0x62740cb37fb0ed5U, 0xedc42e2cf51bfdeaU,
  0x650f9924ff0b233dU, 0xf512310007224fb0U, 0xe5c5fd7f1a48ec58U, 0x2740f12d0eb603e6U,
  0xa92726d018e128d8U, 0xfe30202ae4f7d1e6U, 0xe8f512d555a1ec06U, 0xd22508450ce510e8U,
  0xb021cacc0901e4f3U, 0x3416a0cf0b0c1a29U, 0x28342ee8f8470bd1U, 0x190bd811f8def9f1U,
  0xf426015323b04caeU, 0xe6ffe74f10171c01U, 0xf44cf5814803cae8U, 0xf8b3f8f7eb1efd35U,
  0x573631efad28fb43U, 0x3c22e74abaf43f15U, 0x9f293de5e4e3e71bU, 0xe8ddf60c0a26f90bU,
  0x1dae1e162a1ce942U, 0x4135edb40814df15U, 0x350b24b30f132bfaU, 0x15da037ffbeb0d41U,
  0xe53df43af91314e4U, 0x4507faeabb1e22beU, 0xc91561c81dcb0ed3U, 0xea34b1291ebac45cU,
  0x72aec344e7f021f3U, 0x2ae429dacf3701aeU, 0x2e310bfc144e17b6U, 0xf109493e01f916c4U,
  0x112c08f60025e5e1U, 0x2c02d21024dfeb3eU, 0x3d13c614efe21429U, 0xdfeccc0133034219U,
  0x32c7fe3d0a02e306U, 0x2ae7081d3d43fed5U, 0xc503fe2ba544ddc5U, 0xf90e280230f9f9e8U,
  0xe30109440f2f10bcU, 0x7f25fbcab9f71ff9U, 0x6d39f3fdd3d2209U, 0xefe96f15ce462922U,
  0xddfc8ae044131632U, 0xcd0fd5fdeac220fdU, 0x24cc81f22a2afff8U, 0xe715113530263dcdU,
  0x8408211371db400U, 0x1e431c11cf17b2fcU, 0x1f35c53809fd22f2U, 0x5e37e806e60cd724U,
  0x371ae9f88f2fc525U, 0x8eef0d41f0cee4faU, 0x4ee2b41c06f72bf2U, 0xf237ce54180c10ecU,
  0x1f36f6e6fefc7f31U, 0xe32ac349a544f311U, 0x65e9f6180e391ef0U, 0x42dcb7df9ad2c60cU,
  0xfb24b03e9e1b00c6U, 0xf10cf319fc3a25e0U, 0xce2816f3e01e12edU, 0xea0b2f5ce8dbe5bdU,
  0xefce240406cddbf1U, 0x2a18152a16212309U, 0xfec6edccf6eb3fb4U, 0x7f1ce1eeffd7fc00U,
  0xf1d0db12f4f6fe01U, 0x3dfcf61d30e7e6a3U, 0xfbef3711df06cdc1U, 0xf7dd3252c5d30408U,
  0x4e6d04d3f9e8f236U, 0xcafdcefb1514cec6U, 0x3b095e07fdcbfb01U, 0xd0b0e3a1862c8e8U,
  0x55d21fe7dddbc826U, 0xfefdf6afec22bfe6U, 0x41bf2e21f424be5U, 0xd79a4edec668feffU,
  0x3e0d00c620a430e2U, 0x5e07e705ec37fe9eU, 0xe62e3908732f1540U, 0x633a08ddee56ff26U,
  0x58fe0a113d3eef56U, 0x7f0b2fd8d6211e5aU, 0x1cdaffb3e2720abeU, 0x14f21007281d1ac2U,
  0xda1f37fdf6010dedU, 0xb4d84df70de30930U, 0xc631d1fdefe0f3ecU, 0x7340aa63dfa3af8U,
  0xee2ff8e4ca120b1eU, 0xe4031cebfd1cdbeaU, 0x16e614a51ae765e4U, 0x3dd9ef20b4e3e913U,
  0x3603eb1f1ecf7feaU, 0xd7efea02c402b1e2U, 0xf5e57424ec1c1035U, 0xb92af3c6fa38d8fbU,
  0xf9c3cd560c133ff7U, 0x333420052b4a46edU, 0x32c9e5dcU, 0x0U,
  0x0U, 0x0U, 0x0U, 0x0U,
  0x0U, 0x0U, 0x0U, 0x0U,
  0x0U, 0x0U, 0x21d0fd2a00000000U, 0xd3f333ebe106f121U,
  0x25e87f2036bd17ddU, 0x57d3c7e0231a7bb9U, 0x22e9bebd0ad37ff8U, 0x5719e628db1addfaU,
  0x6905e20c09c92403U, 0x6a23605242e12401U, 0x3833f205ddc6db56U, 0x121ff70de605c8adU,
  0xa8be8117ec2bbdffU, 0x22f9e815f5aeececU, 0xf551e1460a6f4d23U, 0x93f70d994b33fe5bU,
  0x15220b18e4a618daU, 0xdbfad9c3a81ca04U, 0x499c1b2b8bca2a49U, 0x963102d944f45542U,
  0x85d9380251067aefU, 0x5ee0ef2020e18d2U, 0xf248cfcc9544c8d7U, 0xb9010eefa39fdd37U,
  0xf1e71f81be042af7U, 0xdda001a8f2d7a4f8U, 0xb1a4fc23c172618U, 0x1a34d305aa1f101bU,
  0x1f12d9227fd1f526U, 0x7ef0e7f0116f03aU, 0xd03f0f0110efe535U, 0x2be1ded6da3e10ecU,
  0x2b1930fc32f501e3U, 0x115f044711fef4aeU, 0xdbf3af45042e0c91U, 0xb8110a25043d1918U,
  0x4cef1353f02cc8d0U, 0xe523ddef18011309U, 0xd5df1852be810842U, 0xbfb8856637ed0521U,
  0x37da54debdd448f0U, 0xbd97efebf977526eU, 0xb90e5df40b36700cU, 0x179a323a3efae2acU,
  0x6a3ed60adad6546cU, 0x16fd063f04cefe62U, 0x1a05d447dc812fefU, 0xb451f4437c9d969U,
  0xaa2fdb23120608c8U, 0xe839cf1cc3e5f8b3U, 0xfa19e4a0c9d61870U, 0x45e356110827c2e8U,
  0x7fc9c4034514036dU, 0x45ae524001c7e2fbU, 0xaef46a90439151cU, 0xf8a6f2cc02cb45beU,
  0x7fe452d7e611bebeU, 0x211f16a10a15f5d2U, 0xd1f0dccb342adc06U, 0x22c1407fd51e9023U,
  0x54ab1523d61af1f2U, 0xe1dee6971ac20bcdU, 0xf6afe7ce94bb271fU, 0x2b0be427c0053933U,
  0xde122f26f22be681U, 0xd3d0f3d8002b3e1bU, 0x4319fa3c81fe3d1cU, 0xd013d41225efc50dU,
  0x183e1dd4e8004cfeU, 0xe2f9da15abeef4e6U, 0x3302dc13813133deU, 0x182c0da05fd9a9b1U,
  0x816e08ca4fd924d2U, 0x19bae9ed24f4def6U, 0xdff5df555a2510e1U, 0x27c2168322fe4504U,
  0xdcfb01859fed22c7U, 0xcc7d996afdbef42cU, 0x631fc8b5ac1d3affU, 0xfeb63cf3edbdffebU,
  0xdf02e912f3db32bfU, 0xfd2daceaa2c40966U, 0x2fdd27e40042b0c3U, 0x5fddcfc71bb51101U,
  0xa1e8f56bbe1d120dU, 0xf169df1ff714eb0cU, 0x31dcf235b63ffb47U, 0x4d2bf17fd6f92f08U,
  0x21213c6cee8b634U, 0x4be8121f62e1be7U, 0x1b106572cc3eb3fU, 0xf35ed2d3ea40f1e0U,
  0xedea03ee26de3c1fU, 0xfdfc17ebfe27ff2bU, 0xf87fcbec412efa20U, 0x90defc6dafef303U,
  0x11f4f4dd1a153435U, 0xd820fbedbaccbf1aU, 0xcd22ebd8d3bcee6aU, 0x22d45f6fee416fcU,
  0xf8edd0813a194f27U, 0x67bcc1fb3108041eU, 0x3260d70ff3e41857U, 0xd349fce401b8dafbU,
  0x27da0bb8e8f9c2b6U, 0x47f39935fd2f1722U, 0xb928e905ce03162bU, 0x17ddc9fd337fd3dfU,
  0x7bce407fb30eda07U, 0x11c7bf65e547d9fcU, 0xf011014b20fbe1e0U, 0x1bd3c4e73f1814f6U,
  0xb9bbc74a7fe1e8b8U, 0xef133d0d05b0eaf1U, 0xc228bf4444470e50U, 0x143f1f48e6abfb2U,
  0xa034d3a0619490dU, 0xdaf3d883d6c7fafeU, 0xd020fc55cfede4f5U, 0xa84d0dde0f580855U,
  0xc1db5f9ea0dcc5dbU, 0x36af277cc2bcebf3U, 0xd7d5c37af84d3613U, 0xff03f20036dfd918U,
  0x122f5c8b10eff10U, 0x4005bcfd7167e9a7U, 0x40bf974cc7c01a81U, 0xf0de63c9dd1ee720U,
  0x74581f5d1251f0cU, 0xb952c32dd810b3f3U, 0x8241f0de1e4ff8eU, 0x1a1ee5950adbeef0U,
  0x152a04cf41f4e8a0U, 0xdd460c180ba24c05U, 0xa1afefbb52ef7edU, 0xf2ecd70b16eadde1U,
  0x81ff14f4d538f1b9U, 0x1afad43419bd0a11U, 0xe708ccdefe3b50eeU, 0x41db02651c9fe9f0U,
  0x7d06fbfc81facfc7U, 0x19f2e7fbb9fdc8f6U, 0x91a7e82d260bf611U, 0xd50c53ea2eedb33cU,
  0xb6e76d58506329f8U, 0x29ca0bb7f2f2c7b7U, 0x97df492d0e2b57c5U, 0xd9d5d83579839bf2U,
  0xd92c145019d4e64aU, 0x46c10619dfe7dfc9U, 0x7f0942011fee1738U, 0xaefe09f5d3ea3a09U,
  0x221300021dccec1aU, 0xda44b0204cdfd128U, 0xecfecb0e21205249U, 0x4f7d2cc19a441faU,
  0x22cc403df6d819d5U, 0x315cff7cf20f9ecU, 0x16250405e21027d6U, 0x3ee9ca09fd809f3U,
  0x50255bef2032a1e5U, 0xd471f402caf36b95U, 0xc05c92cac215e614U, 0xcddb1fb825dd1126U,
  0xf1667fe3d9173400U, 0xb7d73a36dad22fe8U, 0xcbf8ea5bb80a18e0U, 0xa5e3f33a22170df9U,
  0xe6d203144534ce2eU, 0xf856092d927914bdU, 0xb11b183c70e5bdf1U, 0xf113fb2534db905dU,
  0xac3c24284a57a007U, 0x16d6421b81570c05U, 0x2343eb3bf683470eU, 0xcbe3f5efb3d1c931U,
  0xc4a8c9e4c13729f1U, 0xec31f3c9e200d2f1U, 0x50a8b5b202ddf1abU, 0x32e921df990dbe24U,
  0x1ed30af2101508f4U, 0x6f05f1ce12f508efU, 0xf52d492d01177ff2U, 0x3bd24d41f97939b8U,
  0xbc5c45fe301c2eceU, 0x9e3decaf8e70a1eU, 0x3d453429f1ecf0e6U, 0xedcdad01f2083bd1U,
  0xfb2ed7f31cd07f61U, 0x39f81f179006fd00U, 0x21ee7eab081fc05U, 0xf16b6d426184207U,
  0x6ee10f21adbd5a9U, 0xc3a2277575bec614U, 0x9f6a732be192de1U, 0x2c28ed024f829ffU,
  0xeadb1afafee8eebdU, 0x2fbd19dd1b7f3e1bU, 0xf81db6222eacb11eU, 0xc2e0df343636f6f0U,
  0xcb2702eddeed2400U, 0x46f20eedff2417acU, 0xbf813ad715c82847U, 0x10cbe208ecf4ffeeU,
  0x10ed881d809ea9cU, 0xc6d1e93d002703c2U, 0x4840fe2af8f1c321U, 0x50c4522c75da247U,
  0xbdd6d6c8443ecd08U, 0x8ded253214fe1426U, 0xc503db17334e5f12U, 0xb0d463e52116100fU,
  0xa0cdd262f140d11U, 0xde29593810086cf7U, 0xf10b73d6eaf64f28U, 0x49d211c8ab4b4bf8U,
  0xf00102ae7d5d8beU, 0x8100ae0dff2ef1d3U, 0xe3d51c0bd3430909U, 0x3fb360517087fd6U,
  0xeba5fb836160b03U, 0x90d42513f8e81c00U, 0x31cab44cb3aeeddU, 0x6017d022418f0939U,
  0xd841ffec993d9915U, 0xf1a0f8c338e3f5f1U, 0xe20df98ed5bef301U, 0xccc83a84e781a4ecU,
  0x493d1f0268e521edU, 0x231d268cdcbcfc49U, 0x1d1c1d2f00aee0b0U, 0xf9fa8509c138b8c7U,
  0xb5ee04c9f2020107U, 0x7bbddc1c207fc40U, 0x22d630cc40c5d9f4U, 0x9b1831e2d3c50fc6U,
  0x97c91ae7f5feb47fU, 0x21b8e5612630eedcU, 0x13089f41f02cb2e4U, 0xcc22f3eb64a939f3U,
  0x2c07b4d20d0f6c38U, 0xfe3ca422f8fb1dacU, 0xcf1312dbf2083b0aU, 0x5eb9b50604316212U,
  0x2e3b2b81080a98f9U, 0xba0b351afd08111aU, 0xbd50f73a1ec716ebU, 0xf9a7ff59cdd0c2a9U,
  0xefdfdc213236eba4U, 0x3481f2def50fecedU, 0xe05a70f14ddb6e0U, 0xbe52de0618e9131bU,
  0x1f23fc0ec0b01f04U, 0xc8c02c020d81a0c6U, 0xc7031c17454407a6U, 0xffaf3263821fa0aU,
  0x31f3dbdd051781efU, 0x3810a91f716f1feU, 0xbc08e8c8e1413cd1U, 0x2500050bcc19201cU,
  0x18df401c021d8d47U, 0x32113b59e6c54434U, 0xdf96e0f6da1814ddU, 0xd10e2dd1b4ea183aU,
  0x2cd6f8041518df2fU, 0x15082ffac4fa813eU, 0xf07f0956de2f70abU, 0xc1e6f002f53554f2U,
  0x53c621f12015e2f4U, 0xf8a6e640cecf8f38U, 0x6831115105add601U, 0x2d17ae1a0029fa3eU,
  0xfef0f30218be0117U, 0x1946fc4304e7f6feU, 0x2812e4cb574ad143U, 0xa723e7cf2de7ca09U,
  0xff6d6545d3e5cb13U, 0xde2b0ef0b5f37f2bU, 0x2716c1d824f22136U, 0x177df06d5f6d3775U,
  0xe5b5c241c8f538ebU, 0x3899fff5299ef205U, 0xec68071c27f520f5U, 0xe0c0e8e4bcdf7ff9U,
  0x548cfecbd3123447U, 0x1b36f7d60442081eU, 0xed0116d3efe5df81U, 0x2748b5cd23d92e4aU,
  0x21bd7fe5e60b4b13U, 0x46f8e71c01f60bdcU, 0x352b3c00eaf9cebfU, 0x40000000315a74c0U,
  0x3e8bb30035adb380U, 0x4000000040000000U, 0x38a4ecc03f5d1480U, 0x4000000035e81200U,
  0x400000002ec6da40U, 0x37251b8040000000U, 0x3d6f884040000000U, 0x31918d4040000000U,
  0x39b399003f826f80U, 0x3851828039fa0ec0U, 0x400000003fb5e900U, 0x4000000040000000U,
  0x31a92c0040000000U, 0x24d626c03db80f00U, 0x32b97b0040000000U, 0x30ebf28040000000U,
  0x35dfe4003d891e80U, 0x4000000040000000U, 0x4000000040000000U, 0x377ed2003c691880U,
  0x3cff9c0040000000U, 0x4000000032942900U, 0x4000000040000000U, 0x4000000026cd4100U,
  0x4000000040000000U, 0x3b8b698040000000U, 0x3780350040000000U, 0x4000000040000000U,
  0x400000002caf3540U, 0x3cc220003243c800U, 0x3913db0040000000U, 0x2eaf6fc040000000U,
  0x400000002d1c2400U, 0x4000000040000000U, 0x2d3cc8002e732400U, 0x3684748040000000U,
  0x4000000040000000U, 0x40000000388cdf40U, 0x339a9e8040000000U, 0x2e933c8040000000U,
  0x2850d0003f7a3b00U, 0x400000003ff56ac0U, 0x3fcd7a802de83740U, 0x4000000040000000U,
  0x400000003b76f100U, 0x35871e802f2a9a40U, 0x3740da1430ff9280U, 0xf5e03000053bb231U,
  0xd307132a74e8c8d1U, 0x336403fd3f3efed4U, 0xbe150079810625fbU, 0x9ea8fd1f3ff9f4d8U,
  0x21f6ebd4aeff1627U, 0xe74f1b08ef1abda4U, 0xfeb8d56f1a10f832U, 0x76f7fc2139dde433U,
  0x706d00c24e1b28cU, 0x32cc28f9220537c4U, 0xc9d52501c226c484U, 0x2d163c57d5f6453dU,
  0x13482922ef7f06edU, 0xd4dc4125cf00f7ddU, 0xb8932f2009e8fbc8U, 0xff424b55b0ee7baU,
  0xc5f2e129e5050b4cU, 0x1fec0c28760ef21aU, 0xe5f1155b3acd450aU, 0xcf22f46666e7bf0cU,
  0xd9b0b8ed95f3e6f5U, 0x4f33d2fd415b0119U, 0xe32dfd1f34a85625U, 0x3ef1f52e35fe2ecdU,
  0x7f8f22631f7c3d4U, 0xb59ee4fea1fb2cffU, 0x1ff304e80e3d72b9U, 0xd656b4b8b5fd3af9U,
  0x1e02efe62b19f10dU, 0x371617ffe40c18deU, 0x94a9f42ef1386227U, 0xfd195827e7fd7ff5U,
  0xd6fd63b32bc85835U, 0x1ae9ff2540081413U, 0x1f05e31c5116c516U, 0xe62e1cec42bfe110U,
  0x2fc6de0712cc257cU, 0x1b9cfa280429ff06U, 0xd50c060ce69206e9U, 0xddbe5ae260dc51bbU,
  0xf2b9b4f13a1af6d3U, 0xfb163cfa2f42073eU, 0xff1ece281c4b4fcU, 0xfd43197df03f3045U,
  0x2a05ed515309580dU, 0xe3c50823fe0d351fU, 0x812af0ceed0b4050U, 0x343818aef4d8a2f2U,
  0x34261fdac215ecc8U, 0xf81bb22524a56d00U, 0x1bece6350c0af0fdU, 0x1a49064317969accU,
  0xcb4635020af3f71cU, 0xbf4331efeed01deeU, 0x5cdf331ce0df20bU, 0xe301181b42482109U,
  0x17f202fb6cf9fb08U, 0x2be9d9fac33a04c0U, 0xe4f319e5091644ecU, 0x3e34dabfe6cbcfU,
  0x83222a101f43c1ddU, 0xeef805441efff981U, 0x5bf2eefaf12e1ff9U, 0x250337b53202fc05U,
  0xdffaf2f501ced711U, 0x1dbe27f900f4da14U, 0xf9ade224dc13e817U, 0xde24fceee2fd26bcU,
  0xe7f03df9ec301be9U, 0xe72f0d11091b14d8U, 0x22c73f30caa8019aU, 0xd9ef2519f9196142U,
  0xb8ccefd1811ae63cU, 0x7182c36eceb6d5ebU, 0x3d992f6a42ebaea9U, 0xdf18834130c50fd2U,
  0x8fb0e28ec141cefU, 0xfe23221d2dc80426U, 0x6b0cf738dd08feeeU, 0xb1f619e12d08ceb4U,
  0x47114026dedaca31U, 0x444226003ca3300aU, 0x81fd150b198cc31fU, 0xdc3e77b51e00e5d9U,
  0x440a09631de5c40fU, 0xe00951e1f3e3f000U, 0x2505eef3c73423f8U, 0xb839f5f5a3f9bc2fU,
  0xf82ef407f904ae39U, 0xf3b0ac3071d1cecU, 0x33fb72931433655U, 0x2ef230b724de1829U,
  0xe4deee35c827df1cU, 0xad2f42c42318eb2dU, 0xf4f9fe26e81532e8U, 0xf306c4020ab0d3e4U,
  0xaada2cc029512c1aU, 0x24352c370ae2cd07U, 0xf6d004a470432329U, 0xbbf7b9c9a20c6bU,
  0x121120f5d318c96eU, 0x2420fbeec616fe1aU, 0xfceee3560eec1441U, 0xcab7dcc320bfa2d5U,
  0x20e4b408f76d19fcU, 0x233fbd0011fd81dU, 0xf23d7147f85c9b2U, 0xd19012aed33273dU,
  0x2c3bc8e4d32d1d19U, 0xd0331c337fcae1b8U, 0x199ee3401f080f3bU, 0x20bf2df1fbe7b943U,
  0xda03031800f216aeU, 0xc912c9cef6d4621eU, 0xe312c9313ceb2209U, 0xe5f00018e3ca37e4U,
  0xafc82340f019ca11U, 0xff2ef2ba080d081fU, 0xb4cf21f4534133aU, 0x115e4a0d3838ffc5U,
  0xfc1ae203e235e748U, 0x28140ef62f00fdc4U, 0xc40d4308b4d7fa34U, 0x1213311bce5ae3a9U,
  0x15da6bc908ded9d0U, 0x1f041907c7fdc6e6U, 0x4812e25e50ddeb0U, 0x1bfbe7ebd7379207U,
  0xd726f4a8b3d6e725U, 0xb31b9fe8f8f19252U, 0xefffbcad7afad1a4U, 0xbedf81d7e817314dU,
  0x3b2cfffe185c1ce2U, 0xd02338065812fff8U, 0x6a1c17d6f0d12735U, 0x323df5f01de07921U,
  0x1deee3eeeef502f1U, 0xa7105adc574536e9U, 0xa3262ac942eebb0aU, 0x3182edefa20ed1aU,
  0x274337eff8b9f2c7U, 0xe667d0f025fcd2a9U, 0xf303fc3719f2e7dcU, 0xeb8edbc543d2ec0bU,
  0x202668f7cc1a5df1U, 0xfb0a11202228faf9U, 0xd4e3e22114dc0a25U, 0xf855011135ca1b03U,
  0xf65423d0fc1c0ed9U, 0x5117a828a05036b5U, 0x7c8ebf6fbc70bf2U, 0xcb277a04f2e011aeU,
  0xdc1827c707d4cc45U, 0x16cf81f116464244U, 0x1dfb131c399f50c1U, 0xe127e14df52262d6U,
  0x5ef27a807bc33f3U, 0xf3ed5d25125228e3U, 0xe9d619c50f46f981U, 0xd019ab0d41431c2dU,
  0x26c70b2c0426cc35U, 0xc624dbda0efdd6e9U, 0xaf20d6ce5c2ddce3U, 0xfe3302f3d0d6fdbaU,
  0xf38f75fcb4f79f28U, 0x191c2508eae1ad2dU, 0xf5a95dc334e3a5d5U, 0xb9b126d1c97c81cfU,
  0xce1cecfcfdfb96faU, 0x1c4c08034b61ecc3U, 0x2061fd411e9eff2U, 0x139a1b15ccef001bU,
  0x607f0b8fa26ece4U, 0x24eef7efe154f810U, 0x20c8f8c2c4e6fbc0U, 0xe00e342de3020901U,
  0xca0dfd0c140c1d1fU, 0xf0dbeb180800ad3bU, 0x3ae7f93c187ebb1dU, 0xeffbf821e9eed2a7U,
  0x3de7672206f2ebc8U, 0xf1d43a05f510d513U, 0xf1e3b08d540bf11eU, 0xf5a8ebc8f0d6ae42U,
  0xeb400ed662d5ffe9U, 0x1a753e050969f117U, 0xa4bcd654e850010eU, 0x5dadae501defeeaU,
  0xe120fbe8e830f47fU, 0xfdcef826e5f59709U, 0x22ec8fb5cb93621U, 0x9bff0dd383a20e1U,
  0x8f2f509aae8b8deU, 0xf93f04067f3ad1f0U, 0xfd0df7e13f1ac22aU, 0xd12a41351e1539b5U,
  0x3c0be9cddd43a740U, 0xc612e2d1f32ed41eU, 0x2f5ff141e15eeb9U, 0xe93fe5fd0acc0502U,
  0x1e17da1ec1ebf53fU, 0x1beb1be1fc12fa1dU, 0x331de3ecd9edff0fU, 0x1a89ca631b1eee71U,
  0x61302cbf721e40cU, 0x255a09dd06c01d36U, 0xd55d313b0e01fcbU, 0xe4f1ec3fdce7ecfeU,
  0x19e9ed93b7cc6953U, 0x3020fdfa4a200fedU, 0xf0e52fa724215609U, 0xcf2a0c0e4e259c31U,
  0xf9fcddce1f2f1adcU, 0x717350bdacdf7c7U, 0x9c57357f81b444a2U, 0xd50e351e04e01b4cU,
  0x3ccaf58b47eaff0fU, 0x652202d1fd0a3f23U, 0xeddc2b5408e2fbabU, 0x4ee8cce20f2dfb01U,
  0xc1de1abaea4b0658U, 0x1ea0910dd27b57fU, 0x232c25233b18afccU, 0x12159edaab5bc20eU,
  0x47ef21c89fe3bf2fU, 0x7f5a6c50835f8eaU, 0x25101af40bf8fa28U, 0x81f034ca110edfbeU,
  0xfefe94f6effe24d9U, 0x8d7d051e3233ffbU, 0x351a033555af04a1U, 0xccb9e1e1f8d5e68aU,
  0x1cf6e824f5f1ea18U, 0x1d23ee033cf75b3dU, 0x2c1491d25d0c28e1U, 0x25130af53203a606U,
  0x1b2501e0e91825dcU, 0xc29dc1c3adf42d11U, 0xd2a4fb0ebb6a39c4U, 0x3add25effadd04f3U,
  0xfbb7fc08e849023cU, 0x172f182a3cf6e526U, 0xf3e81d025b1002eeU, 0x3803131511e419dbU,
  0x1d1fd00107c8f8f5U, 0xde7ff2c0c8ec390aU, 0x2df4322500ea5d0bU, 0xc15004fedf153c1U,
  0xac2e0bd75708dbbfU, 0xd9312ff8bc0722deU, 0xd62fce160d0a10d5U, 0x1b11f8c113014020U,
  0x54572b830ea7b720U, 0x3b0b3e05f00c1f81U, 0x1bbb16f0152ae8deU, 0x1cf14522d466fd2eU,
  0x122921551a040dcbU, 0xd1250beadaef38dbU, 0x164bf72316f5f709U, 0x9fbcfddce5fae00cU,
  0xea1ed0d3eb2123ceU, 0xab39d52ed2bc17e9U, 0xef61ad23931b2c9U, 0xe4b730200343fae1U,
  0x11f118b7c210dae7U, 0xe54b0cdbeae705fbU, 0xdbe6eb01f95cc1f6U, 0xfedafce3e81030e3U,
  0x1101f329cb1c15baU, 0x16e6d6b76ca932baU, 0xe11446d1e7061ff3U, 0xefe1a9dc022a2502U,
  0x13fbaff6812caedbU, 0x4d0c05bef8d6f1e8U, 0xafd702ff443c30fcU, 0x3ccb1b164f09dbb2U,
  0x8093216f5ad0224U, 0xdb0dc92a6773ce04U, 0xfe9cde4618c334e5U, 0xf71f1ec0f333cdd7U,
  0xcc3d10c804f80655U, 0x7f181fcac7ce7bfeU, 0xfd43e2d4af3b7720U, 0x4e2a654ae9f5a905U,
  0xb02f5db3c71fc2b9U, 0x5b734733412cab3cU, 0x18fa5012e2f1fed9U, 0xb7257fc9b22db5adU,
  0x29eae8e117faed12U, 0x1bef5113c22d02f1U, 0xa8c234f02dfbe257U, 0x28fa09c2cacf0c27U,
  0x1b1f9116362fe1f4U, 0x19ee2829120f1af7U, 0x1f40ddc9752237c7U, 0xd516c115a908070eU,
  0xed41150f09f8e1d3U, 0xba05fa34ecd0ee02U, 0x2d036cedf0faf31bU, 0x1eed13ed9be62a38U,
  0xf4c50cf1c0d7f929U, 0xa17e70703e9d1c6U, 0xbfe94824dbda0614U, 0x35412bcdbb1034f1U,
  0x1ef52e4a93e00e09U, 0xa912ef09e93ce8fdU, 0x7f17142827e008f2U, 0xba3e1303d0f10e13U,
  0xfc48f8e5d902ef31U, 0xe5fcae1ad9f90b29U, 0x340712fceaf6f2fdU, 0xb9076655df33ab1cU,
  0x4cd53c371115d918U, 0x937fd63fb00280eU, 0xba04a5d24718fc08U, 0x1259b418da2f5476U,
  0x140c96332d02ed2eU, 0xa0dbdba4f02701dbU, 0x25f6c016f6e913feU, 0xce0952d05500ed12U,
  0xce7f48a21ecfc74eU, 0x48517070bd6d237U, 0x41a1f1bec40f00cU, 0xdf08ecedf40f32d1U,
  0xbf2a43e61e33031cU, 0xc0945c7d8c0211cU, 0xfce30cdf6732e51cU, 0x1001d6641122caccU,
  0xc007055819f0f238U, 0x19d61219e1d266d9U, 0xc9f8ede6fca5c1d1U, 0x5e90bf701f52281U,
  0xe9f1d3ef69b40ee2U, 0xaeeb28ceeff61456U, 0xa7fac8f10e331901U, 0xd0d41f0bef1318a5U,
  0x3ca313b329d23a06U, 0x5ef312efaa3000eU, 0xdc4715f213b9fc12U, 0xf019edccd3ed0e04U,
  0xfc81e3e417dadfdcU, 0xd1d61f12dd34caf8U, 0x20f0f306f538b153U, 0xc62d3205060b08b7U,
  0x1e1ae4c667ce3428U, 0x473c01e90b0bc634U, 0xf5d6bac84dffc8beU, 0xdbc3c5d0c926210fU,
  0xb04bc6c5ab37f73dU, 0xf12fe5b60e3a02d5U, 0xff2ad30109f340bbU, 0xbfbd04fde216a3b4U,
  0xf7f5dcf60b16d5d6U, 0x17f0fd2c400a1f3cU, 0xeec2ed013f8d701U, 0xffe715f3d6153bb0U,
  0xc1072300ccdb153bU, 0xcbfb04f8e312f840U, 0x222505f2810d02acU, 0xcc12d508c9da130aU,
  0xe3cb03f0e7e9c43aU, 0x14f110f6811dc5c5U, 0xdaaff51fde5cefbU, 0xe4d9cf0200fbc306U,
  0x1b372316b541faf2U, 0xa81f1aef2817ece5U, 0xd7fc29b530eb2100U, 0xcec82626f816d610U,
  0xffc329581526c9fcU, 0x51f25e7e71de3e5U, 0x33652509fad735ffU, 0x54b1c20f64d0bf3U,
  0xf5e3fe050408dc32U, 0x38c0270a18e5010fU, 0x5ddeac9030cfa02U, 0xfdf5423536b1d981U,
  0xd6f9e4ec5d38c9bbU, 0xb0f72d36ca088b10U, 0x1235bde0f91e2ffbU, 0xc0d1ca0a4fd53606U,
  0xe60c10e9c8b76b06U, 0x3fd7ef37121234c6U, 0x2cf11aff28edf9c7U, 0x1cda0e14ff07253bU,
  0x5010e245f3fce4e6U, 0xec6905ff9ef5249eU, 0x8b9302512640c7f8U, 0x475e134efbdefcadU,
  0x55ac4edf39c08d3U, 0xeefee83ad0a32522U, 0xf0ee5e2fb81a07d9U, 0xc764fdfa640d695aU,
  0x32ebb4fb12ba3df5U, 0xdefa0cce1406e7d1U, 0xdf39e485251a8191U, 0xb9d8470107155eecU,
  0xded7e33c1915f9f9U, 0x52180a17ef08e9ebU, 0xceb3be4d2343f9fU, 0x5dddd62ce8f2fa4dU,
  0xe446a4fed96bea0dU, 0xc0dbd6fe48a9f31cU, 0x30e20decc4e0e5d0U, 0xcd1ae603f526fb0bU,
  0xd2e4811520e0f6caU, 0x1c331df3db75f001U, 0x11d234f916712848U, 0xbfbb1b18b00c1b55U,
  0xd771484ef8b3c9dfU, 0x42f104f77f3df53aU, 0xdb01f4cac7def53dU, 0x1cefaa57c807f093U,
  0xd1431417f413ba3eU, 0x111032bb1c2c3cddU, 0xefac58c40d49dcbcU, 0x2b21f1ec9917c007U,
  0xc9ec34acd100f5fcU, 0x1cfc1046e2c2e3d8U, 0x20d2ecee130ede03U, 0x19e4dfff2710b7c3U,
  0xfe23cf0b26e8b9f5U, 0xcae4d0d625c4d20aU, 0xaa1a0aca17b43419U, 0xedd643e2e9b001f9U,
  0xb9161222e7daf2d8U, 0xf8cbcdfee3ba3a01U, 0x55f3ee8130b6a8f0U, 0x1bd333ed101cbd3aU,
  0x211ff2061f0d0a39U, 0x115fe95a1c5aba34U, 0xdee0d43b1c08eb26U, 0x2afc1cfdc1010f07U,
  0x31e93bb3d631dcf1U, 0xd120401b14efee0aU, 0xa7edc1e1d9326914U, 0xdac6e51b3e9d32ddU,
  0xcdfb2b5607d21b23U, 0x3016fee1c8c0350bU, 0x1a07e9cbd9034729U, 0x77e11127f54ae2e6U,
  0x1119dfe3210a15eaU, 0xb4fde7e802e61781U, 0x3092220ecc50d0eU, 0x17d1fdf4dfdfe39dU,
  0xbb26d4ead704faeaU, 0xacf30fe1e1e22c0fU, 0x1ad43fe8c3e95cd9U, 0xc2bc0812cec1fc51U,
  0x4fa1095c427b1d9U, 0x43f8c23df4e1fcc2U, 0xf0f0ccf2007f1d4bU, 0x4109f1b1ddeecee7U,
  0xc02a1be747fbfefeU, 0xcef9fcbac500b722U, 0x31de01d2131e092eU, 0x3f1ae8e002edfc2dU,
  0xdf43f2d728e66097U, 0x38f804e719e2f109U, 0xe5e7d430d02919ebU, 0xad3a2e9d5f9dff2U,
  0x56ed2024db05a1e4U, 0x300f4e1d292ed720U, 0x1904446b7fddf9dcU, 0x50b4aa4f12e108fdU,
  0xf3400b23b91316c7U, 0xe2ed0b07f6450b67U, 0xbf6fbce43f9dd21U, 0xccf82b3be20a3bf8U,
  0xda2a2020e9dee681U, 0xe0f10f1647ed42f2U, 0x4623561c09f4e4d4U, 0x702e1071556d84eU,
  0x29fc16d2491e1edfU, 0xd9f91150cecbc5e6U, 0xb7f810eaf50bd81aU, 0x501d4015f9083bU,
  0x573212cf37b804feU, 0x392bfaf7344ae70dU, 0xdbddf950e5dfabf1U, 0x84f4167ef6ccf72bU,
  0xff0541182ece92acU, 0x7fd6b609f2ebf304U, 0xb4c9e62addeafc27U, 0xfabde701272e3212U,
  0xdfd606ee48201c3fU, 0xdc03e80725d61439U, 0xc7174ce0ebe4f15cU, 0xeb12f2b306c4d52eU,
  0xeeef371128e86519U, 0xc1c5e4b7ddc62f18U, 0xdfa7d91497e904f2U, 0x3e48dec032f2dbf4U,
  0x71e7d1c0f60d7fceU, 0x87dec2d1f40de5d3U, 0xeada0370bead22ebU, 0x13ef3e3ec7bec833U,
  0x8f1f5d256bd8231U, 0x159eb06ba5eb6a6U, 0xce5f16033ee807ddU, 0xee2514c9f2f2caeaU,
  0x135b191de24141e0U, 0x72c41458f2e613eeU, 0x4119f0e514ccdccbU, 0x27b222273bbcece2U,
  0x12e6102da00cd7c9U, 0xbf0c21e9f730f906U, 0x447490b7a33f2ebU, 0x233ddc7ec3bbf08U,
  0x266e2efba89e230dU, 0x401e82dff125f0cU, 0xeaca27b6534ef143U, 0xe0d322de091f1cd9U,
  0xf2d0f8ef0ca7ce0dU, 0x19b4ac559f2b28fdU, 0xbc06e9421b1181e4U, 0xcaced94e1ac201ffU,
  0x23d3f64bf7c50311U, 0x20172417e0ed08f6U, 0x4c954bc12f428f2U, 0xfa53d21f0d3cda9U,
  0xff1031de2ebb21e8U, 0xf017fcdd29db3fcbU, 0xc133f181a3100ffU, 0xd503d91d081dd341U,
  0x1ff20ee912f29ff2U, 0xc6450a44f981facbU, 0xf5d63ad20d07f106U, 0x39f836b443117fa8U,
  0x1fdaecf30350e524U, 0x2dbaf8d426592bfbU, 0xf6e8c904fa32f0ebU, 0xd1b61d03e80bb904U,
  0x30ad01ef32ced01U, 0xfb2a23dce731f4cfU, 0x2efafc382b020c25U, 0xfa5534fffbfc0304U,
  0xe507dcf73f15c3dcU, 0xe7d7f4bcdc5229e2U, 0x9ce1bd6e832e618U, 0xe550fb9ca3e55b14U,
  0xecb2e455c0ebe445U, 0xe0447f15476eddfaU, 0x1fffbde4f5e019aeU, 0x8c4f3bdbcd9cbe6U,
  0xebbaaaea4696e0e8U, 0x2be3b5b00d241ac9U, 0xbd0910b27418dc52U, 0xffda2d3ae145bff2U,
  0x3aad231fd4d68d3U, 0xec220e5e1304e6c8U, 0xeceb0c3825df1775U, 0x29060263260bc91eU,
  0x623ada0a100ed42bU, 0xfec62de0cf31c71bU, 0xe1e5f7deda18d401U, 0xe6560efae52ff146U,
  0x36d2fa040c0d0a17U, 0xcc19eef1034b04f9U, 0x260bd0c41ce20207U, 0x12e6f01a0ad6df04U,
  0xcbfef7fa17edd27fU, 0x19e8190d1affa43eU, 0xda50d4112211fcf3U, 0xe4f62dcfc7125be6U,
  0x100116fbf5f9ca09U, 0xd2cf413b0724e21cU, 0x3ff9b592121ac4eeU, 0x39b924decf0400e2U,
  0xb3d5fb0a29dfff3bU, 0x9f6f72c260de8f8U, 0xf1de240f0352fc17U, 0x2119f433c4d0a435U,
  0xfcbccb0d2f0fe250U, 0x31e3ccf838d1f0ecU, 0x15512f4481b2eddbU, 0xec13e033e11ed713U,
  0xfcdc2d3d1e12d2d7U, 0x70a0cf4bdf33913U, 0x434ebb5016e8f512U, 0xdae0e7e24b021bf2U,
  0x36fac1eb04e3fd99U, 0xaaeb33cbfbc62fd9U, 0xf80b22e913f6edccU, 0x2481dde4f64d04ecU,
  0xacd1200c0e3e15d3U, 0xf2e754aab00d2ff0U, 0x380cccb5dc46fed7U, 0x22d6fcecb5080aefU,
  0x480af1f12efefc00U, 0x25ca0522f2ccf07fU, 0xc8fb3decf5eb3b41U, 0xe23a61214cca4f1U,
  0x2f34432cda2be124U, 0x21c00bbdd1d7ff0dU, 0x641e561406eab200U, 0xcb03c2cc063b33dbU,
  0x4450c8defcef5a46U, 0xfcf2c92ce7fb0105U, 0xf1f52627f8e5fe37U, 0x191af76245bda5e6U,
  0xe9e2e7d144e02b25U, 0xcc05e4e5483037e4U, 0xbc19b62e07241507U, 0x637390ba42ef37fU,
  0x17e485bae804dfb5U, 0xb4e7fa11f0210b0cU, 0xf7fd0a3e50f8180dU, 0xfe06d3a3500db606U,
  0xbd14b21ad416e7fbU, 0x250628e8f3f94003U, 0xe01c116ee5e22b3U, 0xca60402717d8d8fbU,
  0xf1ebfefd28f1e7f7U, 0x31f38fcff02db30U, 0xd3ff2ffbc2087f30U, 0xf900f1fb1c15bdb4U,
  0x1b3073271501e004U, 0xdf0c24c825d40e54U, 0x5ac523eee0c1f9f3U, 0xf74017dde52619dfU,
  0xed41365cf022c193U, 0xd6e318ef00f13de7U, 0x14cc1e21f3cc6fd8U, 0xdb20cb7addace6deU,
  0xf6d1d4e133cbdf46U, 0x45e20f38f2163717U, 0x46262de3d8c0302dU, 0x18582a3f38df7cf2U,
  0xea0bf14cdf03fd0aU, 0xa42d62617153ddaU, 0x2809abed3c2b2118U, 0xfbfcf1c02818d6ceU,
  0x24305e043422083aU, 0xe70ab0812cf0e329U, 0xc9fd1b69fedf2cfeU, 0x2614f6cc000cbc71U,
  0xe0072cbce2f7f5e6U, 0xd61640f3fcd1d60dU, 0xcac43337011c200fU, 0xe2d9f42b1298e700U,
  0xd82cf23c4515e20cU, 0x2625f704cf2ae9eeU, 0xd50581e6ceff1df0U, 0x52d61a15490b1cfcU,
  0x2a4d141fe43de8e4U, 0x830e5e706151cf7U, 0x5fcedbf82eb9e50aU, 0x1a4c29337f6503e5U,
  0xee4ebfece1e9eb06U, 0xbc05ef4405d8cbc2U, 0x22f1133abf0a1df2U, 0xfac632e71b0733b5U,
  0xe8f8e64ef103dae1U, 0x24d9d6e2f60cd841U, 0xdadc3b31eee81c4fU, 0xe000ebe1af1e0ea8U,
  0x1fd602dfe0ecc52cU, 0x2bd8f1ec1d0dff15U, 0xe922eaf80c000c33U, 0x5929531f4ffcbe02U,
  0xe8df523bcb66fdbcU, 0xfd0e0d19ebd1d8ebU, 0xe0f25cdfce03c10U, 0xe8ae7ff50a1adbebU,
  0xa705092eeda60cebU, 0xeaa73305edf7b20dU, 0x118cfe1ff4f92d3aU, 0xa18a3109e4fb2a1dU,
  0x1b0e3bb913165f09U, 0xfb14a00e63121c4fU, 0x34fdf82a1ff41222U, 0xe9cb054d1014fafeU,
  0xf4bed0f3e10dc22bU, 0xe91ff4f028d9291bU, 0xe9d4cded4524e222U, 0xd3fd25e309211b30U,
  0x3fd2e4558ccf313U, 0x1cd416e7c30728eaU, 0xd3bdf1bb81f4ef2eU, 0x5ff9f6e613fd3133U,
  0x10cfab03f717dc4aU, 0xedb83303ee251b2aU, 0x24e8ffcb2cddccU, 0x21ff0a8ed4d0716U,
  0xcae07d5c8eb5fa0U, 0xf5b7dc2006945c03U, 0xb04a6d33127c952U, 0xacccf9fbcbea925aU,
  0x37e612e5dde531e4U, 0xf53aff204a0132e9U, 0xdbce7d09fa97fbe9U, 0x5cd1814dfa28c9cbU,
  0xf1fd92d11a379f00U, 0xad413700eb1e4a5bU, 0x5e1de92f2eeb1f7aU, 0xb9beeeff61e7fU,
  0xe2212b0ecc222936U, 0xc7d7455be6521f14U, 0x30f2baec3dd3162fU, 0xa585cff80bee0015U,
  0xd6ca38ec3abd63f1U, 0x187ff3e772280933U, 0x303dd80f43bb251fU, 0xc7007d912cea4253U,
  0xcf6f3b00c42f3f9U, 0x2f98ce565a0d1ebaU, 0x17edd23afcca37f1U, 0x1a9ef13505de39c8U,
  0x17b8eaca1586e0f4U, 0x17e30ce4fa1cf90bU, 0xd8c4f145d71b1cf5U, 0x164521c913cf49e4U,
  0xf6f0d9f8f9ec3af0U, 0xea2adc5ef829fa00U, 0xd9e9f9a724355012U, 0xcfb310fc7ebd113U,
  0xc75ce908f9dc3581U, 0x56e6bffa0510191eU, 0xc8db2523c2064206U, 0x13ee07e2ee23bef1U,
  0x4520f8e7cacd1aeeU, 0xf11e5e05d307fd14U, 0xe84ed70e1fff5d28U, 0x3b2e3210ff8113f0U,
  0xfc180a115bcc17f3U, 0x4808d51e154447ccU, 0x2e182e370420f71bU, 0xc8c50206e8f33130U,
  0xd9070410fb13d22eU, 0x260c3e18e9fcb4d9U, 0x7f5a472a2422d5d8U, 0xf1faf9dbb7cd36d4U,
  0xe6ea20cfb1fc5b8cU, 0xf93f6633f91add7fU, 0xbebd273315f1f4d2U, 0x1d529ae732cf4138U,
  0x35485e5bd111160U, 0xd309fd38dcf210ccU, 0x18141d2f2b1d7ec1U, 0xe6ece11cbfcb14c2U,
  0xe22fcc1de133d7f3U, 0x1a0118c9ff46180eU, 0xd4cf07ec2ef9bfbaU, 0x1540f0c0163c110cU,
  0x2509060909badbU, 0xd9d11f3a1d49ccdfU, 0x8dbc4697eafef8dbU, 0xb0d5dff1d730e465U,
  0xe3f2eadaf836f729U, 0xd48a7d8f3004f1f1U, 0xc0a828140af92f0aU, 0x2e277f32d5dd43daU,
  0x4ef2ab1e10ef6dfU, 0xf557dbbb11cfedbfU, 0xe527e750ea1023fbU, 0x3be4eac827b0340bU,
  0x1f22e9c11407d3a0U, 0xd1ec31da216ff605U, 0x1d052032ea197fd2U, 0x29d9f4c8f539da48U,
  0x572ae1f1e91d0327U, 0x4017e6d0eacaad01U, 0xfd21d1de13ea0819U, 0x16db1b9b0d2d5cc8U,
  0xe72c8f3eb1d6033eU, 0x18e2fbff65e1e0c1U, 0x1fe9405b22d7cbf7U, 0xbf214c2928d38105U,
  0x122b082ce71ff428U, 0x3f9d09ff79f4f5U, 0xdaea32f74ed4f71fU, 0x31e119d41e0ac7d6U,
  0xe8f9db1131ec0f20U, 0x32f54dab90d0b02U, 0x1c18352ef953f3c9U, 0x58fff421c80ccf10U,
  0xcf45ce11d308f81eU, 0x9d0dce40730201cU, 0x2de108bf1e3ce7ebU, 0x7728382c24a3f6ffU,
  0x2f32c70a86d6f739U, 0x58bde7f52ddd7b4dU, 0xe0130a05081d2800U, 0xc2fe8fdd2f678eaU,
  0x3c1ced29050feb7cU, 0xfb05312a24f0ed0aU, 0xcd522f1a224dd5e1U, 0xf50ff3d0ef1cd4U,
  0xf1b30c57f515c8c7U, 0x6bcbde3cc50e7fcbU, 0x3bf94aecf094e140U, 0xb30c06e6a034ede5U,
  0x35f91310d60f04d9U, 0xfaa6c6cbf10cfe47U, 0xe2dfe32226fde8efU, 0x1e5de5baf76204e5U,
  0xd504135aeb3c14f3U, 0xc615b7443afcc4e8U, 0x21eec7e3041eebf7U, 0xf2ef2405da1d310eU,
  0xe5ced818d7c37fffU, 0x17eef716e7471b1dU, 0xe7b81ffd0115093eU, 0x5b68db160023e70dU,
  0xff02dfdcfc2c33c8U, 0xebf844cbed293ac0U, 0x441005121f0cb538U, 0x30e351c920fb60d1U,
  0xc53000a112eaae2U, 0x38511209cc43d507U, 0xd9d523b4fdf21320U, 0xffd820fee418ddfdU,
  0x21f856d5d6d8beafU, 0x1cddd2155339147fU, 0xe7ae0b03e2f801efU, 0xd7ea18b405eb5703U,
  0x32f52722fed504daU, 0xe0a6d231d1e2cf81U, 0x51f3ea21281115f0U, 0xf1ededfc1a5da61aU,
  0x2c4b39f8eb410fcaU, 0xe63c3a0601e73cfcU, 0x83fed140c0c13d0U, 0xb61e261c1705cd01U,
  0x3ce25f5e87a1c07U, 0x1cdb1bea3dd3031dU, 0x19129f3438180cfaU, 0xdded14ddf80a6205U,
  0xcbe626196edb1a20U, 0x37252cfd0df512d9U, 0xf6dec158931f2242U, 0x40e20a0153e7607U,
  0x1200ee25f9c1a4e9U, 0xafffc2e6813ce8bfU, 0xf8220b302c100332U, 0x47ddcdfccab7c8f1U,
  0xf19609de1706243bU, 0xe8098bbf313f2ab4U, 0xf4cd421b900cdad9U, 0xf904f5e3b5282126U,
  0x15291721a9ac067fU, 0x242ad1410536e315U, 0xeae7ec0b1ee23becU, 0xfd5df3440a3001afU,
  0x4eff7d3f12dfb22U, 0xdd250b2a27ee5c13U, 0x19151e163561f8c1U, 0xfa191833021abedfU,
  0x7a0d16f8e2e91e18U, 0xc8dfcdead2fc09c6U, 0xb6810b15f836da45U, 0xe53efb060ad527e7U,
  0xeb190d042ffd01e6U, 0xf5b3e9480652decbU, 0xe4e7f5dfc2e738cdU, 0x118d8ea07c7dcbdU,
  0x5b22fa09b7d4e70bU, 0xccfaf5fba2f0ea3bU, 0xf7072809ac2a2e41U, 0x1518e649d4dae8d8U,
  0x122bc0bbd1e76ca4U, 0xb503edf112c619d5U, 0x40316f5f4d3e8c6U, 0xfb13dd2ccb4ef057U,
  0xad131d3f7bd0b12U, 0x1c1cd317d3dfd7d4U, 0xc2ae0506e84efad0U, 0xf1c6ab221cec0a81U,
  0x712d041bbddcaa83U, 0x3ec5cbf51046d50dU, 0x9f11fdf2e5cb3109U, 0xda30050f17d50d53U,
  0xd4e0f4d6dba12a01U, 0x149407a5621002f8U, 0xb4aedd39f0fbf927U, 0x2b3a1da5084cfffaU,
  0xfcd14f172ff3d0e7U, 0xf2332faf11cee6c4U, 0xe421925fdfee924U, 0x15012aea0d193109U,
  0xd0f918493f36d7d2U, 0x34f42022d2cb1ca8U, 0xf825cd1cb9f1274dU, 0x45503269003b46ecU,
  0x4f0de4c04e12ea9cU, 0x1fd0e631816af8deU, 0xc1fdc8f5c0e7f7daU, 0x172727f0ca061809U,
  0x20ede4c4bb2624faU, 0x43fe08db11fa400bU, 0xe7fd14f6bd70efcaU, 0xf31b09390830e200U,
  0xe502e1815bd4a6f5U, 0xa1041d404ea3a1fU, 0xe5b52af80bf6ddfaU, 0xd02b5ecf22643b8U,
  0x3416d1e9f5d5e116U, 0x30fed3ce1402fc17U, 0x5b140aeae3bccdddU, 0x49df34ed1c19fb1fU,
  0xfd244a06e181fe10U, 0xf9e616e61c16e3f0U, 0x48fb34bf9c9bbb41U, 0x1746f8e7255669bbU,
  0xf81d0fbb03c1f5ffU, 0x9e2b3813149b583fU, 0xcecaf268c2fd1157U, 0x20c32e321b09dca5U,
  0xcba5ec3be3e8adb7U, 0x31f7c110f713d1eaU, 0xb30057f0205b20bU, 0x17d0cb3dea541ebbU,
  0xfea92a0fdadead09U, 0x2afd0316e4222113U, 0x110f060f46c207f1U, 0xf932fe0302fe2be0U,
  0x19fc3008e2110defU, 0xe9e70a7821e103ccU, 0xd616061f4e4e251dU, 0xfb3bfbeec6f60fe7U,
  0x38fddafde5d72003U, 0x1110d80f03f3c0c7U, 0xdb64ee2ed446091eU, 0xc9ed18c9dbdfce0dU,
  0xde510029bcf732a3U, 0xf402d836f1b8d7eeU, 0x1e1bd225f7ecdfecU, 0xf054e7ce0c16ecf4U,
  0x19f601dacee322U, 0xb1fced9c7f7f6e9U, 0xecdd1fef170a0ed3U, 0xc0effef840151af4U,
  0xf31c0cff3eff2828U, 0x617f31cff001819U, 0xc023dd0f16c07fc5U, 0xb8e109ec18163a09U,
  0x918ea202ff51813U, 0x1311c50ff2243b3bU, 0x10a54f670213d25aU, 0x6d1319e08d63dbbeU,
  0x8be7a11cdd2abdb7U, 0xb9cc3474f6e29001U, 0xfafa043c024d05fcU, 0x5ccf244b54280ffcU,
  0x2ed52f12eb6bf83bU, 0x7f77fccd30ef043U, 0xe6bdc11fd129f5fbU, 0x25030fccdf2108eeU,
  0x1b2e06ee00e19708U, 0xfd0a4beaece1047fU, 0xdeef0521b1d8d206U, 0xc653f9154731f8e3U,
  0xd2c71c58e020f4e0U, 0xd8fd050ff09bd8b9U, 0xdc22d03123e30325U, 0xd602e7d8a71ada1eU,
  0x122df63a3438add5U, 0x493dc0219004501U, 0x2631452308a3e0deU, 0xb3cdcfb8574ef845U,
  0x28ce0ad2d9e8ff50U, 0x1a549adff022050aU, 0xd4dbacf4bbc40631U, 0x9ad6382f57c01634U,
  0xb8f5e3b49bc20d3cU, 0xaacac30cec0918e0U, 0xcc229ee93588dbf1U, 0x1917fc0a0eecf372U,
  0xd62cc403d137c8f1U, 0xda4a553a0bdbfb0bU, 0xd5d3a90806f9bb81U, 0x133cdf053f30251U,
  0xfc2794b8d532a710U, 0xadf727c026247c07U, 0xef20f71e13dbf136U, 0x38d2b51fb21734c8U,
  0x40e52142bff3f5U, 0xebbd93f212df24dfU, 0xac1923e2dccf0ff7U, 0xfc0cec9c323232cdU,
  0x274014f340020ec5U, 0x44b44dc781b02ef3U, 0x8eacbb50207d33fU, 0xebcc09fce181ccefU,
  0xe2ff9b1b351bfad5U, 0xe63305dd2fefe4daU, 0x5dfbec09e5fb0df3U, 0xdd0232560b04fc3aU,
  0xefba1406e6e0122eU, 0x8e873585516fd9fU, 0xcd28fcc32dd0e7f7U, 0x3e1d0400d03b2620U,
  0x71eef83139c6c7fdU, 0xa51b1ac60d0110d5U, 0x1136ed0405121ac0U, 0xb717d1f801d60addU,
  0xbffbef4424fdf91dU, 0x20d9defdfc470637U, 0xff2ef8040cf8bdf5U, 0xf17ecb091b142bfaU,
  0xd49ecd2403ee13c8U, 0x615c1e8df0f8f20bU, 0xe3e229030f070910U, 0x2ffc15f404e21beeU,
  0xf1ca00eadb810fc6U, 0xf6461dfc2cb6c7e1U, 0xdee30921d51feb1aU, 0xbb01e518f58103f4U,
  0x110d096102113433U, 0xf92d0e640903210dU, 0xfa5f153be7f1a60eU, 0x70b11d01269da25U,
  0xdeae02b60660f13bU, 0xd2e5bdd2fcecfbbaU, 0xff080434bc070cdfU, 0x41b937292b26f512U,
  0xde844d9672dffdaU, 0xf4ff31c8e127cd04U, 0xd407813fe6e8e71aU, 0x3e0de9cf3e5feec4U,
  0xcf84a70a10d21c5dU, 0xe70104ef08188954U, 0xd5b646f80d500b05U, 0x4cd480d1c1fe579U,
  0x1d91806f8ad101cU, 0x1c09ef1a07fdf742U, 0xa80a20d010fcb5f6U, 0x6013b19dc04c9ecU,
  0xd7edbcb1f126e3fcU, 0x35c33eb8cbf4362fU, 0xb804effb09adfeefU, 0x51420fcbfa51931U,
  0xf51ee0fcee14d1U, 0xc415d7fbe7bc1af2U, 0xf5e29704bc1d00cfU, 0xe306090714e0e1d3U,
  0x3975bc0021489f33U, 0x21fbf12e2b0d4af5U, 0x130b36492cfc880fU, 0xf5d309e7daf1d481U,
  0xcd42e3b123b83413U, 0xf7bb3dee22e3f0f9U, 0xbf3f6e0fcfef7dbU, 0xf7f6ec00030f001fU,
  0xc7ff0cebe3ff1009U, 0x16fc0202e70cf31cU, 0xecfb151100f5d817U, 0xfeeb0df7efc1fb06U,
  0xd00e2d907fe3a01U, 0x5fbe81ff8e309f8U, 0xdb072f08ffeebb1eU, 0xd9d6fd31d902250aU,
  0x20fe1c18068105f0U, 0xf7091a17d412def6U, 0xb3be19813007e200U, 0xf1ca2235e440f642U,
  0x1d164149fa24ffedU, 0x4edfe5ffacddd4d7U, 0xb522282c35fdc802U, 0xd35c0f1cc311d46cU,
  0x4cd4d02021343e02U, 0x26f5f911ed431202U, 0x2549feff619df5c6U, 0x2eb924dbde4d0408U,
  0x6b5fe6ef231daaaU, 0xd9eb46d73422a5d7U, 0xe8d61e2acd900c13U, 0xdd0ce11af8476219U,
  0xdad2f6ed1bf216b1U, 0x80bf5fbf8e2ece5U, 0xb32cd1fcc4131203U, 0xca46172cb8113b89U,
  0xe53f4af4fa21b769U, 0xbc9e018ce9e41daU, 0x3ece4e62506a8f1U, 0xe4bb7fe23fb45d1bU,
  0xd80bd3f50247f43fU, 0xde3ce63f6ac20302U, 0x2a1dee2221d40421U, 0xfadf080c45001f4dU,
  0x4cf72002bdcbb6f8U, 0xf181ea0efcec2037U, 0xdd21e417f00eeeebU, 0x225d054aab14c8f3U,
  0x541e0e10f50dcd16U, 0xb7d9e7e63ef40afeU, 0xfb37d0cb3bdb0cf5U, 0x29e7ca1324e8b63aU,
  0x2230fe0d08fadeefU, 0x21a8ec203d151911U, 0xfabbec4313e10c1aU, 0xeb0234c84cb8e5d4U,
  0xb801ebbc2d34b23cU, 0x2e03102bc0de091bU, 0x2ffaecfac4ade126U, 0xc80bd2dd0fbf5a09U,
  0x5c2c1dce340d2d09U, 0xf9efdca2e581c50cU, 0x11c9a20dcceb2dfbU, 0xa574241d1b1c2e36U,
  0xd1e9d12cccb2b9caU, 0x370428facffd1813U, 0xc1f0f632e5db390cU, 0xdb2ef8d500f5dfd9U,
  0x81b6f6f3dac2b81cU, 0x46ecdd121dff0b22U, 0x29dbcefa19071a14U, 0x2f01cef0c3de1e23U,
  0xdf10bca02f12cffU, 0xf21a2a282d02e9f2U, 0x1304134712f8452eU, 0x18e9b0f2ac00c9d1U,
  0x1319d347f7f8c908U, 0xf8f8e61240e4bceaU, 0xfbd2e5fe1cdad3f3U, 0x630384ab258ed807U,
  0x3e34b8adfb9ff719U, 0xc3e7aae22081c9daU, 0xae0ee615250a00d3U, 0xaf0606eb04f60358U,
  0x2de54ec70a97df0cU, 0x306aa47adf0e2f9U, 0x2b1d2cf2a8132ff0U, 0x672ee5eb297d0734U,
  0x548410791bb0bbfU, 0x342af138feabf2caU, 0xf10f1a281e2f2022U, 0x22d347f2e91a16f6U,
  0x362a0cd2db37e011U, 0x6df090df8b64afaU, 0x33f4f6cdb700e80eU, 0x24f3dcef2001fef4U,
  0xb2f16e4080342U, 0xfeef27f9ef2f0f0aU, 0x31aefd11724eee4U, 0xc707f613fcdd12cfU,
  0x30f1feedc07f0b18U, 0x60022c42be11c0fU, 0x1d7f2403e0fe34d8U, 0x2d070491ee032b49U,
  0xfc2c37c2020413e5U, 0xf12f311fe62cb24dU, 0xfa2c03d22dfea8f5U, 0xdf1706e83baafffeU,
  0x20ffc9d1174d263dU, 0xe216ffe7f31903fcU, 0x2514e9c7c4dc5512U, 0xeadfd5dffb0f070fU,
  0x109f62e1dd041U, 0x4fa10f1d619fa25U, 0xdf1522eaU, 0x0U,
  0x0U, 0x0U, 0x0U, 0x0U,
  0x0U, 0x0U, 0x0U, 0x0U,
  0x0U, 0x0U, 0x0U, 0x0U,
  0x0U, 0x0U, 0x0U, 0x0U,
  0x0U, 0x0U, 0x0U, 0x0U,
  0x0U, 0x0U, 0x0U, 0x0U,
  0x0U, 0x0U, 0x0U, 0x0U,
  0x0U, 0x0U, 0x0U, 0x0U,
  0x0U, 0x0U, 0x0U, 0x0U,
  0x0U, 0x0U, 0x0U, 0x0U,
  0x0U, 0x0U, 0x0U, 0x0U,
  0x0U, 0x0U, 0xb5e4d26300000000U, 0xa6f4fb50df09e637U,
  0xcdf0e0c65ee715ecU, 0xc3e905c028ebc9bbU, 0x1c2617f84481fd2eU, 0x131b470381e826fdU,
  0x6ca4244edf83334U, 0xbb23d4bcd8c5c4ceU, 0x2a12375e72cc2657U, 0xf2d6012b1eced99dU,
  0x2ad41aabce23fcfbU, 0x19ee1bd9e41739d3U, 0xcac665c2fd6fb57fU, 0xd030d0c01811a03U,
  0x2750fc89fb05fdccU, 0x2fefa2ba320fedb9U, 0xece90c3508922515U, 0x4ad1b9c1284be8b8U,
  0x70381efcaf80996U, 0xec110328ff813713U, 0xfe0752e21fb5f2c4U, 0xe490c5c46deef93cU,
  0x6dff04e0d95728e8U, 0x2c38b6e42db17fa4U, 0x1234a6ecd959ccfcU, 0x433609f8e5c8ef17U,
  0x4cdf7f75271609e7U, 0x1dedd40edc0ada3eU, 0x92d7fc8a8f7ec04U, 0x7f2a2601119c4c31U,
  0xdc43abafe0bafcdfU, 0x3869d619eee502d5U, 0x22e5460b1edfefeU, 0xffec37f2ece3f732U,
  0xc1fda340ee3b1ae9U, 0xbc1f9eceebce9c77U, 0x31657bccdb437b53U, 0x6e11e4f0fdd30635U,
  0xd8c7e6d505e81ec7U, 0x11702fff3e9d0fc1U, 0x4a2dfb8105e9c89fU, 0xf3dcc387dbb0bc67U,
  0xd7eecb36ff127f75U, 0x7f1af7dbbdcd18edU, 0xef336db6976b3aafU, 0xd881c9ddf8fa097fU,
  0x3fad54f5241eb06U, 0xf427270e470bf5fbU, 0xf132b07ffadb0f98U, 0xde4516401b1025cbU,
  0x58fc30fd30e517abU, 0xf5c58198b4f00a5cU, 0x2863403ce6df29daU, 0xec8f29ef2701e205U,
  0xf6f627ad14ca44b9U, 0x23652ae00ad344a5U, 0xc3784a064521ba1aU, 0x81dda90a16e41713U,
  0xdfee06bf34227bf1U, 0x26e702cacdb7ff5eU, 0xfa33c64a56cc3526U, 0x5ae3dc150da40329U,
  0x42421f1b1314e5b3U, 0xaeccd4cbd7e5f0edU, 0x12bc0d44097bef27U, 0x2be0b1da0dce3df9U,
  0xd52cb6203c385f3aU, 0x2f0908d2defaab45U, 0xfc11bc0cdd2400c1U, 0x3db0dfcb8fce77dU,
  0x2f44e00bbcec3de7U, 0xdc3e0b08818e21f4U, 0xcfbcbf2061524118U, 0x5b2616ef2effc3ecU,
  0xfb6fd6c97fd51604U, 0x93da31385d07c281U, 0xc5e7e3f80102f3c8U, 0xe6f179e61cabbdd0U,
  0xfee7cc7f012451d0U, 0xc1fee212e1ebd917U, 0xdf23eefa3207bef8U, 0xa3f8d5dbb17f5916U,
  0x1e161016cd7b5f18U, 0x93e6e33a1200cc6eU, 0xa1c028cc0bfdfe11U, 0xe91d3daa4108e281U,
  0xb3dadda212dfb653U, 0xc14a63dafd350b37U, 0xe0da5c3906570422U, 0xcbc0bbfce53ad23aU,
  0xff811be2afc8ec50U, 0xefbc442de1f933efU, 0xd2bc16edd641f319U, 0x29e8a41f213c18acU,
  0x92ff40bf43f1d68U, 0x811c163b24fbce1aU, 0x1618c42a464410c2U, 0x182895000130248fU,
  0x1c6711432c0d0c24U, 0xdcfd16c504eb04e9U, 0xe5a2f35dd42504c2U, 0xd336f50291225514U,
  0xe42c35d792d64a46U, 0xdd2cc690fdccba09U, 0x219dd10a9ec0d7fU, 0xb364f4328f1ae417U,
  0x1de7f0bf58df581U, 0x955407f009b5daddU, 0xb3f65beb25510844U, 0x20e1be1df202a1a3U,
  0xe1b5e465f9fc21a8U, 0xefc7dc81bff17c21U, 0xef4fb83114a42343U, 0xe00800c1bcd57f21U,
  0x16d11e16364c8d0bU, 0xe8fe0bf6f13eb11aU, 0x9ddfcf0e3b4a150cU, 0x38c9f214b20e20faU,
  0x2b0d661a03512c16U, 0x1616cb1835281320U, 0xb65337ebeddc15eeU, 0xd2db1b1c4b47bd10U,
  0x34f6f36061f3d253U, 0x1a1405d03fdcfce1U, 0x5a28412bd30c9973U, 0x208304fcf3ca29U,
  0x22a7ae9d8181dd34U, 0x6d45cefeffc7f0baU, 0x3da04a1326f0102fU, 0x76f3c7c805a9e1daU,
  0xfdda1e737f34d314U, 0x3ec0d7d309173537U, 0xecf51d5bb5431b54U, 0x41e4c58121f724c4U,
  0xd281ed1ee11a316aU, 0x7fc194ed2efd81ecU, 0x1afabb400cc981d6U, 0xc0ba1816d221be13U,
  0xbd712f485ffce4cU, 0xee7fff01601406f2U, 0x40b8ba071911f6f8U, 0x95c4d7f940c8c2d3U,
  0xdcf88c160f810055U, 0x2235bab1c3c7eb2eU, 0xdb020af5ecfc0dbcU, 0x56ffebf823010de4U,
  0xe3fd0f69e4f8eb76U, 0x1e02e056c614f3d5U, 0xe7d59a5434990501U, 0xf8c31f444ece520U,
  0xeb33cc2adb25f9f0U, 0xdd0fcafd0e0b144fU, 0xd4097feaec23eb3dU, 0xf90c7fda2a2e53dfU,
  0xb2b337c63ef7f02U, 0xfc01253f35c9d4caU, 0x4d81a7416ccf1856U, 0x7f3ecf0c55eed656U,
  0x1a3322fcd12d0dbaU, 0x7cd0fef838e6e7eeU, 0xe41be3afe71badf0U, 0x1de18108cea6ecbaU,
  0x262f0032c0e54524U, 0xf5c5e51b19ad2b1aU, 0xfc0c0c406e379adeU, 0xcdf10bb6ed0f7ff5U,
  0x243a323ff74439b1U, 0xfb81fc13d6debea8U, 0xca982c8cd93b0341U, 0x871481a0566939d8U,
  0xe51bdcfb0a98a846U, 0xde81f22b3af6e8a0U, 0x7f81202381b73240U, 0xc1b7e8f0191a270fU,
  0x2fa6a831273416c5U, 0xb604517fe61a3617U, 0xf43618febd1815bdU, 0x3e2c81a05c9caabU,
  0xd15ca7f1844e7e3U, 0xc1ff8e8dcb8126c6U, 0xc0120e1a221aefe7U, 0x867febfef009ddfbU,
  0x53192d7f407f1001U, 0x10badbec14e9315cU, 0x9528b711bb2c987fU, 0x243257e645c3be64U,
  0x55d05320bcbb61cU, 0x4978f303f4bbae70U, 0x1981d3417f2ae619U, 0x320c8fd827112fd2U,
  0x7fdb591f7b131cfbU, 0x1b527fc964c431edU, 0x9d6e36df7181fdc9U, 0x37b320067ff953b2U,
  0x81f703f3e1c0eab1U, 0xfce101174b44c4c9U, 0xd69408d6ec70cf63U, 0xf32514e3e7daa07fU,
  0xb9383902c17628U, 0x18c6d709ba25bb00U, 0x81d70771325b81ffU, 0x62bb02906d31af1U,
  0x1debf8ce210ff619U, 0x2d0a7100e20eefedU, 0x85eefb328e65ff47U, 0x17fbe43611fc8126U,
  0xd1d3eb4e2404eebfU, 0xf3223c4836d99201U, 0x4fd221c211f552eeU, 0x157d3f1bbad8fb1fU,
  0xf2097c0ae116d8ebU, 0x20df0b512cfcae87U, 0x4d051dae0d7e4c3U, 0x4f24e25cb8ee8ccbU,
  0xf0231d46e0a1b62dU, 0x4ba954812a9d00ceU, 0x31032ec4c00d849U, 0xd53e2d351c21c7e8U,
  0xf414f149475ee9d5U, 0xd7fc52f6a62519f5U, 0xe6dcb9ec091deafbU, 0xdbec9b03f71c8eacU,
  0xafe3e72e0e7f730U, 0x1353e8d3dbcc10bbU, 0x5c2ba749d152f06fU, 0xf7eac37f1a32f3d0U,
  0xd3f87acb29f051ceU, 0xad5b0ed6a1032ab6U, 0x22e560b61a0bfc01U, 0xa21d039e27d4c821U,
  0x55d0e83ea80bb331U, 0xf20be5f0e97f9ee6U, 0x443f1a191270d033U, 0xf9812c153d4e5a9cU,
  0xcaf6c244fa16e831U, 0x30333fcab3f1437fU, 0x30f031d1bcf8f026U, 0xe1d8ebd5ff20f33bU,
  0x5303aea9fa2a61d2U, 0xe9471131ed421dc1U, 0xf9477f3be1c03920U, 0x7ddedaa1173a363dU,
  0x87160c68aeea7ff6U, 0x15a8fbde20013c27U, 0x44350c41eed6debfU, 0xf72d965510421d30U,
  0xc00cfd4fc57421fU, 0xb4bef32159ae7fbdU, 0x7c506bff0a5db4bU, 0xa8d97d18f7b930e5U,
  0x57d82e36deedfc05U, 0xffc5282e0e4b047fU, 0xe039e0442d2ae011U, 0xca0beccd1223134dU,
  0xed31f9fa04161ea1U, 0x2236055b0d03213cU, 0xe1ff19fed7ac5006U, 0xe53455ad1c36e4f9U,
  0x10353bfc2dc60a81U, 0xc2c81fa2fbcafeeU, 0xd7100e48950c0499U, 0x3d48ee290705f542U,
  0xf81bce93f20001eU, 0xcd120e4e41ac3e1U, 0xf5e822dfb3ec08fbU, 0x41715741fdfbc29U,
  0x24220fa535004720U, 0x77ea45d98160fcb3U, 0x1a20213b2e45d7caU, 0xd24a0f3262330b3U,
  0x812331245800da4eU, 0x10602fd28121da3cU, 0xffe2bbf3e481feccU, 0x16f1eefd23f64234U,
  0xffdbd4a7e049b62bU, 0xf318389635c01aa9U, 0x81fa4ab27f40e103U, 0x500c3431551fb7efU,
  0xfa2716bfce4eeb7fU, 0xb64bd1121011ce29U, 0x5511e21cf8f5efb6U, 0xbfa21a81eb8113e0U,
  0xf73e003904122dfbU, 0xcc589f18ae0692f4U, 0x3961b8139ccd00eU, 0xa9d20547e4db2be9U,
  0x932ea53b2cf6aecU, 0x780f70de1a05e412U, 0xe423e0bdf8f07fadU, 0x70603e9f4fe30c8U,
  0xbd0416a1d6ff4cf1U, 0xd01210de4d0ad714U, 0x2adb2b0e2262bc53U, 0xe1c360f697eaf078U,
  0x213226debe62f02U, 0xfbfd90d286d20d25U, 0x10da39cf1fee1bddU, 0x6ed9cc9c7f0d2ac8U,
  0xea02344afee31608U, 0xf9246cd6b20313f2U, 0xf47e114U, 0x0U,
  0x0U, 0x0U, 0x0U, 0x0U,
  0x0U, 0x0U, 0x0U, 0x0U,
  0x0U, 0x0U, 0x0U, 0x0U,
  0x0U, 0x0U, 0x0U, 0x0U,
  0x0U, 0x0U, 0x0U, 0x0U,
  0x0U, 0x0U, 0x0U, 0x0U,
  0x0U, 0x0U, 0x0U, 0x0U,
  0x0U, 0x0U, 0x0U, 0x0U,
  0x0U, 0x0U, 0x0U, 0x0U,
  0x0U, 0x0U, 0x0U, 0x0U,
  0x0U, 0x0U, 0x0U, 0x0U,
  0x0U, 0x0U, 0x49d211200000000U, 0x21210ee1192d8107U,
  0x310233dcc9dcdf2fU, 0xe1c0e3dfb80400f6U, 0xf4213c56d311e1dfU, 0x520012db1ae6e824U,
  0xcb49090ed6bbf545U, 0xf85e0bed0f19fae4U, 0x37edec31f1310dfeU, 0xd3ffebed07be1505U,
  0xff18ba3fd0251aecU, 0xdfebf1d42e04e2ffU, 0x2fa13d2fc1202e1U, 0xe925d5b04612261dU,
  0xcd27d8271043cdf1U, 0x1fc3f9dee104baeeU, 0x12c40312f9fceef0U, 0xce221b81eb160ae8U,
  0x2717f8041523b9ffU, 0xbc07ee192df61d0aU, 0x2b02d902d6edefc9U, 0xc7d62d0c5a1af5acU,
  0x38f6270fe11f1d0bU, 0xe60309dae5fa0eecU, 0x1102f9e31a2617f8U, 0x38e4ebf6e6f79bb8U,
  0xf203b556c8c7e9e5U, 0x2516dce12b18c7c7U, 0x292cb1ece7ea03d4U, 0x2b98105fbfc99e5U,
  0x31edca3513fd0630U, 0xcb4fd5d4e11f0d0bU, 0x7c3056cb46f4dc59U, 0x1a5552214301e3ddU,
  0x262cf0113bcb7236U, 0x1306f6ec51fc24c6U, 0xff1cebe924ca01deU, 0xe83517011829cd7fU,
  0x2fd8342fc2f1c922U, 0xe81ae816d21bf262U, 0x17d6faec9cdcf104U, 0xcf23b004c270dae6U,
  0xd80345cdd5f502cbU, 0xb25ffe2703fc0aa3U, 0x1941a5ff27fbdd38U, 0xfbea2f6daa9c71cU,
  0xb1c2343e08ad4a1fU, 0xd45fd9234ef31053U, 0xcd508f31dd5fbebU, 0x1f14ca16dcd9c0afU,
  0x29d839f09acafbd7U, 0x38c5f5cc03c67f17U, 0xb01af7f35818f936U, 0xdae417e1ea2cce01U,
  0xaf00ec12e401da27U, 0xf013040ff22c1423U, 0xd47f6e400e60f46U, 0xfddf293d3a5712f8U,
  0xd80109231be518ebU, 0x2febe12fb8fa0b1eU, 0x575e50f1be651f09U, 0x30c6c5ec3234050dU,
  0x11be4d1adfd5cf2aU, 0xe394acbf7d7a3b0U, 0xe906e9fe0fc91927U, 0xeb420a030de2032aU,
  0xfc812c240c02dd22U, 0x48182ddd1b46cbe4U, 0xf1b70805274646fbU, 0xb214060ee3072f23U,
  0x4437d753c3ffef14U, 0xb103bf17d622eabfU, 0xc92fda05e3020e1eU, 0xf53f130630ec14c3U,
  0xc13d56d213110c0eU, 0xd1b3fa0649f3d323U, 0x218c2fa2714e656U, 0xf51c03fadd040044U,
  0xe04834caf5fe523cU, 0xebcdbeb1fb2b3cebU, 0x411669591d8badeU, 0xe2a6118360acc20U,
  0xfc9d2711230f047fU, 0xd955aafb691b1d0dU, 0xfa01082846a90701U, 0xed3cd2fb0520e8f7U,
  0x9f29e8db1df21af9U, 0x2218501ad8f82614U, 0xe0acc4dffa29c507U, 0x2ff812dcd0e81cfaU,
  0xf9d309ef23d8fd0aU, 0x2012102b3af81d31U, 0xe513302907e11ee5U, 0x160d0c0fef4e4ccaU,
  0x20f27fa24e002114U, 0xf702cbf4415f192fU, 0x4fa918e9f3d99a01U, 0xdc0afff94703de24U,
  0x1081fd15d1fafe47U, 0xbfc8d658d8f3e517U, 0xf217fd70ee17d416U, 0x55c7fe445322d2d8U,
  0xfdedd7e7d3420819U, 0x2ec1b504130d33bbU, 0xee1ff7082751020fU, 0x291f9c2605c70dd0U,
  0x1eff20f2cdeedcc7U, 0x48372056fbf5eb46U, 0xa300dff4c8f00416U, 0x7ff6d7e82dcc2359U,
  0xf294252b11f24a17U, 0x48987d8ac7fce305U, 0xb8e73abe1cc21de9U, 0x473554eee33b170cU,
  0xd310b7e01db5c9e7U, 0x12f15fc0d6026636U, 0x37f9e6f63e0808b9U, 0xf6a069d8fc450205U,
  0x30ce6310f3bd103eU, 0xb73e4515d2294dc8U, 0x29f353c1ef64525U, 0x1808fe071db9c0bcU,
  0xf440e1e75ceae2eaU, 0xefe16124f031c12U, 0x362801e210fd5bbcU, 0x4ec47e6e30cdc27U,
  0x889ce912e8350529U, 0x34373cdae2fd33efU, 0x81692da6e660ed1fU, 0x5f832201401f7b5U,
  0x449ebc814f44f2fU, 0x603f452e28c0f6c4U, 0xf8180c4137d7ce09U, 0xeb1db3d3ce0604e9U,
  0xd9ef101a3e461803U, 0xef0fadf2cc16acdU, 0x59e1fb83e67ff024U, 0xd65738edd503d793U,
  0xfbca2bafc6cc0859U, 0xb93d37e32026f00aU, 0xcee90f49db560ed2U, 0xe319f1125cf2cff3U,
  0x2eccecca0d30f8b7U, 0x85067cf1afce328U, 0x3abedbc92cd53016U, 0xb6bbfdf2c9fd1111U,
  0xc413fe23fb18f8d7U, 0xf9f80fd5dcc743faU, 0xd9f2164e55eff62cU, 0x3402f0263ba7094aU,
  0x26f231dfd9e4e4eeU, 0x838ffd6f1122d0bU, 0xb2f7d3fec6ecca44U, 0x32fd292b0806f53cU,
  0xe9aa03fafaf4d6f8U, 0x3bd781fee5dedfe5U, 0x2e0a3ea3170d7b08U, 0xbd49d1e7dc14439cU,
  0xbeff6f516d52b2fU, 0x48e6f4eee5f0b71bU, 0x1dc3c83927e9d1d5U, 0xd80c3dd400f24304U,
  0xad90630f816bd1eU, 0x1a07f4a3e0ad4ad9U, 0xe7f39bffbf5e9dbU, 0xdcc18de1624044bU,
  0x9e2e3ce3f8abd719U, 0xe553c8ecf3c209fdU, 0xef27bf06e8f7e9f6U, 0x5e0de19cec03e450U,
  0xf4192f03502102e7U, 0x5cdae6171405ffb1U, 0x4717fb103608e503U, 0x51bde5f7f506ca14U,
  0xcf6b60e8845ee133U, 0x21ed09de1ff42768U, 0xec66001e22f16305U, 0xc8f21dd9352d1be0U,
  0x1dfdb9483e81e858U, 0xd8f727df3e040edbU, 0x5905f2d9e5f61cd7U, 0x2416f2bf1be9faf5U,
  0xc8325dd82ae2273cU, 0x23e5ea18ccfe5d29U, 0x1b2188cae3d6ff66U, 0xd326171831d90c0cU,
  0xea59040a20f21e55U, 0x51734b212d6f20aU, 0x195efcf4fddad82fU, 0x17b30ccd7fd5f4dbU,
  0x8ec422f1fcb3cf19U, 0xd34ac6d51a11fbd6U, 0xc010dbe1aefa4b6U, 0xd904ebafeacdafc9U,
  0x45d6020319fe91f7U, 0x495755f4f722a8fdU, 0xa8fb0cdc0d04dbc6U, 0x4d45412735165a81U,
  0x7a52f00e362cac18U, 0xf31af72302142711U, 0xd3f72a2bad5aba08U, 0x1845f01bf42401beU,
  0xb352bbc142bc0c22U, 0xf30a060f9dd9e50dU, 0xf82c08eff411d711U, 0x200edeecf0f9d4d8U,
  0x19041e05070045fbU, 0xe425de23362a103dU, 0xe1fdf6f7db09c8d6U, 0x2b2d11210ce0efd0U,
  0xe6e0051ae81921f1U, 0x412ee5dcdbb5ededU, 0x130eb33cccc5da42U, 0x35fddffa150c0624U,
  0x3cfc38030a18d71eU, 0xdde4e97ff12502c2U, 0x5217fef831022829U, 0xd7b80de113e6430eU,
  0x36081acbfe34dda9U, 0x78bdf71ac9e9fde3U, 0x22ec3f814115ccedU, 0x61634fa0d2ea1fbU,
  0xc7b34e05d90b4709U, 0xbb15efeefa05d53cU, 0x309b24e1e469632bU, 0x2031f8f973ec14d5U,
  0xcef92449dbf7d31fU, 0xb9dae5f5416c1208U, 0xfd3115ad471617c4U, 0xf02d0bef2ef010cfU,
  0x1ef14bceec1a11baU, 0xddffdd0d29eefd81U, 0xfb1143e7ce01ee2dU, 0x2df0510f5080ee1U,
  0xe60e211305cf06f5U, 0xd30c0ddf0a0dd905U, 0x16f52be6fdeeed27U, 0x9dd550017250bd6U,
  0xf1f8d6e50f42fb0bU, 0xeef4fceae52eecf5U, 0xe610402b0c1503f4U, 0x97f39ed2020f81dU,
  0x9544604bef52c30U, 0x1167f5c60c3ad3feU, 0x2b4ad022d8e3349cU, 0xf604d710ee33f70dU,
  0xf2fb9cd5469e19e7U, 0x3713740242ef0408U, 0xdbed1e3219411df3U, 0xf9e2f5221f02c418U,
  0x12fe67260ee6cf14U, 0xf445caf2f72cf23eU, 0xd904fae5cce4273aU, 0xe2c881a102dde5f1U,
  0xd42d17b3e8d9e60eU, 0x2df2dfdb2ee037c6U, 0x3ad8045b5d160a1bU, 0x37131ee8f2c7f113U,
  0xe53eef052ef847f5U, 0x3d42d905f3d5eff9U, 0x3d41cc10d94362fcU, 0x56232cfaeb7de73U,
  0xbd25c430b7090421U, 0xcc50c9260bee0318U, 0xf2162cedd614539bU, 0xdcdde0ebf9e9e0ffU,
  0x25b419bebf490011U, 0x8382d35a307c703U, 0xe0bbfc1f0f1445beU, 0xfc0819dbeeeec31bU,
  0x54ec2f1e3d0fa245U, 0x14c4d9d481d5f632U, 0xe0b067282a182f04U, 0x7099182ab5ac1a30U,
  0xe216523507efbd12U, 0x2e0fccf5ec911a2dU, 0x2de0f7c1fc1fcf48U, 0xf8d2dee3e4d70cefU,
  0xfdfb2d6ad3e2c5ccU, 0x1b45fee412fa3f2cU, 0x40f1f2efddf06e4U, 0xf0f04765e63505c2U,
  0xbb20e53135deeeb5U, 0x60739daed170260U, 0x90ae8a3e21db704U, 0xd219e937e5f50ce3U,
  0x296c08013de40fa9U, 0xc30ff98121e7d06cU, 0xe1c63e2fU, 0x0U,
  0x0U, 0x0U, 0x0U, 0x0U,
  0x0U, 0x0U, 0x0U, 0x0U,
  0x0U, 0x0U, 0xfdfa0b0400000000U, 0xa02fd05edf60503U,
  0xbfff0f9fe02e0f0U, 0xfb0303f3f306fe00U, 0xf4f8f4eb030b08f6U, 0x1110600fd03f804U,
  0xfffc03010c16020aU, 0xaf5f4f8f5fcf2f2U, 0x905040b020bfc02U, 0xf111fc0108f7f9U,
  0xf60b0afe06f606edU, 0xeaee06effcff00f5U, 0x604ffedf10ffef8U, 0xfaeff30ef30206f6U,
  0x201ff03f7f9f90aU, 0xfa1405f5000503eeU, 0x1000f4fb09020b09U, 0xebfd02ef0cf210f9U,
  0xfff9f006fcfefafeU, 0x2020107fa1403f5U, 0xfcfb0108020102ffU, 0xfdfe0205000e07f4U,
  0xfaeb1dfa040a0b0aU, 0xbfffdf80507f7f9U, 0x10e80705fb01f6f9U, 0xeffbfdf90b0b03faU,
  0xfdf004eef8fbfb02U, 0xa09fd030d02f8f6U, 0x70600f70a0b01fcU, 0xfe0500e4010e0ffdU,
  0x11f4f40311050707U, 0xf8fc05f01b1c07f6U, 0xf9fdfef4000808f7U, 0xfee07defe120cfcU,
  0xfcfa0400f3fb11fdU, 0x3f8fcfe0704f5f4U, 0xfaf8e50001030ffdU, 0x10900ed0b0109fbU,
  0x709f8f8fe0f0af7U, 0x707010311f90205U, 0x4111108ed0b1600U, 0x10f9fbff03f404ecU,
  0xfa0f0902fff1f508U, 0xe80400f900f314edU, 0xf01d05f8f6000310U, 0xe3f90afe110800f6U,
  0xfefefbfafefe1c02U, 0xfc0915030ef0fefcU, 0x2effb01f60bf310U, 0xfafa00fafdfc0512U,
  0x3ff0918fefa0201U, 0xfd03f8f6f9eff8fbU, 0xf9fe16fdf6f609fbU, 0xfd09020501050aU,
  0xf5f0ef1007f8f4ffU, 0x11ff06fc080ff4U, 0xfdf306fbfa0b12e4U, 0xf40903f1fb04120cU,
  0xf05030401030a05U, 0xf2f306fcf7fe01f2U, 0xf3faf0f40d00f70dU, 0xf8fbfef9f7fd03faU,
  0xfefc05ff0a14f5faU, 0xa17fb01fafa0bf4U, 0xc03eefcf1fe0401U, 0x14feedfd05fa1515U,
  0xec0105fffe0bf202U, 0xf0fe050b0809ecf6U, 0xfffbff0902ffffU, 0xed0b02f1f6050000U,
  0x2fc05fd071c06ffU, 0xf0faf3fef7fc00fcU, 0xfb020aff12f40104U, 0x16f708eef303f8fcU,
  0xf90606010e0702ffU, 0xfc040b010403f9edU, 0x1004fde6040d0008U, 0xf7f3fc090409f820U,
  0x6fbe8f509f3f3f8U, 0xe11070201f8e705U, 0xafa0404f9fc09f2U, 0xef0002f90bf6f513U,
  0x2060607fa16f414U, 0xff0dfbecf60c07eeU, 0xf5030700f210f307U, 0xcf907f100fb02fcU,
  0xfd0cf2f506f70a02U, 0xf815fc010bf606fdU, 0xf8fdf909f3070ff1U, 0x7ea05fd070c0208U,
  0xfdf2f7fc04100ef8U, 0x1702f5fcf704f501U, 0x4fb14f8ffe9fa00U, 0xfdfc09fb0705f700U,
  0xfe02f3f8fff6fdfdU, 0xef10fffaecf8f2ffU, 0x160303eefdeafb00U, 0xeffe0c0bfdf3f9f8U,
  0x6010ffd040d020cU, 0xf10d0df8020af502U, 0xfe0df2f80508f8f5U, 0xf8fbfbff06020af3U,
  0xf90b04f60c03fd03U, 0xfeeef80cf5fc00U, 0xf70905fe0f0afefdU, 0xa0a0911fb09f50dU,
  0x13f504f4f6fdf1feU, 0xf4f903ff0bfe04f4U, 0x8ee1204ea04faf5U, 0x604e5041fff06fbU,
  0xfae5fe0209fcfe09U, 0xf406ee080305faf8U, 0x912f6020312f607U, 0xf800020a02fef61aU,
  0xf8fe060707fefc09U, 0x2fc0df8f8000803U, 0xa0b07fc1b0e0003U, 0xf6040dfe190306feU,
  0xfb1409fafdf5f6feU, 0xfd00fef6fc0303f0U, 0xf90ef8fae70000f6U, 0xea050ef404f80a05U,
  0x101fd02faefec02U, 0x81904fef2fbfff5U, 0x5fff905060f1009U, 0x12f4f9f405140000U,
  0x5f301fe0d06020dU, 0xfa06f61404f8f505U, 0x5f40dfdf4f9fdf6U, 0xfe02020a0211eff9U,
  0xefeffdfc110700f9U, 0xfff508fb02130cfeU, 0xf307f0ef0dfaf806U, 0xd03f7f5f40efef3U,
  0x7fd00020611f7fcU, 0xf0fe030afe000015U, 0xfe1310ff02ec06f7U, 0xfefe00fb0f080af4U,
  0x20301fb050e06e7U, 0xfe070204ed081409U, 0xf02009fa1503eaf6U, 0xefe80d0c020dff05U,
  0xedf815fb0900fcf9U, 0x601f8f90706fef4U, 0xfcfffb04fafd0102U, 0x601eafdfaf500f0U,
  0xedfaf1fcfb0af903U, 0xf90515fef8000809U, 0xf00a02f801030410U, 0x1d0106f901070ef3U,
  0x102fd08fb0507fcU, 0xf70bfc05f208ff00U, 0xfa0cf809fd0cfdfdU, 0x1f6f4f0090302ecU,
  0x5fa04fff2f9f0fbU, 0xf403ed04fd07f8U, 0xf0f005f702060b00U, 0x70a07fffcf0fb09U,
  0xfef2f6eff3f8f801U, 0x1300fafcf2fd0502U, 0xafffaf0060801f2U, 0x6f2f40317f4f607U,
  0x19f901faf8fc120aU, 0xfd00040c0b0af6f8U, 0xfe00ff070ceff4f0U, 0x20dfffb0af6ffeeU,
  0xfb0afe150402f5f5U, 0x1fe0c01fafe03fdU, 0x4f7fffbfcfd11efU, 0xff040cf6fe070508U,
  0x2fdfaf4f9f7fe0aU, 0x5f70f0400fcfaU, 0x7f3ee05fafd04ffU, 0xe4f1070112f2fe12U,
  0xef1b02fdfbf2fdfdU, 0x50df2100600f701U, 0x6effb0cf9f9faffU, 0xfb12030112fa0302U,
  0xf704f7fef7eeff0dU, 0x2fefe0004f8ee09U, 0x903f9101001f9fbU, 0x7ffe9fef00bfcU,
  0xd1002fdfd000cfcU, 0x5fff60bfd04fdf4U, 0xeb020d02f6030efeU, 0x1308020b02f8f207U,
  0xf606fbfd01f5f2ffU, 0xfa09f90506070c0eU, 0x30b04fc0304fb03U, 0xf4f708e6fdfef7fdU,
  0xef0c040800020504U, 0xf3120be70bf7fafaU, 0x1bf4050a00fe0122U, 0xfe05f50404fff4fcU,
  0x503f3fdfd0508e9U, 0xee14fe0208060305U, 0xf2f3f30f090e0313U, 0xaf0040c0cfc020cU,
  0xe302ff0a05eeee11U, 0x12f60bf90efbe700U, 0xf70df8ff12170d14U, 0x6ff02fefe040a05U,
  0xfbf4f9f80310fa08U, 0xff06060401070a0dU, 0x3fef8f209ff0e0bU, 0x17f20c09030207U,
  0xdf7f60406eef207U, 0x909f4f2f005f3f7U, 0xfd09001907eefafbU, 0xaeefff80107fef5U,
  0xbf303e5fcfb0bf8U, 0x8fefb00040f0901U, 0xeafd0303fe00f904U, 0xf703f7fafc020408U,
  0xf3fb08fcf808fb09U, 0xee02f9fef300f6f0U, 0x6fbf30bff12fff2U, 0x915f1f210100903U,
  0x303f508f40dfa15U, 0xb0401050ffafcf2U, 0x40bf6fdfd0e13U, 0x5010b010c15fbf9U,
  0xf510f410fffff7f9U, 0x15000df8f901eef5U, 0x15fdfefa0b06faf4U, 0xf6fe04fefbf6f3fdU,
  0x2f2030001fff80dU, 0xdf4e80d12ff12f8U, 0x13061ef907ff0e06U, 0xe704fafef902faf8U,
  0x811f9efff04fcfdU, 0xffe07fb0d0af00aU, 0xb01ff0d00fe0500U, 0x1001006f5f2f908U,
  0xeefaee000c03fbf4U, 0xf7fd0c09f2070701U, 0xfe0112f809fa060dU, 0x903020f0ffcf306U,
  0xf5000cf1fcfefeU, 0xb0cfbf60afffffbU, 0xfe12fd0813fd0401U, 0x1fb05f8f600f001U,
  0x10b03fdf6fafeffU, 0xfa00fd00040a0808U, 0x903fff104fa0301U, 0xfa0707fe03f6faf9U,
  0xfc0cfc0bfe08f505U, 0x704f701f10506fbU, 0x13fe15f100fd0d05U, 0xf3eafd000a160801U,
  0xeefdec030515efecU, 0x1a00f603f7081106U, 0x7fbf40bf41d07feU, 0xfaf7fff9f81a0405U,
  0xedfdf5050b08ff01U, 0xff0004f705fefb0fU, 0xed02f40cecf8f503U, 0x100f007f70df408U,
  0xbfd04040807ef03U, 0x30508110a07fa07U, 0xfe1b11fe19f8fc0fU, 0x1a0e01fafff7fe04U,
  0xbed1602eef50703U, 0x6070d060f100d14U, 0xf3fdee0cf8f4f8feU, 0x1c0f08fa09021206U,
  0xfe04050b0cfcf60bU, 0x5fe02f404fa000aU, 0x400f90204faeffdU, 0x7f104f9fc140ef5U,
  0x30af8fd0206f7f7U, 0xfefb050203f8fffcU, 0xfd0f000604f9f905U, 0xf2fe0d0b050107faU,
  0xb07030bf8f508fbU, 0xfd01fa0501f7f6faU, 0x201f7f8e408fcfbU, 0xf8faf40200160802U,
  0x13fbfafafbf6fc01U, 0xf0deded01faeef9U, 0xff04fc050a06fd03U, 0xf020c0c02f7fd08U,
  0x603fafef214fff8U, 0xfc0bfefbf31105f0U, 0xf009f500fe0c0700U, 0x7fbeaf81001f70eU,
  0xfa02fef70c0408f3U, 0x5081101010bf60bU, 0x4000000006010de6U, 0x4000000040000000U,
  0x4000000040000000U, 0x4000000040000000U, 0x4000000040000000U, 0x4000000040000000U,
  0x4000000040000000U, 0x4000000040000000U, 0x4000000040000000U, 0x4000000040000000U,
  0x4000000040000000U, 0x4000000040000000U, 0x4000000040000000U, 0x4000000040000000U,
  0x4000000040000000U, 0x4000000040000000U, 0x4000000040000000U, 0x4000000040000000U,
  0x4000000040000000U, 0x4000000040000000U, 0x4000000040000000U, 0x4000000040000000U,
  0x4000000040000000U, 0x4000000040000000U, 0x4000000040000000U, 0x4000000040000000U,
  0x4000000040000000U, 0x4000000040000000U, 0x4000000040000000U, 0x4000000040000000U,
  0x4000000040000000U, 0x4000000040000000U, 0x4000000040000000U, 0x4000000040000000U,
  0x4000000040000000U, 0x4000000040000000U, 0x4000000040000000U, 0x4000000040000000U,
  0x4000000040000000U, 0x4000000040000000U, 0x4000000040000000U, 0x4000000040000000U,
  0x4000000040000000U, 0x4000000040000000U, 0x4000000040000000U, 0x4000000040000000U,
  0x4000000040000000U, 0x4000000040000000U, 0x5b594d940000000U, 0x549064ce00234a0U,
  0xa1bbe4d33df823c4U, 0xe131eddd7f34eea4U, 0x3a291d26ffb9c201U, 0x50e7231cd9e638bbU,
  0xb5f70c32fbd6f605U, 0x21d4a3fad4efef3dU, 0x14e969febde52ee4U, 0x9300c0f8ed0b0416U,
  0x2603e6230a2812c4U, 0xfecdbddd007f84dU, 0x34c62e335dedaa9dU, 0x92ff3e522de0155U,
  0x1d531db1a4ae820U, 0x303a17dc40419198U, 0xf727d527ce37ccdaU, 0x8cec135ad7fdbe12U,
  0xcadb4c3f652ff8e2U, 0xe54ae68de60042b9U, 0x403ee7fdec3b2307U, 0x3926e802157f210bU,
  0x35c9051103f214b5U, 0xfac4ccd01f2da4dbU, 0xec3e2016494e02aeU, 0x6e3a33133b341da0U,
  0x1f39a0f634cd1bfbU, 0x60d2dafcd28e128U, 0x2c23e50af619bc41U, 0xdac7ef650736eaeeU,
  0x1d2b2f18f6eb0407U, 0xf020d8a1f90343bfU, 0xa6d2f5fdbdb81df8U, 0x1008ed052dd6295cU,
  0xd64ce5f1a6c0eb02U, 0xe72c0f238151c4b8U, 0x510ea4fe1bc4fee7U, 0xabd0ea1807810326U,
  0xf81f2729e22a58dfU, 0xe80130e61a1ec3ddU, 0xded6b1270b8e44e9U, 0xe1f519312aee5719U,
  0xf01df714f3d3ef2fU, 0x16c80916c404ed20U, 0xed1121013f11e1e7U, 0xcce8c03dbdd606aaU,
  0xdbf24ccf150ffa20U, 0xcfce010ed9f929beU, 0xea24023ef1e90d09U, 0xd11722aad481f3edU,
  0x1236fc39ef0705fbU, 0xece1e1d72ca212deU, 0x230c35f4f9542b41U, 0xc6e4f7eaf3d74bc3U,
  0xbbe05ab92110030U, 0xdaedda062fe12000U, 0x700d22af1f514b3U, 0x5d1e232ae1e0e3b2U,
  0xb894074a34db9d20U, 0x1dd2d416e7d5bce8U, 0xc6140296edef1b25U, 0xee19f2f2ede9347fU,
  0x2813d14fbfab22e4U, 0xdc2c13f7f6f8c3d8U, 0x12af00f5ea0e1bccU, 0x35d841323ce0ecfcU,
  0xc0ef2221ffffd45U, 0x1cc6b652f6c20d5fU, 0xf9dfaad707c23240U, 0xdd1bd41fd62035aeU,
